{
  "version": "1.0",
  "truncation": null,
  "padding": null,
  "added_tokens": [
    {
      "id": 0,
      "content": "<pad>",
      "single_word": false,
      "lstrip": false,
      "rstrip": false,
      "normalized": false,
      "special": true
    },
    {
      "id": 1,
      "content": "<bos>",
      "single_word": false,
      "lstrip": false,
      "rstrip": false,
      "normalized": false,
      "special": true
    },
    {
      "id": 2,
      "content": "<eos>",
      "single_word": false,
      "lstrip": false,
      "rstrip": false,
      "normalized": false,
      "special": true
    },
    {
      "id": 3,
      "content": "<unk>",
      "single_word": false,
      "lstrip": false,
      "rstrip": false,
      "normalized": false,
      "special": true
    },
    {
      "id": 4,
      "content": "</mml:msup>",
      "single_word": false,
      "lstrip": false,
      "rstrip": false,
      "normalized": false,
      "special": true
    },
    {
      "id": 5,
      "content": "<mml:msub>",
      "single_word": false,
      "lstrip": false,
      "rstrip": false,
      "normalized": false,
      "special": true
    },
    {
      "id": 6,
      "content": "<mml:mtext>",
      "single_word": false,
      "lstrip": false,
      "rstrip": false,
      "normalized": false,
      "special": true
    },
    {
      "id": 7,
      "content": "<mml:mrow>",
      "single_word": false,
      "lstrip": false,
      "rstrip": false,
      "normalized": false,
      "special": true
    },
    {
      "id": 8,
      "content": "</mml:msqrt>",
      "single_word": false,
      "lstrip": false,
      "rstrip": false,
      "normalized": false,
      "special": true
    },
    {
      "id": 9,
      "content": "</mml:mrow>",
      "single_word": false,
      "lstrip": false,
      "rstrip": false,
      "normalized": false,
      "special": true
    },
    {
      "id": 10,
      "content": "<mml:mfrac>",
      "single_word": false,
      "lstrip": false,
      "rstrip": false,
      "normalized": false,
      "special": true
    },
    {
      "id": 11,
      "content": "</mml:mn>",
      "single_word": false,
      "lstrip": false,
      "rstrip": false,
      "normalized": false,
      "special": true
    },
    {
      "id": 12,
      "content": "<mml:msqrt>",
      "single_word": false,
      "lstrip": false,
      "rstrip": false,
      "normalized": false,
      "special": true
    },
    {
      "id": 13,
      "content": "<mml:mfenced>",
      "single_word": false,
      "lstrip": false,
      "rstrip": false,
      "normalized": false,
      "special": true
    },
    {
      "id": 14,
      "content": "</mml:msubsup>",
      "single_word": false,
      "lstrip": false,
      "rstrip": false,
      "normalized": false,
      "special": true
    },
    {
      "id": 15,
      "content": "</mml:mfrac>",
      "single_word": false,
      "lstrip": false,
      "rstrip": false,
      "normalized": false,
      "special": true
    },
    {
      "id": 16,
      "content": "<mml:msubsup>",
      "single_word": false,
      "lstrip": false,
      "rstrip": false,
      "normalized": false,
      "special": true
    },
    {
      "id": 17,
      "content": "</mml:mo>",
      "single_word": false,
      "lstrip": false,
      "rstrip": false,
      "normalized": false,
      "special": true
    },
    {
      "id": 18,
      "content": "<mml:mi>",
      "single_word": false,
      "lstrip": false,
      "rstrip": false,
      "normalized": false,
      "special": true
    },
    {
      "id": 19,
      "content": "<mml:mo>",
      "single_word": false,
      "lstrip": false,
      "rstrip": false,
      "normalized": false,
      "special": true
    },
    {
      "id": 20,
      "content": "<mml:mn>",
      "single_word": false,
      "lstrip": false,
      "rstrip": false,
      "normalized": false,
      "special": true
    },
    {
      "id": 21,
      "content": "</mml:msub>",
      "single_word": false,
      "lstrip": false,
      "rstrip": false,
      "normalized": false,
      "special": true
    },
    {
      "id": 22,
      "content": "<mml:msup>",
      "single_word": false,
      "lstrip": false,
      "rstrip": false,
      "normalized": false,
      "special": true
    },
    {
      "id": 23,
      "content": "</mml:munderover>",
      "single_word": false,
      "lstrip": false,
      "rstrip": false,
      "normalized": false,
      "special": true
    },
    {
      "id": 24,
      "content": "</mml:mi>",
      "single_word": false,
      "lstrip": false,
      "rstrip": false,
      "normalized": false,
      "special": true
    },
    {
      "id": 25,
      "content": "</mml:mfenced>",
      "single_word": false,
      "lstrip": false,
      "rstrip": false,
      "normalized": false,
      "special": true
    },
    {
      "id": 26,
      "content": "</mml:mtext>",
      "single_word": false,
      "lstrip": false,
      "rstrip": false,
      "normalized": false,
      "special": true
    },
    {
      "id": 27,
      "content": "<mml:munderover>",
      "single_word": false,
      "lstrip": false,
      "rstrip": false,
      "normalized": false,
      "special": true
    },
    {
      "id": 28,
      "content": "Symbol",
      "single_word": false,
      "lstrip": false,
      "rstrip": false,
      "normalized": false,
      "special": true
    },
    {
      "id": 30,
      "content": "exp",
      "single_word": false,
      "lstrip": false,
      "rstrip": false,
      "normalized": false,
      "special": true
    },
    {
      "id": 31,
      "content": "sin",
      "single_word": false,
      "lstrip": false,
      "rstrip": false,
      "normalized": false,
      "special": true
    },
    {
      "id": 33,
      "content": "tan",
      "single_word": false,
      "lstrip": false,
      "rstrip": false,
      "normalized": false,
      "special": true
    },
    {
      "id": 34,
      "content": "diff",
      "single_word": false,
      "lstrip": false,
      "rstrip": false,
      "normalized": false,
      "special": true
    },
    {
      "id": 36,
      "content": "Sum",
      "single_word": false,
      "lstrip": false,
      "rstrip": false,
      "normalized": false,
      "special": true
    },
    {
      "id": 37,
      "content": "Derivative",
      "single_word": false,
      "lstrip": false,
      "rstrip": false,
      "normalized": false,
      "special": true
    },
    {
      "id": 38,
      "content": "Integral",
      "single_word": false,
      "lstrip": false,
      "rstrip": false,
      "normalized": false,
      "special": true
    },
    {
      "id": 39,
      "content": "translate",
      "single_word": false,
      "lstrip": false,
      "rstrip": false,
      "normalized": false,
      "special": true
    },
    {
      "id": 40,
      "content": "MathML",
      "single_word": false,
      "lstrip": false,
      "rstrip": false,
      "normalized": false,
      "special": true
    },
    {
      "id": 41,
      "content": "to",
      "single_word": false,
      "lstrip": false,
      "rstrip": false,
      "normalized": false,
      "special": true
    },
    {
      "id": 42,
      "content": "Python",
      "single_word": false,
      "lstrip": false,
      "rstrip": false,
      "normalized": false,
      "special": true
    },
    {
      "id": 75,
      "content": "Eq",
      "single_word": false,
      "lstrip": false,
      "rstrip": false,
      "normalized": false,
      "special": true
    },
    {
      "id": 80,
      "content": "cos",
      "single_word": false,
      "lstrip": false,
      "rstrip": false,
      "normalized": false,
      "special": true
    },
    {
      "id": 89,
      "content": "log",
      "single_word": false,
      "lstrip": false,
      "rstrip": false,
      "normalized": false,
      "special": true
    },
    {
      "id": 22822,
      "content": ":",
      "single_word": false,
      "lstrip": false,
      "rstrip": false,
      "normalized": false,
      "special": true
    }
  ],
  "normalizer": {
    "type": "Sequence",
    "normalizers": [
      {
        "type": "NFKC"
      }
    ]
  },
  "pre_tokenizer": {
    "type": "Split",
    "pattern": {
      "Regex": "<[^>]+>|\"\"\"[^\"]*\"\"\"|'''[^']*'''|\"[^\"]*\"|'[^']*'|\\bdef\\b|\\bclass\\b|\\bfor\\b|\\bwhile\\b|\\bif\\b|\\belif\\b|\\belse\\b|\\breturn\\b|\\bimport\\b|\\bfrom\\b|\\bas\\b|\\bwith\\b|\\btry\\b|\\bexcept\\b|==|!=|<=|>=|\\+=|-=|\\*=|/=|=>|->|\\bSymbol\\b|\\bEq\\b|\\bexp\\b|\\bsin\\b|\\bcos\\b|\\btan\\b|\\bdiff\\b|^\\s+|\\s+"
    },
    "behavior": "Isolated",
    "invert": false
  },
  "post_processor": null,
  "decoder": null,
  "model": {
    "type": "Unigram",
    "unk_id": null,
    "vocab": [
      [
        "<pad>",
        0.0
      ],
      [
        "<bos>",
        0.0
      ],
      [
        "<eos>",
        0.0
      ],
      [
        "<unk>",
        0.0
      ],
      [
        "</mml:msup>",
        0.0
      ],
      [
        "<mml:msub>",
        0.0
      ],
      [
        "<mml:mtext>",
        0.0
      ],
      [
        "<mml:mrow>",
        0.0
      ],
      [
        "</mml:msqrt>",
        0.0
      ],
      [
        "</mml:mrow>",
        0.0
      ],
      [
        "<mml:mfrac>",
        0.0
      ],
      [
        "</mml:mn>",
        0.0
      ],
      [
        "<mml:msqrt>",
        0.0
      ],
      [
        "<mml:mfenced>",
        0.0
      ],
      [
        "</mml:msubsup>",
        0.0
      ],
      [
        "</mml:mfrac>",
        0.0
      ],
      [
        "<mml:msubsup>",
        0.0
      ],
      [
        "</mml:mo>",
        0.0
      ],
      [
        "<mml:mi>",
        0.0
      ],
      [
        "<mml:mo>",
        0.0
      ],
      [
        "<mml:mn>",
        0.0
      ],
      [
        "</mml:msub>",
        0.0
      ],
      [
        "<mml:msup>",
        0.0
      ],
      [
        "</mml:munderover>",
        0.0
      ],
      [
        "</mml:mi>",
        0.0
      ],
      [
        "</mml:mfenced>",
        0.0
      ],
      [
        "</mml:mtext>",
        0.0
      ],
      [
        "<mml:munderover>",
        0.0
      ],
      [
        "Symbol",
        0.0
      ],
      [
        "Eq",
        0.0
      ],
      [
        "exp",
        0.0
      ],
      [
        "sin",
        0.0
      ],
      [
        "cos",
        0.0
      ],
      [
        "tan",
        0.0
      ],
      [
        "diff",
        0.0
      ],
      [
        "log",
        0.0
      ],
      [
        "Sum",
        0.0
      ],
      [
        "Derivative",
        0.0
      ],
      [
        "Integral",
        0.0
      ],
      [
        "translate",
        0.0
      ],
      [
        "MathML",
        0.0
      ],
      [
        "to",
        0.0
      ],
      [
        "Python",
        0.0
      ],
      [
        ":",
        0.0
      ],
      [
        ">",
        -1.8763904206180957
      ],
      [
        "\n",
        -2.1248644428309706
      ],
      [
        "o",
        -2.7777840303237866
      ],
      [
        "</mml:m",
        -2.7866701060886374
      ],
      [
        "<mml:m",
        -2.787495434219265
      ],
      [
        "i",
        -2.801339367408783
      ],
      [
        " ",
        -2.97782561894822
      ],
      [
        "r",
        -3.3241376344188627
      ],
      [
        "w",
        -3.474107020861295
      ],
      [
        "e",
        -3.575515029989825
      ],
      [
        "n",
        -3.7938032807051254
      ],
      [
        "=",
        -3.9216811852254256
      ],
      [
        "'",
        -4.034989087284362
      ],
      [
        "(",
        -4.150724277105661
      ],
      [
        "c",
        -4.1991738236686
      ],
      [
        ")",
        -4.223881633773079
      ],
      [
        "d",
        -4.316543435183014
      ],
      [
        "l",
        -4.34897553327159
      ],
      [
        "S",
        -4.35501662395297
      ],
      [
        "m",
        -4.365146981903619
      ],
      [
        "y",
        -4.374571206306436
      ],
      [
        "b",
        -4.402664370729884
      ],
      [
        ",",
        -4.918151541557917
      ],
      [
        "</mml:mf",
        -4.9186807858050745
      ],
      [
        "<mml:mf",
        -4.9188555348849246
      ],
      [
        "p",
        -5.128028593262741
      ],
      [
        "</mml:msub",
        -5.250240883370974
      ],
      [
        "<mml:msub",
        -5.251057103452766
      ],
      [
        "+",
        -5.621876995932597
      ],
      [
        "ra",
        -5.6272835118440305
      ],
      [
        "ow",
        -5.636483126676508
      ],
      [
        "Eq",
        -5.727866017010086
      ],
      [
        "s",
        -5.94753931410437
      ],
      [
        "-",
        -6.043956540215703
      ],
      [
        "</mml:msu",
        -6.061837712280843
      ],
      [
        "<mml:msu",
        -6.062531400549034
      ],
      [
        "cos",
        -6.140668619651342
      ],
      [
        "xt",
        -6.15552656280644
      ],
      [
        "te",
        -6.158122223208538
      ],
      [
        "xp",
        -6.196122399225805
      ],
      [
        "sqrt",
        -6.205714830502982
      ],
      [
        "ta",
        -6.243270576616002
      ],
      [
        "u",
        -6.472396646835527
      ],
      [
        "ve",
        -6.646908620012157
      ],
      [
        "∂",
        -6.759496873575731
      ],
      [
        "log",
        -6.790880180937792
      ],
      [
        "t",
        -6.9351159615615865
      ],
      [
        "ro",
        -6.956892897342766
      ],
      [
        "bo",
        -7.031107408149243
      ],
      [
        "2",
        -7.2265806934144905
      ],
      [
        "x",
        -7.265803251735964
      ],
      [
        "∫",
        -7.300707983071508
      ],
      [
        "∑",
        -7.31794129941873
      ],
      [
        "a",
        -7.337470606817032
      ],
      [
        "7",
        -7.407972474094408
      ],
      [
        "3",
        -7.410335941762725
      ],
      [
        "6",
        -7.418360720203399
      ],
      [
        "er",
        -7.438294918688909
      ],
      [
        "5",
        -7.463521235802171
      ],
      [
        "4",
        -7.46358565672427
      ],
      [
        "9",
        -7.465299580144746
      ],
      [
        ")))",
        -7.490714185311973
      ],
      [
        "8",
        -7.494991407236685
      ],
      [
        "1",
        -7.548109516108565
      ],
      [
        "su",
        -7.552622866045306
      ],
      [
        "f",
        -7.672319441007165
      ],
      [
        "q",
        -7.699445429583973
      ],
      [
        "ym",
        -7.737871435774853
      ],
      [
        "un",
        -7.860947164325275
      ],
      [
        "))",
        -7.86560717840509
      ],
      [
        "v",
        -7.8710749209732676
      ],
      [
        "γ",
        -7.87456337651106
      ],
      [
        "j",
        -7.8989644382719995
      ],
      [
        "Derivative(",
        -7.901273942908153
      ],
      [
        "ψ",
        -7.913394470332591
      ],
      [
        "τ",
        -7.927057418665297
      ],
      [
        "Φ",
        -7.930348790958209
      ],
      [
        "Integral(",
        -7.930759425803803
      ],
      [
        "K",
        -7.9325197503894165
      ],
      [
        "g",
        -7.932880981827016
      ],
      [
        "U",
        -7.933018709568376
      ],
      [
        "ξ",
        -7.937191094854391
      ],
      [
        "Ο",
        -7.939597356728915
      ],
      [
        "λ",
        -7.939926991326062
      ],
      [
        "Γ",
        -7.943312861698657
      ],
      [
        "ε",
        -7.943916369546366
      ],
      [
        "φ",
        -7.9460721388961035
      ],
      [
        "δ",
        -7.9462549830198626
      ],
      [
        "h",
        -7.947741450422144
      ],
      [
        "κ",
        -7.948924032590296
      ],
      [
        "Δ",
        -7.951194272830698
      ],
      [
        "z",
        -7.9512327862642
      ],
      [
        "Z",
        -7.953225378750325
      ],
      [
        "Θ",
        -7.95485150907855
      ],
      [
        "M",
        -7.9558733991721216
      ],
      [
        "Ι",
        -7.958190585870273
      ],
      [
        "D",
        -7.9608260809068625
      ],
      [
        "L",
        -7.961337483766876
      ],
      [
        "ζ",
        -7.961353592819379
      ],
      [
        "Λ",
        -7.961988467537415
      ],
      [
        "Ω",
        -7.966119470477885
      ],
      [
        "ω",
        -7.966326098365592
      ],
      [
        "α",
        -7.967256188800498
      ],
      [
        "B",
        -7.96838948747472
      ],
      [
        "H",
        -7.968421682872651
      ],
      [
        "η",
        -7.968458173112996
      ],
      [
        "V",
        -7.968869708821719
      ],
      [
        "β",
        -7.969039134091784
      ],
      [
        "ρ",
        -7.969654992908276
      ],
      [
        "Ρ",
        -7.970162864969598
      ],
      [
        "Ξ",
        -7.9713526147693035
      ],
      [
        "P",
        -7.9726935469369
      ],
      [
        "Τ",
        -7.973281974813782
      ],
      [
        "Sum(",
        -7.973410778207277
      ],
      [
        "Σ",
        -7.97651573816053
      ],
      [
        "Α",
        -7.976689703570062
      ],
      [
        "C",
        -7.977780677699364
      ],
      [
        "χ",
        -7.978426679551887
      ],
      [
        "Υ",
        -7.979091972641688
      ],
      [
        "ι",
        -7.979227348076438
      ],
      [
        "θ",
        -7.9795723411473345
      ],
      [
        "Β",
        -7.979590455632005
      ],
      [
        "Μ",
        -7.979824883412338
      ],
      [
        "G",
        -7.97988098047617
      ],
      [
        "k",
        -7.980534283036198
      ],
      [
        "Ψ",
        -7.9811132085485825
      ],
      [
        "Ζ",
        -7.981259646597841
      ],
      [
        "υ",
        -7.981661932983547
      ],
      [
        "Χ",
        -7.98189306912018
      ],
      [
        "ν",
        -7.982898284547772
      ],
      [
        "F",
        -7.9845659950711845
      ],
      [
        "A",
        -7.986143695741038
      ],
      [
        "Κ",
        -7.987235938473799
      ],
      [
        "μ",
        -7.992258132004006
      ],
      [
        "Η",
        -7.9950378063231184
      ],
      [
        "E",
        -7.99575855071441
      ],
      [
        "Y",
        -8.006968716718147
      ],
      [
        "Π",
        -8.007034471108696
      ],
      [
        "σ",
        -8.009606938447227
      ],
      [
        "ο",
        -8.010125358217156
      ],
      [
        "W",
        -8.011725835339842
      ],
      [
        "Ε",
        -8.012763674566742
      ],
      [
        "Ν",
        -8.02389426996669
      ],
      [
        "X",
        -8.03122014011305
      ],
      [
        "J",
        -8.037411971269552
      ],
      [
        "T",
        -8.0475555739577
      ],
      [
        "R",
        -8.079492347691634
      ],
      [
        "si",
        -8.358892246132822
      ],
      [
        "Q",
        -8.411534821286303
      ],
      [
        "O",
        -8.489303481212911
      ],
      [
        "N",
        -8.505675686551466
      ],
      [
        "ac",
        -8.514431064107649
      ],
      [
        "I",
        -8.54804807108639
      ],
      [
        "ol",
        -8.576727597515784
      ],
      [
        ")*",
        -8.65965589177041
      ],
      [
        "<",
        -8.662829287975907
      ],
      [
        "/",
        -8.903919710546052
      ],
      [
        "nd",
        -9.072944292965605
      ],
      [
        "an",
        -9.082361798658233
      ],
      [
        "log(",
        -9.097412655176715
      ],
      [
        "*",
        -9.097607534220606
      ],
      [
        ")**",
        -9.152449681796735
      ],
      [
        "mml:m",
        -9.2963919095364
      ],
      [
        "'ξ",
        -9.3077357633987
      ],
      [
        "'γ",
        -9.307777040460126
      ],
      [
        "'ψ",
        -9.338350425231955
      ],
      [
        "'j",
        -9.338938336710125
      ],
      [
        "'h",
        -9.3425712956799
      ],
      [
        "'δ",
        -9.343482708742112
      ],
      [
        "'K",
        -9.34868914388068
      ],
      [
        "'L",
        -9.349784259409333
      ],
      [
        "'U",
        -9.350524081104425
      ],
      [
        "'z",
        -9.362800475693872
      ],
      [
        "'Z",
        -9.366185017989133
      ],
      [
        "'λ",
        -9.367523763793312
      ],
      [
        "'Τ",
        -9.37598120750883
      ],
      [
        "'φ",
        -9.377308330229742
      ],
      [
        "'β",
        -9.391603311002076
      ],
      [
        "'Σ",
        -9.39488116617063
      ],
      [
        "'Λ",
        -9.395258517970166
      ],
      [
        "'Η",
        -9.395388970400514
      ],
      [
        "'η",
        -9.398692189678036
      ],
      [
        "'V",
        -9.398954328754954
      ],
      [
        "'H",
        -9.406877677943879
      ],
      [
        "'Ρ",
        -9.407611963345241
      ],
      [
        "'P",
        -9.407707430360123
      ],
      [
        "'ε",
        -9.408195154624437
      ],
      [
        "'M",
        -9.408351301609557
      ],
      [
        "'Μ",
        -9.41435830803553
      ],
      [
        "'Κ",
        -9.417803835344944
      ],
      [
        "'F",
        -9.418521463508194
      ],
      [
        "'Ο",
        -9.419505679314025
      ],
      [
        "'Φ",
        -9.420718037072902
      ],
      [
        "'μ",
        -9.422650929227457
      ],
      [
        ")/",
        -9.42311356320931
      ],
      [
        "'ρ",
        -9.423117903098982
      ],
      [
        "'Ζ",
        -9.423156857124425
      ],
      [
        "'α",
        -9.423170581834068
      ],
      [
        "'Θ",
        -9.424830845074247
      ],
      [
        "'C",
        -9.427038504839448
      ],
      [
        "'Δ",
        -9.428069006227794
      ],
      [
        "'τ",
        -9.429477656124583
      ],
      [
        "'Ι",
        -9.431704877412635
      ],
      [
        "'Α",
        -9.433949931850375
      ],
      [
        "'χ",
        -9.434179968297972
      ],
      [
        "'Υ",
        -9.435383370721771
      ],
      [
        "'ν",
        -9.439037883393077
      ],
      [
        "'ζ",
        -9.439363337510272
      ],
      [
        "'θ",
        -9.443966200718172
      ],
      [
        "'D",
        -9.445340530882339
      ],
      [
        "'Ψ",
        -9.452158342087959
      ],
      [
        "'W",
        -9.454706778241661
      ],
      [
        "'κ",
        -9.4573858105575
      ],
      [
        "'G",
        -9.459969426218782
      ],
      [
        "'Γ",
        -9.461794621389153
      ],
      [
        "Derivative(sqrt(",
        -9.462556185568783
      ],
      [
        "'υ",
        -9.46271345896956
      ],
      [
        "'ω",
        -9.463413278907918
      ],
      [
        "'Ω",
        -9.46479072188233
      ],
      [
        "'g",
        -9.473236241166232
      ],
      [
        "'Y",
        -9.47492562379762
      ],
      [
        "'A",
        -9.476462110765194
      ],
      [
        "'Χ",
        -9.476998476989559
      ],
      [
        "'Ν",
        -9.478697877645514
      ],
      [
        "'Β",
        -9.48896426446871
      ],
      [
        "'ι",
        -9.489604857135062
      ],
      [
        "'Ε",
        -9.491128629146278
      ],
      [
        "'σ",
        -9.492471018664506
      ],
      [
        "'B",
        -9.49482529803127
      ],
      [
        "'Π",
        -9.496038062933284
      ],
      [
        "'k",
        -9.506540678404958
      ],
      [
        "ex",
        -9.512090563473802
      ],
      [
        "'ο",
        -9.527693097693827
      ],
      [
        "'J",
        -9.529051498066266
      ],
      [
        "'T",
        -9.53339151101984
      ],
      [
        "'Ξ",
        -9.53866926735866
      ],
      [
        "'v",
        -9.542793263312184
      ],
      [
        "'X",
        -9.548888938952992
      ],
      [
        "'R",
        -9.61624574572577
      ],
      [
        "sqrt(",
        -9.680037795631655
      ],
      [
        "Derivative(-",
        -9.721584976529297
      ],
      [
        "Sum(-",
        -9.723346480796343
      ],
      [
        "'f",
        -9.735814023174541
      ],
      [
        "Integral(-",
        -9.744608689228539
      ],
      [
        "6)))",
        -9.954370628972345
      ],
      [
        "Integral(sqrt(",
        -9.954850025058615
      ],
      [
        "Derivative(log(",
        -9.976273692103208
      ],
      [
        "/mml:m",
        -9.99055678331057
      ],
      [
        "'a",
        -10.02593800946229
      ],
      [
        "Sum(sqrt(",
        -10.042498552535834
      ],
      [
        "'x",
        -10.064459431954086
      ],
      [
        "2)))",
        -10.064714513792598
      ],
      [
        "**",
        -10.0742029863415
      ],
      [
        "(h",
        -10.07545498561335
      ],
      [
        "'u",
        -10.152828088398397
      ],
      [
        "'q",
        -10.166992931934555
      ],
      [
        "3))",
        -10.201208383096715
      ],
      [
        "(ξ",
        -10.223159800403115
      ],
      [
        "(δ",
        -10.239617943736265
      ],
      [
        "2)",
        -10.240166581496142
      ],
      [
        "(z",
        -10.247873581351712
      ],
      [
        "(U",
        -10.250182848452612
      ],
      [
        "(F",
        -10.281500655992438
      ],
      [
        "(P",
        -10.283291071993744
      ],
      [
        "5))",
        -10.287565904860763
      ],
      [
        "(W",
        -10.288381461766477
      ],
      [
        "(Ρ",
        -10.296359458135292
      ],
      [
        "8))",
        -10.298116467005201
      ],
      [
        "8)",
        -10.31892678389341
      ],
      [
        "4))",
        -10.320853559756795
      ],
      [
        "(Ζ",
        -10.322066194581595
      ],
      [
        "(L",
        -10.32882261110774
      ],
      [
        "3)",
        -10.330309888883644
      ],
      [
        "(η",
        -10.340894544647451
      ],
      [
        "(j",
        -10.346249665379919
      ],
      [
        "(Ο",
        -10.350992045845876
      ],
      [
        "(γ",
        -10.352014850504366
      ],
      [
        "1)",
        -10.352963885670068
      ],
      [
        "(Τ",
        -10.357267059277586
      ],
      [
        "(Z",
        -10.363259740487884
      ],
      [
        "(Α",
        -10.366680014270743
      ],
      [
        "(Ι",
        -10.37155451248874
      ],
      [
        "(M",
        -10.371627484383026
      ],
      [
        "(K",
        -10.373576779550955
      ],
      [
        "(B",
        -10.373923791537592
      ],
      [
        "7)",
        -10.378597432079125
      ],
      [
        "(μ",
        -10.378977029062309
      ],
      [
        "(C",
        -10.383259714283223
      ],
      [
        "(τ",
        -10.386895064746763
      ],
      [
        "'t",
        -10.391737175159786
      ],
      [
        "(Λ",
        -10.39617088782872
      ],
      [
        "(β",
        -10.40323323276148
      ],
      [
        "(Θ",
        -10.40386231796256
      ],
      [
        "(T",
        -10.405318254993876
      ],
      [
        "(Η",
        -10.40855061939259
      ],
      [
        "(λ",
        -10.413854973558362
      ],
      [
        "(A",
        -10.41515889375724
      ],
      [
        "7))",
        -10.415569399467323
      ],
      [
        "(V",
        -10.418568613105545
      ],
      [
        "(Y",
        -10.418715581303676
      ],
      [
        "**(",
        -10.41932406898994
      ],
      [
        "(Κ",
        -10.43029821329996
      ],
      [
        "(Β",
        -10.432560817025378
      ],
      [
        "(Δ",
        -10.433667924122155
      ],
      [
        "(D",
        -10.434179501319715
      ],
      [
        "(ο",
        -10.443931473934953
      ],
      [
        "(φ",
        -10.447275231739873
      ],
      [
        "9))",
        -10.449360972790295
      ],
      [
        "(J",
        -10.450133033534929
      ],
      [
        "(Σ",
        -10.45064199007567
      ],
      [
        "(H",
        -10.451482830146059
      ],
      [
        "Sum(log(",
        -10.453727604615466
      ],
      [
        "(ρ",
        -10.46025170227335
      ],
      [
        "(ζ",
        -10.463390292526555
      ],
      [
        "6)",
        -10.464977509044957
      ],
      [
        "(ν",
        -10.479968011643889
      ],
      [
        "1))",
        -10.480093994067778
      ],
      [
        "(g",
        -10.48038630010721
      ],
      [
        "(σ",
        -10.480564551250906
      ],
      [
        "(υ",
        -10.4858817102059
      ],
      [
        "(-",
        -10.487550860090206
      ],
      [
        "(Χ",
        -10.489555067313471
      ],
      [
        "(θ",
        -10.490334148963237
      ],
      [
        "(Γ",
        -10.493715138287907
      ],
      [
        "(Ω",
        -10.494804442447968
      ],
      [
        "(ψ",
        -10.495277578920131
      ],
      [
        "(χ",
        -10.500360608959529
      ],
      [
        "(ε",
        -10.500620611402951
      ],
      [
        "'s",
        -10.501583255449034
      ],
      [
        "(Ν",
        -10.508110516355838
      ],
      [
        "(Ψ",
        -10.514187561003354
      ],
      [
        "(ι",
        -10.519752737169082
      ],
      [
        "5)",
        -10.52211679075032
      ],
      [
        "(α",
        -10.529655388456508
      ],
      [
        "in",
        -10.538117250877796
      ],
      [
        "'Q",
        -10.539017996968003
      ],
      [
        ")/2)",
        -10.5402880859396
      ],
      [
        "'N",
        -10.541994644235125
      ],
      [
        "(v",
        -10.551393077476995
      ],
      [
        "9)",
        -10.553694174248712
      ],
      [
        "(G",
        -10.555626568967291
      ],
      [
        "(κ",
        -10.565982306499503
      ],
      [
        "(Φ",
        -10.575844667681547
      ],
      [
        "(Μ",
        -10.577328887003539
      ],
      [
        "(Υ",
        -10.579832635358436
      ],
      [
        "Integral(log(",
        -10.591232030946504
      ],
      [
        "(k",
        -10.59513324253212
      ],
      [
        "(Ξ",
        -10.596782532760756
      ],
      [
        "4)",
        -10.599945671864564
      ],
      [
        "(R",
        -10.609736081600037
      ],
      [
        "(Π",
        -10.627520429525045
      ],
      [
        "'O",
        -10.633761801671426
      ],
      [
        "(Q",
        -10.646749777333142
      ],
      [
        "(Ε",
        -10.652444268035786
      ],
      [
        "(X",
        -10.660255180433811
      ],
      [
        "(N",
        -10.693676044304503
      ],
      [
        "(ω",
        -10.77614349008173
      ],
      [
        "(O",
        -10.777084118415301
      ],
      [
        "'p",
        -10.78048342431045
      ],
      [
        "'I",
        -10.831398900210239
      ],
      [
        "/2)",
        -10.852853968409555
      ],
      [
        "(I",
        -10.944910625621372
      ],
      [
        "(f",
        -11.036240955276078
      ],
      [
        "γ))",
        -11.042840634841237
      ],
      [
        "(K)",
        -11.092022121400891
      ],
      [
        "(s",
        -11.114973681902718
      ],
      [
        "(H)",
        -11.129392672438241
      ],
      [
        "(a",
        -11.159453688021133
      ],
      [
        ")**(",
        -11.162127713461821
      ],
      [
        "(2*",
        -11.162561697764243
      ],
      [
        "(ρ)",
        -11.181733973221183
      ],
      [
        "Α))",
        -11.187465949488777
      ],
      [
        "Ν))",
        -11.188473774255115
      ],
      [
        "(χ)",
        -11.206931387361216
      ],
      [
        "(ψ)",
        -11.208874521369232
      ],
      [
        "(γ)",
        -11.209126489133745
      ],
      [
        ")/2))",
        -11.209360481769952
      ],
      [
        "ζ))",
        -11.221726383485832
      ],
      [
        "'E",
        -11.22604972029649
      ],
      [
        "(E",
        -11.231468704109298
      ],
      [
        "(ξ)",
        -11.236977086460637
      ],
      [
        ")/log(",
        -11.24224047010071
      ],
      [
        "(u)",
        -11.242805574262492
      ],
      [
        "-sqrt(",
        -11.246714479009096
      ],
      [
        "(μ)",
        -11.246811101344191
      ],
      [
        "φ))",
        -11.249165065504036
      ],
      [
        "ν))",
        -11.254748386064861
      ],
      [
        "(W)",
        -11.257403896359728
      ],
      [
        "Ζ))",
        -11.258333605069886
      ],
      [
        "(Φ)",
        -11.260614862995853
      ],
      [
        "(Θ)",
        -11.27200028826437
      ],
      [
        "'d",
        -11.27289306940403
      ],
      [
        "(Ω)",
        -11.290548055834709
      ],
      [
        "(Λ)",
        -11.290584715144373
      ],
      [
        "(f)",
        -11.29073416775945
      ],
      [
        ")/sqrt(",
        -11.294249284029775
      ],
      [
        "(V)",
        -11.295006652015367
      ],
      [
        "(g)",
        -11.300143292724496
      ],
      [
        "(θ)",
        -11.30645526327686
      ],
      [
        "(x",
        -11.30775857936959
      ],
      [
        "'y",
        -11.30915095322819
      ],
      [
        "(Τ)",
        -11.309386034182292
      ],
      [
        "H))",
        -11.309508402358354
      ],
      [
        ")**(sqrt(",
        -11.313868221620941
      ],
      [
        "Σ))",
        -11.314742363299262
      ],
      [
        "Ξ))",
        -11.315071016570208
      ],
      [
        "(Κ)",
        -11.3176093983528
      ],
      [
        "(Ι)",
        -11.318887889216661
      ],
      [
        "(x)",
        -11.322977132491248
      ],
      [
        "(Χ)",
        -11.325307674588185
      ],
      [
        "ξ))",
        -11.327964208916624
      ],
      [
        "μ))",
        -11.338857282524335
      ],
      [
        "X))",
        -11.34157608969362
      ],
      [
        "U))",
        -11.347753905034162
      ],
      [
        "Θ))",
        -11.348546201443876
      ],
      [
        "Γ))",
        -11.349346228721679
      ],
      [
        "(λ)",
        -11.353811510962228
      ],
      [
        "(b)",
        -11.35715554289732
      ],
      [
        "Sum(-sqrt(",
        -11.357847482006495
      ],
      [
        "Ο))",
        -11.362125582825355
      ],
      [
        "(Ξ)",
        -11.3684194351407
      ],
      [
        "Λ))",
        -11.37334066930024
      ],
      [
        "2))",
        -11.377508775348996
      ],
      [
        "(ο)",
        -11.377814072935262
      ],
      [
        "(q",
        -11.377868714839712
      ],
      [
        "(9*",
        -11.38045688661941
      ],
      [
        "(F)",
        -11.381018407025078
      ],
      [
        "h))",
        -11.385338249710054
      ],
      [
        "Ι))",
        -11.391967554655382
      ],
      [
        "(D)",
        -11.394267087813757
      ],
      [
        "F))",
        -11.394338375628827
      ],
      [
        "Υ))",
        -11.396365709240214
      ],
      [
        "g))",
        -11.397263304352347
      ],
      [
        "J))",
        -11.397404482121175
      ],
      [
        "(G)",
        -11.400848404548212
      ],
      [
        "B))",
        -11.413507813709487
      ],
      [
        "Μ))",
        -11.413519232256073
      ],
      [
        "mml:mf",
        -11.414548070216341
      ],
      [
        "Τ))",
        -11.415279930155585
      ],
      [
        "**3)",
        -11.419713244220981
      ],
      [
        "(α)",
        -11.421187605833406
      ],
      [
        "(3*",
        -11.424803278764568
      ],
      [
        "η))",
        -11.426764390528563
      ],
      [
        "(u",
        -11.42867386947105
      ],
      [
        "(Β)",
        -11.432280662659457
      ],
      [
        "(φ)",
        -11.437888721793986
      ],
      [
        "(z)",
        -11.437998869646613
      ],
      [
        "(Ψ)",
        -11.446399464541724
      ],
      [
        "(Ε)",
        -11.448909531569264
      ],
      [
        "W))",
        -11.451876745402611
      ],
      [
        "ι))",
        -11.45244751084407
      ],
      [
        "(M)",
        -11.454548588115983
      ],
      [
        "(t)",
        -11.45712232708416
      ],
      [
        "(δ)",
        -11.457798666705472
      ],
      [
        "κ))",
        -11.459077430446007
      ],
      [
        "(h)",
        -11.459771376200639
      ],
      [
        "Χ))",
        -11.461735362012739
      ],
      [
        "'b",
        -11.462859137872004
      ],
      [
        "ε))",
        -11.468566079664292
      ],
      [
        "(Υ)",
        -11.470699565688998
      ],
      [
        ")**log(",
        -11.471133431383663
      ],
      [
        "(Γ)",
        -11.471460723611578
      ],
      [
        "u))",
        -11.477227374869988
      ],
      [
        "(J)",
        -11.477275920233312
      ],
      [
        "ω))",
        -11.481115272668555
      ],
      [
        "j))",
        -11.482237383480221
      ],
      [
        "Δ))",
        -11.48646012314328
      ],
      [
        "(a)",
        -11.48970968293336
      ],
      [
        "ο))",
        -11.495607918033228
      ],
      [
        "(ε)",
        -11.496136624093689
      ],
      [
        "(ν)",
        -11.49791334155034
      ],
      [
        "(4*",
        -11.502559996421951
      ],
      [
        "(Ζ)",
        -11.502721907384878
      ],
      [
        "(j)",
        -11.509288116898906
      ],
      [
        "/8)",
        -11.509337443075033
      ],
      [
        "G))",
        -11.511925645262764
      ],
      [
        "(Η)",
        -11.514797590361717
      ],
      [
        "Κ))",
        -11.515355810175624
      ],
      [
        "Ω))",
        -11.516220350010297
      ],
      [
        "/6)",
        -11.522260052464382
      ],
      [
        "χ))",
        -11.52377462094613
      ],
      [
        "Β))",
        -11.537297504724044
      ],
      [
        "σ))",
        -11.537386045979863
      ],
      [
        "(ι)",
        -11.541795295595218
      ],
      [
        "(C)",
        -11.543282446881515
      ],
      [
        "α))",
        -11.54376499938222
      ],
      [
        "k))",
        -11.544672675337122
      ],
      [
        "/9)",
        -11.54773479509251
      ],
      [
        "/7)",
        -11.548381233701946
      ],
      [
        "(T)",
        -11.549115123472708
      ],
      [
        "(5*",
        -11.549514377596529
      ],
      [
        "(Α)",
        -11.55178396305951
      ],
      [
        "Y))",
        -11.553755123185127
      ],
      [
        "τ))",
        -11.556421732777629
      ],
      [
        "υ))",
        -11.55948851486135
      ],
      [
        "6))",
        -11.559663975484021
      ],
      [
        "Integral(-sqrt(",
        -11.561359672875943
      ],
      [
        "(η)",
        -11.561710806699871
      ],
      [
        "M))",
        -11.574068276193907
      ],
      [
        "(6*",
        -11.575514487879104
      ],
      [
        "Π))",
        -11.577088053239876
      ],
      [
        "(L)",
        -11.578124519993299
      ],
      [
        "P))",
        -11.579185336981377
      ],
      [
        "7*",
        -11.579997540659688
      ],
      [
        "(B)",
        -11.580962850266214
      ],
      [
        "(Ρ)",
        -11.581628965722437
      ],
      [
        "**Rational(",
        -11.584414377036659
      ],
      [
        "(A)",
        -11.586475600352935
      ],
      [
        "ψ))",
        -11.592000250399355
      ],
      [
        "(Z)",
        -11.593140045708232
      ],
      [
        "(Μ)",
        -11.59603940752824
      ],
      [
        "δ))",
        -11.599254894371379
      ],
      [
        "(κ)",
        -11.601952372058234
      ],
      [
        "V))",
        -11.60398439111046
      ],
      [
        "β))",
        -11.618538576159944
      ],
      [
        "Η))",
        -11.61935038340374
      ],
      [
        "A))",
        -11.623298208941693
      ],
      [
        "Integral(-log(",
        -11.625362891999192
      ],
      [
        "Ε))",
        -11.630178869948189
      ],
      [
        ")*log(",
        -11.630578160633936
      ],
      [
        "(s)",
        -11.6319426725458
      ],
      [
        "(Y)",
        -11.634555646471537
      ],
      [
        "C))",
        -11.642948157846611
      ],
      [
        "(k)",
        -11.64740649159495
      ],
      [
        "**(log(",
        -11.649935532883138
      ],
      [
        "Φ))",
        -11.656581347489903
      ],
      [
        "s))",
        -11.661381102252054
      ],
      [
        "f))",
        -11.662209267448599
      ],
      [
        "Z))",
        -11.663717889107165
      ],
      [
        "'m_",
        -11.663965284230544
      ],
      [
        "Ψ))",
        -11.669274736936023
      ],
      [
        "(ω)",
        -11.674103268060747
      ],
      [
        "(β)",
        -11.674567131281567
      ],
      [
        "(y)",
        -11.679840499573102
      ],
      [
        "**9)",
        -11.680549295055851
      ],
      [
        "λ))",
        -11.68179244671536
      ],
      [
        "z))",
        -11.682303505741508
      ],
      [
        "(ζ)",
        -11.68612181869432
      ],
      [
        "Derivative(-log(",
        -11.686833076544236
      ],
      [
        "(P)",
        -11.693658880322918
      ],
      [
        "(v)",
        -11.698305218970276
      ],
      [
        "Ρ))",
        -11.698591043830142
      ],
      [
        "(d)",
        -11.698785189784727
      ],
      [
        "**8)",
        -11.700406458180325
      ],
      [
        "'c",
        -11.707798644510756
      ],
      [
        "-log(",
        -11.709236904865858
      ],
      [
        "(U)",
        -11.712508585883821
      ],
      [
        "mml:msub",
        -11.714808911479544
      ],
      [
        "L))",
        -11.718922087763163
      ],
      [
        "ρ))",
        -11.723442940945295
      ],
      [
        "θ))",
        -11.734105897911043
      ],
      [
        "**5)",
        -11.742894053319091
      ],
      [
        "(σ)",
        -11.744343059825944
      ],
      [
        "(q)",
        -11.756938669669596
      ],
      [
        "6*",
        -11.782604338446736
      ],
      [
        "**2)",
        -11.785945839864835
      ],
      [
        "(τ)",
        -11.799262966954533
      ],
      [
        "(Σ)",
        -11.806126262048604
      ],
      [
        "(Ν)",
        -11.808831590224699
      ],
      [
        "3*",
        -11.809410129665443
      ],
      [
        "*log(",
        -11.813759703524772
      ],
      [
        "(υ)",
        -11.815179052327721
      ],
      [
        "(β))",
        -11.817674389882772
      ],
      [
        "(l)",
        -11.818210964662104
      ],
      [
        "/4)",
        -11.822184074501754
      ],
      [
        "D))",
        -11.837162689702255
      ],
      [
        "(Π)",
        -11.841866679961775
      ],
      [
        "(R)",
        -11.849403440044629
      ],
      [
        "(Δ)",
        -11.851404827109612
      ],
      [
        "(7*",
        -11.852927526671031
      ],
      [
        "4*",
        -11.862913459267272
      ],
      [
        "8*",
        -11.86940458609886
      ],
      [
        "(X)",
        -11.878185826669188
      ],
      [
        "(n)",
        -11.884309000790008
      ],
      [
        "(Ο)",
        -11.88457242752511
      ],
      [
        "v))",
        -11.890473698534855
      ],
      [
        "(p",
        -11.902279345623777
      ],
      [
        "/3)",
        -11.910069990802413
      ],
      [
        "(c)",
        -11.92856084094414
      ],
      [
        "(t",
        -11.933332616002449
      ],
      [
        "Z)))",
        -11.936596156008584
      ],
      [
        "T))",
        -11.950386015023067
      ],
      [
        ")/7",
        -11.950971531800878
      ],
      [
        "(8*",
        -11.955383320761044
      ],
      [
        "_",
        -11.96115644653871
      ],
      [
        "(E)",
        -11.962517735441324
      ],
      [
        "**(sqrt(",
        -11.974642413248493
      ],
      [
        "(υ))",
        -11.9818314085093
      ],
      [
        "9*",
        -11.985288009098905
      ],
      [
        "/5)",
        -11.98611767348441
      ],
      [
        "K))",
        -11.999454661385307
      ],
      [
        "a))",
        -12.00688916009252
      ],
      [
        "(ω))",
        -12.009589574004895
      ],
      [
        "(w)",
        -12.025632637532278
      ],
      [
        "1)*",
        -12.031766219458031
      ],
      [
        "x))",
        -12.034606949589095
      ],
      [
        "9)*",
        -12.040221552606974
      ],
      [
        ")/3",
        -12.042950463666948
      ],
      [
        "5*",
        -12.043520999741208
      ],
      [
        "/2))",
        -12.05233371572942
      ],
      [
        "χ)))",
        -12.053390390216872
      ],
      [
        "**7)",
        -12.079467485047118
      ],
      [
        ")/6",
        -12.08029386111407
      ],
      [
        "(η))",
        -12.081553670987674
      ],
      [
        "'n",
        -12.08746529115381
      ],
      [
        "(t))",
        -12.114497101328581
      ],
      [
        "(κ))",
        -12.123367839755794
      ],
      [
        "/mml:mf",
        -12.128650855913092
      ],
      [
        "**4)",
        -12.13694415778043
      ],
      [
        "p))",
        -12.137743511141537
      ],
      [
        "2*",
        -12.154319913007683
      ],
      [
        "Θ)))",
        -12.160144065645344
      ],
      [
        "cosh",
        -12.161952237736942
      ],
      [
        "φ)",
        -12.165875952188104
      ],
      [
        "7)*",
        -12.167273800663626
      ],
      [
        "G)))",
        -12.18075272487781
      ],
      [
        "(j))",
        -12.18181348870875
      ],
      [
        "(x))",
        -12.183501369816062
      ],
      [
        "(Π)**",
        -12.18451819540225
      ],
      [
        "d))",
        -12.18606861936376
      ],
      [
        "(ν))",
        -12.188632177393245
      ],
      [
        "R))",
        -12.191536598817288
      ],
      [
        "λ)))",
        -12.195466537698701
      ],
      [
        ")/9",
        -12.199851025776661
      ],
      [
        "q))",
        -12.200238958945382
      ],
      [
        "(Ε)/",
        -12.214467769129335
      ],
      [
        "(r)",
        -12.218168530527066
      ],
      [
        "(z))",
        -12.221312794499912
      ],
      [
        ")/4",
        -12.22317545927491
      ],
      [
        "(Μ))",
        -12.23211366058569
      ],
      [
        "(Δ))",
        -12.247231170403445
      ],
      [
        "(p)",
        -12.255766458466447
      ],
      [
        "(ψ)**",
        -12.258981026407934
      ],
      [
        "(Y))",
        -12.265312328544576
      ],
      [
        "(i)",
        -12.26845336985765
      ],
      [
        "(Η))",
        -12.270708342102852
      ],
      [
        "/log(",
        -12.276044714772945
      ],
      [
        "log(f)",
        -12.278215639198226
      ],
      [
        "ο)",
        -12.28127843445462
      ],
      [
        ")/(sqrt(",
        -12.282658061418864
      ],
      [
        ")/5",
        -12.285561155762629
      ],
      [
        "'L_",
        -12.291962606525585
      ],
      [
        "/2)*",
        -12.29453084798993
      ],
      [
        "'E_",
        -12.298109757725204
      ],
      [
        "(ι))",
        -12.302252498579072
      ],
      [
        "'n_",
        -12.302895082670045
      ],
      [
        "6)*",
        -12.30579179912463
      ],
      [
        "L)))",
        -12.3093403535899
      ],
      [
        "**6)",
        -12.309719961119606
      ],
      [
        "(Τ))",
        -12.319918777887763
      ],
      [
        "γ)",
        -12.331283017614524
      ],
      [
        "'U_",
        -12.36116172860686
      ],
      [
        "log(Z)",
        -12.369400140546905
      ],
      [
        "(λ)**",
        -12.37561783368748
      ],
      [
        "'τ_",
        -12.37717652441749
      ],
      [
        ")/3)",
        -12.381928562419708
      ],
      [
        "(ρ))",
        -12.382145599375145
      ],
      [
        "(q))",
        -12.383298401963307
      ],
      [
        "ω)",
        -12.398443268419207
      ],
      [
        "(Ρ))",
        -12.399114356880114
      ],
      [
        "Sum(-log(",
        -12.402626094719277
      ],
      [
        "(Σ))",
        -12.40810258799368
      ],
      [
        "(α))",
        -12.411023212719167
      ],
      [
        "4)*",
        -12.41261045935288
      ],
      [
        "(E))",
        -12.41342968117888
      ],
      [
        "qrt",
        -12.41417874656936
      ],
      [
        "_Ψ",
        -12.414276131157346
      ],
      [
        "(j)/",
        -12.41610759581827
      ],
      [
        "(m)",
        -12.419672393351892
      ],
      [
        "(z)**",
        -12.425096526135654
      ],
      [
        "'υ_",
        -12.426049444747981
      ],
      [
        "(δ))",
        -12.428264192513279
      ],
      [
        "(U))",
        -12.429664166705788
      ],
      [
        "(o))",
        -12.438414072283981
      ],
      [
        "'κ_",
        -12.438903836029674
      ],
      [
        "'p_",
        -12.44020790836927
      ],
      [
        "/mml:msub",
        -12.442929905977568
      ],
      [
        "(Θ)/",
        -12.444840788561919
      ],
      [
        "y))",
        -12.445405668659308
      ],
      [
        ")/(",
        -12.449348188162414
      ],
      [
        "(U_",
        -12.454919360205587
      ],
      [
        "T)))",
        -12.456905142956254
      ],
      [
        "'j_",
        -12.465184766883366
      ],
      [
        "'Ρ_",
        -12.46954837763234
      ],
      [
        "(σ))",
        -12.470483859098028
      ],
      [
        ")**3",
        -12.472884778008646
      ],
      [
        "(h_",
        -12.472942661004362
      ],
      [
        "(A)**",
        -12.4732384619252
      ],
      [
        "'γ_",
        -12.473249586044428
      ],
      [
        "(C))",
        -12.473266111327948
      ],
      [
        "(G))",
        -12.481455604095625
      ],
      [
        "'Φ_",
        -12.484091900707243
      ],
      [
        "'d_",
        -12.489139255335575
      ],
      [
        "(o)",
        -12.491980893851817
      ],
      [
        "(m_",
        -12.501587949819658
      ],
      [
        "(C)/",
        -12.502901848475794
      ],
      [
        "'χ_",
        -12.503269531605692
      ],
      [
        ")**5",
        -12.509536620216464
      ],
      [
        "sqrt(X)",
        -12.511840526401153
      ],
      [
        "(i))",
        -12.51284481139381
      ],
      [
        "(Υ)/",
        -12.522657974744948
      ],
      [
        "**9))",
        -12.528883317638291
      ],
      [
        "β)",
        -12.52944887981057
      ],
      [
        "'δ_",
        -12.53286524075494
      ],
      [
        "(τ))",
        -12.534709761281817
      ],
      [
        "(T))",
        -12.537120411595431
      ],
      [
        "R)))",
        -12.537680791458701
      ],
      [
        "sqrt(Ζ)",
        -12.537745432701652
      ],
      [
        "'a_",
        -12.5413428833927
      ],
      [
        "**6))",
        -12.542871349017519
      ],
      [
        "'Ξ_",
        -12.544132137921105
      ],
      [
        "(Ε)**",
        -12.544182186672515
      ],
      [
        "'b_",
        -12.544776255370543
      ],
      [
        "Derivative(2*",
        -12.546242904673141
      ],
      [
        "κ)",
        -12.55106092100477
      ],
      [
        "'Α_",
        -12.556032395516956
      ],
      [
        "log(Η)",
        -12.557856201049917
      ],
      [
        "(ψ)/",
        -12.559575123594335
      ],
      [
        "(Ξ))",
        -12.561506196450376
      ],
      [
        "(i)**",
        -12.561930163723526
      ],
      [
        "(Z)**",
        -12.562026992042739
      ],
      [
        "(k))",
        -12.566196865921704
      ],
      [
        "(f)**",
        -12.566340978240813
      ],
      [
        "(Δ)/",
        -12.5682934868589
      ],
      [
        "mml:msu",
        -12.568753174361088
      ],
      [
        "(υ_",
        -12.5709927172989
      ],
      [
        ")/6)",
        -12.573078319621551
      ],
      [
        "ε)",
        -12.576816680554936
      ],
      [
        "/5))",
        -12.577384733511295
      ],
      [
        "log(λ)",
        -12.581774291087372
      ],
      [
        "(v))",
        -12.584558451496202
      ],
      [
        "(r)**",
        -12.590386514660185
      ],
      [
        "Φ)))",
        -12.591400905977785
      ],
      [
        "(d",
        -12.595522683971039
      ],
      [
        "(L_",
        -12.59649948137644
      ],
      [
        "**5))",
        -12.596721022005049
      ],
      [
        "'Δ_",
        -12.597089213536107
      ],
      [
        "(Ο)**",
        -12.599061648836635
      ],
      [
        "'l_",
        -12.601735649275932
      ],
      [
        "2)*",
        -12.603674545413487
      ],
      [
        "/4))",
        -12.605535689020519
      ],
      [
        "(Ι))",
        -12.606783693928907
      ],
      [
        "log(Y)",
        -12.616956549502527
      ],
      [
        "ρ)",
        -12.619965963158776
      ],
      [
        "(Χ)/",
        -12.621700455370139
      ],
      [
        "(Rational(",
        -12.628045289962099
      ],
      [
        "Derivative(4*",
        -12.638397672653898
      ],
      [
        "Derivative(6*",
        -12.647501024019416
      ],
      [
        "τ)",
        -12.649315301351885
      ],
      [
        "b))",
        -12.650633385719619
      ],
      [
        "(Ψ))",
        -12.651850343084568
      ],
      [
        "'w_",
        -12.653030446166005
      ],
      [
        "sqrt(τ)",
        -12.654150854108394
      ],
      [
        "(U)/",
        -12.655941001154154
      ],
      [
        "'Λ_",
        -12.658853179186373
      ],
      [
        "ψ)))",
        -12.6678352772979
      ],
      [
        "υ)))",
        -12.66906830650094
      ],
      [
        "(c)**",
        -12.669320962203619
      ],
      [
        "(V)**",
        -12.67061757836138
      ],
      [
        "10",
        -12.673818501272681
      ],
      [
        "(H)*",
        -12.676236805569626
      ],
      [
        "'ο_",
        -12.677528016528221
      ],
      [
        "(t)/",
        -12.677623503803645
      ],
      [
        "**8)*",
        -12.678564473561043
      ],
      [
        "(D)**",
        -12.679327404231948
      ],
      [
        "(D)*",
        -12.679515340360213
      ],
      [
        "(E*",
        -12.681178677992206
      ],
      [
        "(Α_",
        -12.682035832085507
      ],
      [
        "(V))",
        -12.682258112211905
      ],
      [
        "Ψ)",
        -12.684071881286808
      ],
      [
        "'θ_",
        -12.684492953738896
      ],
      [
        "(γ))",
        -12.685190399767826
      ],
      [
        "(b",
        -12.686320781102985
      ],
      [
        ")**8",
        -12.687959210018086
      ],
      [
        "(l))",
        -12.688245555534486
      ],
      [
        "'Ι_",
        -12.690792458471568
      ],
      [
        "(y",
        -12.695356566749817
      ],
      [
        ")/8",
        -12.696643858965874
      ],
      [
        "(Λ_",
        -12.700297983426202
      ],
      [
        "(u)/",
        -12.704782918684701
      ],
      [
        "(Z))",
        -12.705056349345817
      ],
      [
        "σ)",
        -12.706243579027705
      ],
      [
        "sqrt(3)*sqrt(",
        -12.70702538703141
      ],
      [
        "_ρ))",
        -12.708285383779193
      ],
      [
        "θ)))",
        -12.713462529229169
      ],
      [
        "(J)/",
        -12.716489065299678
      ],
      [
        "(Τ_",
        -12.716635016901861
      ],
      [
        "3)*",
        -12.716892831388103
      ],
      [
        "Sum(5*",
        -12.719772782949313
      ],
      [
        "Φ)",
        -12.719860820190764
      ],
      [
        "Ο)",
        -12.721423024999684
      ],
      [
        "/2)/",
        -12.723967236133216
      ],
      [
        "(W)/",
        -12.724948921898012
      ],
      [
        "log(θ)",
        -12.725504936170063
      ],
      [
        "log(υ)",
        -12.72812282709244
      ],
      [
        "Τ)",
        -12.728626679966542
      ],
      [
        "sqrt(ζ)*",
        -12.728673557895963
      ],
      [
        "(n_",
        -12.729313388386384
      ],
      [
        "(R))",
        -12.733215011382132
      ],
      [
        "**7))",
        -12.733553667757516
      ],
      [
        "(u)**",
        -12.736178859375052
      ],
      [
        "(Ξ_",
        -12.737143452348496
      ],
      [
        "(Ε_",
        -12.7396889166037
      ],
      [
        "Rational(-",
        -12.741386511262851
      ],
      [
        "(ξ)**",
        -12.741809195935833
      ],
      [
        "'Ε_",
        -12.742544816122393
      ],
      [
        "(Φ)/",
        -12.742564026642059
      ],
      [
        "'Τ_",
        -12.742571371034249
      ],
      [
        "Υ)",
        -12.742936043658071
      ],
      [
        ")*sqrt(",
        -12.743058368300005
      ],
      [
        "(θ_",
        -12.745161301380275
      ],
      [
        "*sqrt(",
        -12.747287160479772
      ],
      [
        "_J",
        -12.750582258755268
      ],
      [
        "(δ_",
        -12.753134667515152
      ],
      [
        "(x)/",
        -12.756095943325231
      ],
      [
        "'s_",
        -12.756805920577921
      ],
      [
        "(g)**",
        -12.7594230253941
      ],
      [
        "log(s)",
        -12.761646245179666
      ],
      [
        "(Φ))",
        -12.767893722299885
      ],
      [
        "(M))",
        -12.771428836032548
      ],
      [
        "(Υ))",
        -12.772230502098786
      ],
      [
        "'Κ_",
        -12.77398988383417
      ],
      [
        "(χ)**",
        -12.774340318992278
      ],
      [
        "(g)*",
        -12.774923423659468
      ],
      [
        "(ξ))",
        -12.776443994827064
      ],
      [
        "(ε)**",
        -12.77797742083172
      ],
      [
        "/sqrt(",
        -12.779936237470736
      ],
      [
        "(j_",
        -12.781247805940788
      ],
      [
        "8)*",
        -12.782129929295591
      ],
      [
        "(Σ)/",
        -12.783582342893046
      ],
      [
        "(d)*",
        -12.787422378604507
      ],
      [
        "(P)/",
        -12.789759992100354
      ],
      [
        "**3))",
        -12.789861996483303
      ],
      [
        "(χ))",
        -12.791243208649693
      ],
      [
        "Η)*",
        -12.79241881769912
      ],
      [
        "(Κ))",
        -12.792853141976252
      ],
      [
        "(Χ))",
        -12.796693317242111
      ],
      [
        "'Ψ_",
        -12.797309989950037
      ],
      [
        "'C_",
        -12.79823729205461
      ],
      [
        "(G)**",
        -12.798490302092722
      ],
      [
        "(L)**",
        -12.80065319500863
      ],
      [
        "(Ο))",
        -12.801453151519894
      ],
      [
        "(a_",
        -12.809157587877218
      ],
      [
        "log(ζ)",
        -12.809492944199278
      ],
      [
        "(χ_",
        -12.81155329494928
      ],
      [
        "5*log(",
        -12.813362420999315
      ],
      [
        "(ν_",
        -12.814088207197328
      ],
      [
        "**2)*",
        -12.817113314980302
      ],
      [
        "'ν_",
        -12.81904893081243
      ],
      [
        "(ο_",
        -12.819486832617459
      ],
      [
        "'P_",
        -12.820759913236701
      ],
      [
        "(ν)/",
        -12.82696288949499
      ],
      [
        "(η)/",
        -12.827201406285342
      ],
      [
        "K_β",
        -12.82722989544084
      ],
      [
        "(b)*",
        -12.82906971138258
      ],
      [
        "q_C",
        -12.829780348028123
      ],
      [
        "t))",
        -12.831114528220247
      ],
      [
        "'λ_",
        -12.832580956992086
      ],
      [
        ")/2",
        -12.83537549397585
      ],
      [
        "sqrt(Y)",
        -12.836009680384713
      ],
      [
        "**5)*",
        -12.836718186709918
      ],
      [
        "sqrt(L)",
        -12.837669974253789
      ],
      [
        "(ο)**",
        -12.839075429765181
      ],
      [
        "Sum(4*",
        -12.840865052097131
      ],
      [
        "(Ρ)**",
        -12.842293693022267
      ],
      [
        "log(Μ)",
        -12.846502544442556
      ],
      [
        "/Ε)",
        -12.847540264510588
      ],
      [
        "δ_ν",
        -12.847548220327766
      ],
      [
        "'O_",
        -12.84891360298229
      ],
      [
        "'Θ_",
        -12.849250662395598
      ],
      [
        "(F)**",
        -12.85067540779976
      ],
      [
        "log(-",
        -12.851367642570425
      ],
      [
        "(δ)/",
        -12.852274526369955
      ],
      [
        "'y_",
        -12.854430835581246
      ],
      [
        "ψ)",
        -12.858954898054712
      ],
      [
        "(λ))",
        -12.859222045919608
      ],
      [
        "(M)/",
        -12.859499666742455
      ],
      [
        "ζ)",
        -12.860539810037409
      ],
      [
        "(w))",
        -12.86304067090108
      ],
      [
        ")**2)",
        -12.86347767456644
      ],
      [
        "'A_",
        -12.86416757614934
      ],
      [
        "(θ)/",
        -12.865907441269604
      ],
      [
        "(P_",
        -12.86650691480488
      ],
      [
        "'Μ_",
        -12.868019129209966
      ],
      [
        "log(A)",
        -12.870062133685012
      ],
      [
        "n))",
        -12.872800811542064
      ],
      [
        "Integral(3*",
        -12.87554146487954
      ],
      [
        "(υ)**",
        -12.87847644840478
      ],
      [
        "(A*",
        -12.879875746334122
      ],
      [
        "(b_",
        -12.880318334763366
      ],
      [
        "_O",
        -12.88262455835227
      ],
      [
        "Integral(7*",
        -12.883818819053745
      ],
      [
        "(R_",
        -12.884601758512838
      ],
      [
        "log(Ψ)",
        -12.88760903154128
      ],
      [
        "(μ))",
        -12.889175232460234
      ],
      [
        "(Γ))",
        -12.889260752860595
      ],
      [
        "2)**",
        -12.889638223047715
      ],
      [
        "(Σ)**",
        -12.88999165389404
      ],
      [
        "(y)**",
        -12.89047552366892
      ],
      [
        "(j)**",
        -12.891346326140471
      ],
      [
        "4)**",
        -12.89178132362526
      ],
      [
        "(K))",
        -12.892420010762642
      ],
      [
        "(ε))",
        -12.895215562858446
      ],
      [
        "Z)*",
        -12.896114508917671
      ],
      [
        "/8))",
        -12.898399610195463
      ],
      [
        "(U)**",
        -12.898471939897053
      ],
      [
        "(D))",
        -12.90081468239183
      ],
      [
        "(Ψ_",
        -12.902544455793233
      ],
      [
        "Α)",
        -12.90319139300338
      ],
      [
        "_λ",
        -12.905274237103676
      ],
      [
        "(ν)**",
        -12.906419068634
      ],
      [
        "(Z)/",
        -12.907973350870465
      ],
      [
        "'u_",
        -12.908770912153564
      ],
      [
        "(R)**",
        -12.911611848603282
      ],
      [
        "'Χ_",
        -12.911936145643121
      ],
      [
        "(β)**",
        -12.912924386392053
      ],
      [
        "'Ω_",
        -12.913081654594961
      ],
      [
        "'f_",
        -12.914028493727308
      ],
      [
        "M_ρ",
        -12.914640977795212
      ],
      [
        "log(Φ)",
        -12.916462511964935
      ],
      [
        "sqrt(s)",
        -12.91658279699124
      ],
      [
        "(u)*",
        -12.917025213376057
      ],
      [
        "η)",
        -12.917087349892974
      ],
      [
        "log(φ)",
        -12.919075862021941
      ],
      [
        "'V_",
        -12.920369431865991
      ],
      [
        "(a)*",
        -12.920428893023248
      ],
      [
        "(Π)/",
        -12.920948325096283
      ],
      [
        "κ_",
        -12.921402679213934
      ],
      [
        "(n)**",
        -12.92157700126584
      ],
      [
        "_M",
        -12.92213190520277
      ],
      [
        "'w",
        -12.92287475469982
      ],
      [
        "log(Γ)",
        -12.924065268519643
      ],
      [
        "Integral(6*",
        -12.92549609946487
      ],
      [
        "log(D)",
        -12.926683134373654
      ],
      [
        "_τ",
        -12.927430761706727
      ],
      [
        "'R_",
        -12.930280540157838
      ],
      [
        "log(a)",
        -12.930817628320208
      ],
      [
        "δ)",
        -12.93092982555476
      ],
      [
        "(Y_",
        -12.935321441404643
      ],
      [
        "'g_",
        -12.936454028675461
      ],
      [
        "(Ζ)**",
        -12.936930805909011
      ],
      [
        "υ)",
        -12.937163189689763
      ],
      [
        "(K)/",
        -12.937897925468437
      ],
      [
        "(ε)/",
        -12.938111519864425
      ],
      [
        "(Ι)/",
        -12.938560920352877
      ],
      [
        "log(β)",
        -12.938909792231257
      ],
      [
        "(y))",
        -12.939273195108706
      ],
      [
        "Μ)",
        -12.939740380844544
      ],
      [
        "(ξ)/",
        -12.941144097068749
      ],
      [
        "(b))",
        -12.94510478867322
      ],
      [
        "X_3",
        -12.945296843279381
      ],
      [
        ")/4)",
        -12.94695297657497
      ],
      [
        "(M)**",
        -12.950571738156164
      ],
      [
        "(s)**",
        -12.954198615945943
      ],
      [
        "(Ι)*",
        -12.954772609722909
      ],
      [
        "'v_",
        -12.955340487498374
      ],
      [
        "log(y)",
        -12.958602360947259
      ],
      [
        "_Ο",
        -12.95938204897329
      ],
      [
        ")**2",
        -12.959447775507666
      ],
      [
        "(Ρ_",
        -12.960376783602413
      ],
      [
        "log(Υ)",
        -12.960394966149623
      ],
      [
        "(Κ_",
        -12.96083736272979
      ],
      [
        "(Β))",
        -12.961262955767012
      ],
      [
        "'Y_",
        -12.963691069176852
      ],
      [
        "(σ)*",
        -12.963944234191887
      ],
      [
        "(n)/",
        -12.964651733173225
      ],
      [
        ")/7)",
        -12.964772426537111
      ],
      [
        ")/2)*",
        -12.96719988122073
      ],
      [
        "log(ν)",
        -12.967600099465834
      ],
      [
        "'Σ_",
        -12.968251865777562
      ],
      [
        "(Δ_",
        -12.96896651614402
      ],
      [
        "'ε_",
        -12.972312340774664
      ],
      [
        "Χ)))",
        -12.974679530184797
      ],
      [
        "'S_",
        -12.974826956993633
      ],
      [
        "ν)",
        -12.975684064877694
      ],
      [
        "(α_",
        -12.978497919513563
      ],
      [
        "'ρ_",
        -12.978641632142669
      ],
      [
        "log(m)",
        -12.98120145063968
      ],
      [
        "'Β_",
        -12.981761281418361
      ],
      [
        "Ζ_χ",
        -12.984032545750894
      ],
      [
        "_k",
        -12.984307607270356
      ],
      [
        "'h_",
        -12.986197723749328
      ],
      [
        "(Α))",
        -12.988222116012663
      ],
      [
        "6)**",
        -12.991531542193762
      ],
      [
        "**6",
        -12.996189597265593
      ],
      [
        "(Y)**",
        -12.99973883874589
      ],
      [
        "3)**",
        -13.000781257641567
      ],
      [
        "z)*",
        -13.000816224771945
      ],
      [
        "(Γ)/",
        -13.002105855747873
      ],
      [
        "_W",
        -13.002428818558277
      ],
      [
        "'X_",
        -13.003489959373768
      ],
      [
        "sqrt(H)",
        -13.004236824080795
      ],
      [
        "(Π))",
        -13.004294044768145
      ],
      [
        "(E_",
        -13.004625104880162
      ],
      [
        "(a))",
        -13.005338808406467
      ],
      [
        "Integral(9*",
        -13.007974924647499
      ],
      [
        "**8))",
        -13.008771594755121
      ],
      [
        "16",
        -13.008805467375495
      ],
      [
        "(T)/",
        -13.009553096410645
      ],
      [
        "'η_",
        -13.011601796754787
      ],
      [
        "k_ζ",
        -13.012044776307995
      ],
      [
        ")**9",
        -13.012465125303802
      ],
      [
        "'i_",
        -13.016741123688133
      ],
      [
        "(Κ)/",
        -13.016845647521537
      ],
      [
        "Integral(2*",
        -13.019135788135635
      ],
      [
        "Ε)",
        -13.019162449800973
      ],
      [
        "(w)/",
        -13.01950720011045
      ],
      [
        ")/5)",
        -13.02078653117445
      ],
      [
        "(Ω_",
        -13.021518883229039
      ],
      [
        "(Ξ)/",
        -13.021794990923304
      ],
      [
        "log(ξ)",
        -13.022166566549359
      ],
      [
        "(c))",
        -13.022723004386435
      ],
      [
        "Π)",
        -13.023217716336877
      ],
      [
        "log(α)",
        -13.023764399678877
      ],
      [
        "(d)**",
        -13.025607572925585
      ],
      [
        "'r",
        -13.026534984590613
      ],
      [
        "**Λ)",
        -13.028295000162451
      ],
      [
        "sqrt(2)*sqrt(",
        -13.029591408663146
      ],
      [
        "Ζ)*",
        -13.030889316106723
      ],
      [
        "_Θ",
        -13.032120719977463
      ],
      [
        "(P))",
        -13.033401707843563
      ],
      [
        "(ω)**",
        -13.038073652402087
      ],
      [
        ")**(log(",
        -13.038108980571877
      ],
      [
        "sqrt(7)*sqrt(",
        -13.03843976013223
      ],
      [
        "**v)",
        -13.040751805327256
      ],
      [
        "(P)**",
        -13.040770434859686
      ],
      [
        "log(γ)",
        -13.041931713394426
      ],
      [
        "_Δ",
        -13.042750196304679
      ],
      [
        "(Ζ_",
        -13.043693288877956
      ],
      [
        "log(Β)",
        -13.044625470769802
      ],
      [
        "(φ)**",
        -13.044912144311741
      ],
      [
        "(s)/",
        -13.044974969226548
      ],
      [
        "(L))",
        -13.045383472191695
      ],
      [
        "α)",
        -13.0458353977721
      ],
      [
        "(q)**",
        -13.046338539266518
      ],
      [
        "(Π_",
        -13.047438775273111
      ],
      [
        "(k)**",
        -13.049765067036047
      ],
      [
        "(θ))",
        -13.049770480846332
      ],
      [
        "**4",
        -13.050601870264456
      ],
      [
        "(Ν))",
        -13.051296910971814
      ],
      [
        "θ)*",
        -13.052734792079628
      ],
      [
        "(E)/",
        -13.052916954181843
      ],
      [
        "Ρ_",
        -13.055499648119916
      ],
      [
        "c))",
        -13.056400382686807
      ],
      [
        "(s_",
        -13.057505702252694
      ],
      [
        "_7",
        -13.058554026514935
      ],
      [
        "(φ)/",
        -13.058661013997634
      ],
      [
        "'α_",
        -13.060826644921464
      ],
      [
        "(t)**",
        -13.061012097670119
      ],
      [
        "(β)*",
        -13.061151827342508
      ],
      [
        "(Θ))",
        -13.065781904939403
      ],
      [
        "(m)/",
        -13.06612543751519
      ],
      [
        "(m))",
        -13.066866401858338
      ],
      [
        "(B)**",
        -13.068065671579106
      ],
      [
        "(Ι)**",
        -13.06852769439907
      ],
      [
        "(J)**",
        -13.068825393538027
      ],
      [
        "6**",
        -13.069174743658948
      ],
      [
        "(Β)**",
        -13.069199628850708
      ],
      [
        "(v)**",
        -13.07050763205188
      ],
      [
        "Δ_ρ",
        -13.071932061879917
      ],
      [
        "Σ_ι",
        -13.072094677866653
      ],
      [
        "b_θ",
        -13.072866371497698
      ],
      [
        "(ζ)**",
        -13.073741962577643
      ],
      [
        "(Θ_",
        -13.075139678964087
      ],
      [
        "**6)*",
        -13.07759543524036
      ],
      [
        "(i)/",
        -13.077752249254063
      ],
      [
        "log(p)",
        -13.07828442586846
      ],
      [
        "(y_",
        -13.079783023491167
      ],
      [
        "(Β_",
        -13.081160994640301
      ],
      [
        "ε_z",
        -13.081259772144954
      ],
      [
        "sqrt(η)",
        -13.082494244310467
      ],
      [
        "(X)/",
        -13.084408423933347
      ],
      [
        "log(t)",
        -13.085142518453965
      ],
      [
        "sqrt(χ)",
        -13.085323301898924
      ],
      [
        "log(τ)",
        -13.085824186033923
      ],
      [
        "(θ)**",
        -13.086415510970175
      ],
      [
        "log(j)",
        -13.086540973381013
      ],
      [
        "sqrt(ξ)",
        -13.089896321307368
      ],
      [
        "**log(",
        -13.090368052592247
      ],
      [
        "E_z",
        -13.09156998580168
      ],
      [
        "log(d)",
        -13.091801337541748
      ],
      [
        "log(X)",
        -13.092377160656476
      ],
      [
        "sqrt(5)*sqrt(",
        -13.093450586787544
      ],
      [
        "log(Π)",
        -13.093482350213746
      ],
      [
        "(α)**",
        -13.094524285738752
      ],
      [
        "*κ)",
        -13.094652818546944
      ],
      [
        "Ο_Ε",
        -13.095914333451235
      ],
      [
        "(F)/",
        -13.099148469286407
      ],
      [
        "(ρ_",
        -13.100222499190135
      ],
      [
        "(O_",
        -13.10053700357517
      ],
      [
        "'q_",
        -13.102164555172784
      ],
      [
        "'ω_",
        -13.105409270542765
      ],
      [
        "(ι_",
        -13.105713521800308
      ],
      [
        "(c",
        -13.105983100992688
      ],
      [
        "(Ψ)**",
        -13.107570373634731
      ],
      [
        ")**3)",
        -13.107912298802983
      ],
      [
        "log(ρ)",
        -13.107955582980798
      ],
      [
        "(f)/",
        -13.109078981346482
      ],
      [
        "τ_ι",
        -13.111602708927691
      ],
      [
        "log(C)",
        -13.111747729882106
      ],
      [
        "(a*",
        -13.114305879861133
      ],
      [
        "/3))",
        -13.115926434868328
      ],
      [
        "sqrt(Τ)",
        -13.116215103103421
      ],
      [
        "_ξ",
        -13.116689617948595
      ],
      [
        "(Χ**",
        -13.116725792505324
      ],
      [
        "/Π)",
        -13.117384576718681
      ],
      [
        "log(z)",
        -13.117742274073619
      ],
      [
        "'c_",
        -13.117748295228667
      ],
      [
        "'μ_",
        -13.11833507084935
      ],
      [
        "(i)*",
        -13.118634034979909
      ],
      [
        "(l",
        -13.119017672664473
      ],
      [
        "D_ψ",
        -13.121445803999215
      ],
      [
        "(p_",
        -13.121682554101326
      ],
      [
        "(γ)/",
        -13.121747351748091
      ],
      [
        "(o)*",
        -13.122338886150425
      ],
      [
        "l_Δ",
        -13.122526386928536
      ],
      [
        "(ξ_",
        -13.124311659398076
      ],
      [
        "ξ)",
        -13.124536848042013
      ],
      [
        "(Η)/",
        -13.12480460623063
      ],
      [
        "(Ψ)/",
        -13.127143549357717
      ],
      [
        "X)",
        -13.127488128730082
      ],
      [
        "u_x",
        -13.127517770138617
      ],
      [
        "(ω_",
        -13.132052696254949
      ],
      [
        "/7)*",
        -13.133561863360093
      ],
      [
        "(a)/",
        -13.134308200756537
      ],
      [
        "(F))",
        -13.134778826689471
      ],
      [
        "sqrt(U)",
        -13.136000732609116
      ],
      [
        "'k_",
        -13.13685823303037
      ],
      [
        "5)**",
        -13.139129888802483
      ],
      [
        "(A_",
        -13.140317114289326
      ],
      [
        "**9",
        -13.140714065467293
      ],
      [
        "(V_",
        -13.141717584434689
      ],
      [
        "'I_",
        -13.142739268039575
      ],
      [
        "log(μ)",
        -13.1427774137276
      ],
      [
        "*ω)",
        -13.14562429533782
      ],
      [
        "'M_",
        -13.147100640887034
      ],
      [
        "**(sqrt(7)*sqrt(",
        -13.148716869623332
      ],
      [
        "(Ω)**",
        -13.149657601495946
      ],
      [
        "(J))",
        -13.151959388127368
      ],
      [
        "log(n)",
        -13.152453163861754
      ],
      [
        "log(Ξ)",
        -13.152817755735507
      ],
      [
        "(Γ)**",
        -13.152931484710223
      ],
      [
        ")/(2*",
        -13.153518213699112
      ],
      [
        "Ω)",
        -13.15615747694812
      ],
      [
        "Ι)*",
        -13.156353849784136
      ],
      [
        "X_ο",
        -13.157707584231327
      ],
      [
        "2**",
        -13.158624652680846
      ],
      [
        "5)/",
        -13.158916742388369
      ],
      [
        "Μ)*",
        -13.159764927219976
      ],
      [
        "sqrt(2)*",
        -13.160422338697705
      ],
      [
        "log(ι)",
        -13.161990047908485
      ],
      [
        "Derivative(8*",
        -13.162667447679688
      ],
      [
        "log(Ω)",
        -13.163468517915163
      ],
      [
        "(p))",
        -13.170544074565692
      ],
      [
        "sqrt(m)",
        -13.171524949118206
      ],
      [
        "ρ_Ο",
        -13.172435568407675
      ],
      [
        "_a))",
        -13.17325216342617
      ],
      [
        "(f))",
        -13.173281196391248
      ],
      [
        ")**5)",
        -13.175171733998583
      ],
      [
        "(d_",
        -13.175608248641787
      ],
      [
        "z_Uδ",
        -13.176141078129902
      ],
      [
        "Rational(",
        -13.176252587930675
      ],
      [
        "'r_",
        -13.176955760365528
      ],
      [
        "g)*",
        -13.1807859384215
      ],
      [
        "'W_",
        -13.181367282083924
      ],
      [
        "(Ι_",
        -13.184295523433894
      ],
      [
        "(γ_",
        -13.189410260742445
      ],
      [
        "(Γ_",
        -13.190543797068935
      ],
      [
        "(ψ))",
        -13.190647913620191
      ],
      [
        "Ο_v",
        -13.192046481505367
      ],
      [
        "(Z_",
        -13.192048187862127
      ],
      [
        "_R",
        -13.192252284786386
      ],
      [
        "C_ο",
        -13.192422114737973
      ],
      [
        "Υ)*",
        -13.192435651982677
      ],
      [
        "Υ_Φ",
        -13.192575624687066
      ],
      [
        "(B)*",
        -13.192874556751276
      ],
      [
        "Ρ*",
        -13.193567978268472
      ],
      [
        "'T_",
        -13.194590669640078
      ],
      [
        "(ο)/",
        -13.1947076001037
      ],
      [
        "'Z_",
        -13.196703380560226
      ],
      [
        "log(χ)",
        -13.197127205773041
      ],
      [
        "/3)*",
        -13.197576062127592
      ],
      [
        "ω)*",
        -13.197704206025563
      ],
      [
        "log(Λ)",
        -13.200494009939215
      ],
      [
        "Ξ_",
        -13.200625875273083
      ],
      [
        "log(Δ)",
        -13.2031984593598
      ],
      [
        "(u_",
        -13.203754321256032
      ],
      [
        "(R)/",
        -13.204371989833374
      ],
      [
        "z)",
        -13.204376032489634
      ],
      [
        "Λ)",
        -13.207222005160608
      ],
      [
        "log(R)",
        -13.208244199490599
      ],
      [
        "θ_q",
        -13.210575942318163
      ],
      [
        "d)))",
        -13.211012904534051
      ],
      [
        "J_Υ",
        -13.212193171491208
      ],
      [
        "p_",
        -13.212325406282389
      ],
      [
        "(Ξ)**",
        -13.21247896579561
      ],
      [
        "2)/",
        -13.213489902525763
      ],
      [
        "Φ_O",
        -13.214228827668023
      ],
      [
        "(H)/",
        -13.215154277731298
      ],
      [
        "Sum(9*",
        -13.217160172918136
      ],
      [
        "N_Α",
        -13.217221158451286
      ],
      [
        "(η)**",
        -13.217299102226614
      ],
      [
        "(σ**",
        -13.21909498124151
      ],
      [
        "Χ_T",
        -13.219213238292976
      ],
      [
        "262144",
        -13.219453421572833
      ],
      [
        "20",
        -13.219453422453107
      ],
      [
        "θ_6Α",
        -13.219784915841077
      ],
      [
        "(x)*",
        -13.21988910333305
      ],
      [
        "φ_t",
        -13.219906912702283
      ],
      [
        "O_lZ",
        -13.220095455649759
      ],
      [
        "'ζ_",
        -13.2214458811507
      ],
      [
        "sqrt(K)",
        -13.221700795616021
      ],
      [
        "sqrt(μ)",
        -13.222057446645099
      ],
      [
        "γ)*",
        -13.222432652469852
      ],
      [
        "(ζ)*",
        -13.222977990646754
      ],
      [
        "(c)/",
        -13.223636312396431
      ],
      [
        "(a)**",
        -13.224392323508924
      ],
      [
        "'φ_",
        -13.226712054276911
      ],
      [
        "(o)/",
        -13.226850851010019
      ],
      [
        "(R)*",
        -13.226958456789966
      ],
      [
        "(L)*",
        -13.227389582214448
      ],
      [
        "**3)*",
        -13.22752580998977
      ],
      [
        "(Ω)/",
        -13.227538566780066
      ],
      [
        "(Τ)*",
        -13.227825659134592
      ],
      [
        "(δ)*",
        -13.230009949167558
      ],
      [
        "(φ))",
        -13.23224454233391
      ],
      [
        "s_χ",
        -13.233118898777196
      ],
      [
        "(v)*",
        -13.233831650587653
      ],
      [
        "5)*",
        -13.23395183078766
      ],
      [
        "_Π",
        -13.234171640971445
      ],
      [
        "(Θ)*",
        -13.23765475371094
      ],
      [
        "(Ν)/",
        -13.237818238491451
      ],
      [
        "Ρ)*",
        -13.2378825240428
      ],
      [
        "τ_",
        -13.239541307707809
      ],
      [
        "'t_",
        -13.239621877628657
      ],
      [
        "G_Σ",
        -13.240616687066519
      ],
      [
        "(δ)**",
        -13.240761642848003
      ],
      [
        "N_Ο",
        -13.240971454508934
      ],
      [
        "(C)**",
        -13.241488816845745
      ],
      [
        "(M)*",
        -13.241506372965517
      ],
      [
        "Θ)*",
        -13.244053158659815
      ],
      [
        "Derivative(9*",
        -13.24425165117742
      ],
      [
        "Π_Z",
        -13.244431063043201
      ],
      [
        "X_γ",
        -13.245388727763947
      ],
      [
        "(τ)/",
        -13.245544117394466
      ],
      [
        "(l)*",
        -13.245804680348742
      ],
      [
        "I_β",
        -13.245906396636492
      ],
      [
        "α_Α",
        -13.24602670506699
      ],
      [
        "M_A",
        -13.246458730179429
      ],
      [
        "φ_Ρ",
        -13.247026636752086
      ],
      [
        "sqrt(K)*",
        -13.2477375722348
      ],
      [
        "g_O",
        -13.248912764006823
      ],
      [
        "Α_",
        -13.249697426634757
      ],
      [
        "Σ)",
        -13.24975953638858
      ],
      [
        "Π_k",
        -13.250106579124244
      ],
      [
        "θ)",
        -13.250614537276736
      ],
      [
        "T_Ι",
        -13.25087135926375
      ],
      [
        "'Γ_",
        -13.254170189507853
      ],
      [
        "(κ)/",
        -13.254379814103597
      ],
      [
        "Ο_Σ",
        -13.255628864688106
      ],
      [
        "Ο_Κ",
        -13.255866518739643
      ],
      [
        "Sum(log(Γ",
        -13.256589442283593
      ],
      [
        "φ_g",
        -13.256761465798176
      ],
      [
        "γ_",
        -13.257293351510034
      ],
      [
        "Χ_η",
        -13.25765816746063
      ],
      [
        "υ_μ",
        -13.259146015082965
      ],
      [
        "(j)*",
        -13.259253456551317
      ],
      [
        "K_Ο",
        -13.25977925310009
      ],
      [
        "β_Υ",
        -13.259885228613635
      ],
      [
        "Ω)*",
        -13.260060459550457
      ],
      [
        "ψ_ο",
        -13.26040886737805
      ],
      [
        "I_5",
        -13.26074190210703
      ],
      [
        "(B_",
        -13.262053912350705
      ],
      [
        "η_Ι",
        -13.262445493953475
      ],
      [
        "Χ_Y",
        -13.26313161860102
      ],
      [
        "_σ",
        -13.264054537718131
      ],
      [
        "_τ))",
        -13.264341170509185
      ],
      [
        "κ_ζ",
        -13.265237952324526
      ],
      [
        "(W**",
        -13.26565435658004
      ],
      [
        "Π_D",
        -13.265656487053016
      ],
      [
        "σ_Η",
        -13.266556046941423
      ],
      [
        "E_υ",
        -13.266792057781588
      ],
      [
        "ζ_Z",
        -13.266899958723311
      ],
      [
        "(Φ)**",
        -13.267412860406893
      ],
      [
        "*Υ)",
        -13.268240994658814
      ],
      [
        "α_B",
        -13.26839256220661
      ],
      [
        "Ν_Η",
        -13.268625059251356
      ],
      [
        "(r)*",
        -13.269231173665487
      ],
      [
        "sqrt(u)",
        -13.269393739742403
      ],
      [
        "k_θ",
        -13.270333597733233
      ],
      [
        "sqrt(a)",
        -13.27116309236242
      ],
      [
        "υ_η",
        -13.272970698332903
      ],
      [
        "(Χ_",
        -13.273263955003518
      ],
      [
        "**Α)",
        -13.273719340866863
      ],
      [
        "E_ε",
        -13.274747048400524
      ],
      [
        "'σ_",
        -13.274879283046072
      ],
      [
        "*γ)",
        -13.275147086930922
      ],
      [
        "log(P)",
        -13.27642014533343
      ],
      [
        "(n))",
        -13.27650824074846
      ],
      [
        "u_σ",
        -13.278112409528823
      ],
      [
        "'B_",
        -13.27816323787487
      ],
      [
        "sqrt(6)*sqrt(",
        -13.280079999975719
      ],
      [
        "sqrt(-",
        -13.280109530558287
      ],
      [
        "(x)**",
        -13.280422895411604
      ],
      [
        "υ_",
        -13.28129836074877
      ],
      [
        "sqrt(Ε)",
        -13.281998667262101
      ],
      [
        "Z)",
        -13.282079468623323
      ],
      [
        "**2))",
        -13.282293351255722
      ],
      [
        "(w)*",
        -13.283329506591597
      ],
      [
        "x_G",
        -13.283537288920023
      ],
      [
        "W_2",
        -13.284032809170961
      ],
      [
        "'β_",
        -13.284884505836892
      ],
      [
        "(Ο_",
        -13.284987874006331
      ],
      [
        "(ω)/",
        -13.28579020116662
      ],
      [
        "E))",
        -13.286608763023043
      ],
      [
        "A_η",
        -13.287220984735214
      ],
      [
        "(W)*",
        -13.287394361312785
      ],
      [
        "Γ_Ι",
        -13.288094504118417
      ],
      [
        "Β_X",
        -13.290326165265439
      ],
      [
        "τ_W",
        -13.290549451482917
      ],
      [
        "σ)*",
        -13.291324685368515
      ],
      [
        "Sum(3*",
        -13.292046345091254
      ],
      [
        "_3",
        -13.292056064545692
      ],
      [
        "(n)*",
        -13.293596339037215
      ],
      [
        "δ_",
        -13.293899038933011
      ],
      [
        "λ)",
        -13.294182620687089
      ],
      [
        "(Β)/",
        -13.294881945703747
      ],
      [
        "ζ_Ψ",
        -13.294937887002696
      ],
      [
        "log(ο)",
        -13.295211828661342
      ],
      [
        "Τ_U",
        -13.295314522166613
      ],
      [
        "Y_8",
        -13.29829622156748
      ],
      [
        "(Η)**",
        -13.299692521144909
      ],
      [
        "k)",
        -13.300143620608356
      ],
      [
        "Ι_j",
        -13.301231606412836
      ],
      [
        "sqrt(p)",
        -13.301818357770424
      ],
      [
        "(V)/",
        -13.302405558141135
      ],
      [
        "/7))",
        -13.303838966465648
      ],
      [
        "h_A",
        -13.303841968775997
      ],
      [
        "sqrt(ε)",
        -13.303973763195094
      ],
      [
        "Φ_Α",
        -13.304060558143158
      ],
      [
        "'S",
        -13.304162689671777
      ],
      [
        "μ)*",
        -13.30518413361966
      ],
      [
        "Φ_A",
        -13.305846278365163
      ],
      [
        "γ_z",
        -13.30635698907156
      ],
      [
        "T*",
        -13.306395623032028
      ],
      [
        "**g)",
        -13.307281087151729
      ],
      [
        "sqrt(Β)",
        -13.309963589486035
      ],
      [
        "sqrt(δ)*",
        -13.31174376167131
      ],
      [
        "(k_",
        -13.311778151680034
      ],
      [
        "L_Ω",
        -13.313148397782196
      ],
      [
        "Ν_2",
        -13.313320719805613
      ],
      [
        "(τ_",
        -13.313756308083208
      ],
      [
        "'J_",
        -13.314459481652264
      ],
      [
        "log(V)",
        -13.314666741515278
      ],
      [
        "ζ_ρ",
        -13.315469263531167
      ],
      [
        "log(3*",
        -13.315960240186705
      ],
      [
        "(ν)*",
        -13.316185559568476
      ],
      [
        "(w_",
        -13.316771515614343
      ],
      [
        "(ζ_",
        -13.317367228288948
      ],
      [
        "_X",
        -13.317679686126063
      ],
      [
        "/mml:msu",
        -13.321322476824971
      ],
      [
        "(λ)/",
        -13.32199476184879
      ],
      [
        "log(η)",
        -13.322807398677474
      ],
      [
        "log(Ι)",
        -13.322830935693327
      ],
      [
        "Y)",
        -13.323353199661142
      ],
      [
        "cosh(1)",
        -13.325109218343643
      ],
      [
        "ψ_R",
        -13.325674712506196
      ],
      [
        "_Φ))",
        -13.326447799126782
      ],
      [
        "R_J",
        -13.328028420789543
      ],
      [
        "(φ_",
        -13.329824420149814
      ],
      [
        "_y",
        -13.332278784298364
      ],
      [
        "(r_",
        -13.332661904418256
      ],
      [
        "_Y",
        -13.332826374242979
      ],
      [
        "Ξ)",
        -13.33316573359048
      ],
      [
        "1)/",
        -13.334336369945206
      ],
      [
        "(ρ)/",
        -13.33443934658201
      ],
      [
        "I))",
        -13.334856632477804
      ],
      [
        "(U**",
        -13.335828037418262
      ],
      [
        "v)*",
        -13.338115833759069
      ],
      [
        "'D_",
        -13.33819148198084
      ],
      [
        "(θ)*",
        -13.338257197499352
      ],
      [
        "(Μ_",
        -13.338983546939698
      ],
      [
        "**ζ)",
        -13.339929379831343
      ],
      [
        "(E)**",
        -13.341585959226865
      ],
      [
        "_Γ",
        -13.343862824678967
      ],
      [
        "(Σ_",
        -13.344419492851149
      ],
      [
        "_χ)))",
        -13.345340083053731
      ],
      [
        "_u",
        -13.347177861364868
      ],
      [
        "Θ_s",
        -13.34752621398977
      ],
      [
        "Η)",
        -13.34797519018419
      ],
      [
        "log(Η)/",
        -13.350911689682524
      ],
      [
        "'o_",
        -13.351176962799437
      ],
      [
        "log(H)",
        -13.35246856834732
      ],
      [
        "W*",
        -13.352778589344979
      ],
      [
        "'ξ_",
        -13.3529580442756
      ],
      [
        "(b)/",
        -13.35386122687848
      ],
      [
        ")**7)",
        -13.35461405866663
      ],
      [
        "ρ)*",
        -13.355234090799131
      ],
      [
        "sqrt(Λ)",
        -13.355476343711336
      ],
      [
        "sqrt(d)*",
        -13.355603433939221
      ],
      [
        "(ζ)/",
        -13.35686459446423
      ],
      [
        "sqrt(G)",
        -13.35884917380983
      ],
      [
        "β_Τ",
        -13.359323908167795
      ],
      [
        "**2",
        -13.360570604835305
      ],
      [
        "(k)/",
        -13.360983165498618
      ],
      [
        "a_5",
        -13.361797114327777
      ],
      [
        "Ν)",
        -13.36233431227819
      ],
      [
        "(υ)/",
        -13.363433356117019
      ],
      [
        "sqrt(Z)",
        -13.3647888895827
      ],
      [
        "(b)**",
        -13.370117078538552
      ],
      [
        "/λ)",
        -13.371692955031195
      ],
      [
        "sqrt(Μ)",
        -13.371748791146192
      ],
      [
        "Δ)*",
        -13.372816698057427
      ],
      [
        "Γ)",
        -13.373564343555998
      ],
      [
        "log(U)",
        -13.37380118543265
      ],
      [
        "log(Ο)",
        -13.37393051537876
      ],
      [
        "'Ν_",
        -13.374193073497976
      ],
      [
        "sqrt(Θ)",
        -13.374308765582642
      ],
      [
        "(A)/",
        -13.375092024097896
      ],
      [
        "Sum(7*",
        -13.375636528897639
      ],
      [
        "/7",
        -13.376887267259756
      ],
      [
        "log(8*",
        -13.378329152052192
      ],
      [
        "**δ)",
        -13.37925946518476
      ],
      [
        "(K*",
        -13.380033146290371
      ],
      [
        "**7)*",
        -13.382718825368382
      ],
      [
        "(r)/",
        -13.383515744085821
      ],
      [
        "*μ)",
        -13.384302469397381
      ],
      [
        "sqrt(h)",
        -13.388316452388796
      ],
      [
        "_g",
        -13.388440549106386
      ],
      [
        "(η/",
        -13.389177660750075
      ],
      [
        "'ι_",
        -13.38941865006042
      ],
      [
        "l_Π",
        -13.390446311635426
      ],
      [
        ")**(5**",
        -13.39248921454004
      ],
      [
        "u)*",
        -13.392768604058709
      ],
      [
        "(Α)**",
        -13.394109048031595
      ],
      [
        "**4))",
        -13.394326625307043
      ],
      [
        "D_Ω",
        -13.394943831137827
      ],
      [
        "(Ζ)*",
        -13.395141959472324
      ],
      [
        "γ_χ",
        -13.396401422294051
      ],
      [
        "Z_Z",
        -13.39689577942876
      ],
      [
        "(μ)/",
        -13.398060865246064
      ],
      [
        "Π_αΧ",
        -13.398369738342367
      ],
      [
        "b_Φ",
        -13.400986527024674
      ],
      [
        "(K)*",
        -13.401807434619162
      ],
      [
        "sqrt(ψ)",
        -13.402104128331263
      ],
      [
        "α_Ν",
        -13.402602615740506
      ],
      [
        "Sum(sqrt(μ",
        -13.404855117083915
      ],
      [
        "(σ)**",
        -13.406457501493925
      ],
      [
        "_υ",
        -13.408497431987868
      ],
      [
        "_Φ",
        -13.40914460686743
      ],
      [
        "**3",
        -13.409548549276893
      ],
      [
        "'Ο_",
        -13.41027544556796
      ],
      [
        "υ)*",
        -13.410770138848719
      ],
      [
        "sqrt(Ρ)",
        -13.412726554722258
      ],
      [
        "-3",
        -13.412851983237896
      ],
      [
        "(Υ)**",
        -13.412916607563078
      ],
      [
        "θ_",
        -13.41360361532456
      ],
      [
        "log(Θ)",
        -13.415166741326086
      ],
      [
        "ο_ω",
        -13.415601670172894
      ],
      [
        "(Ν)**",
        -13.416985110683255
      ],
      [
        ")**6",
        -13.417029111737145
      ],
      [
        "d_G",
        -13.41756763934322
      ],
      [
        "Α_X",
        -13.419160382467163
      ],
      [
        "Derivative(6**",
        -13.420519806846785
      ],
      [
        "χ)*",
        -13.421085549923504
      ],
      [
        ")**7",
        -13.42115616586598
      ],
      [
        "ω_Ω",
        -13.424632504974863
      ],
      [
        "(Λ)**",
        -13.424706481893736
      ],
      [
        "f_G",
        -13.425230367897925
      ],
      [
        "h*",
        -13.425235585639701
      ],
      [
        "/9)*",
        -13.425633308225503
      ],
      [
        "*θ)",
        -13.425919163087961
      ],
      [
        "(-5*",
        -13.42608830062216
      ],
      [
        "(κ)**",
        -13.42670881363231
      ],
      [
        "(C)*",
        -13.426733447832504
      ],
      [
        "z_L",
        -13.42769656100639
      ],
      [
        "L_μ",
        -13.42819767734811
      ],
      [
        "<mml:ms",
        -13.428431788464938
      ],
      [
        "Ζ_Υ",
        -13.429580414941075
      ],
      [
        "λ_",
        -13.43020154031951
      ],
      [
        "(Λ)*",
        -13.430312561786964
      ],
      [
        "sqrt(C)",
        -13.430373936633863
      ],
      [
        "(Ο)*",
        -13.431028455230484
      ],
      [
        "log(g)/",
        -13.431871019548108
      ],
      [
        "(Β)*",
        -13.432516550414197
      ],
      [
        "D_ν",
        -13.433762506929325
      ],
      [
        "χ)",
        -13.434428606378917
      ],
      [
        "(Α)*",
        -13.435641439812445
      ],
      [
        "/6)*",
        -13.435968954667121
      ],
      [
        "K_F",
        -13.436524741666226
      ],
      [
        "</mml:ms",
        -13.437632294706544
      ],
      [
        "(ε_",
        -13.437899050373057
      ],
      [
        "(Κ)*",
        -13.439336518066177
      ],
      [
        "(n",
        -13.440172987552918
      ],
      [
        "(Ρ)/",
        -13.44032389245156
      ],
      [
        "Ν)*",
        -13.44054397978427
      ],
      [
        "sqrt(β_",
        -13.440792463575367
      ],
      [
        "Ε_q",
        -13.440835360511054
      ],
      [
        "(γ)*",
        -13.441278031745595
      ],
      [
        ")/(2*sqrt(",
        -13.442544644163277
      ],
      [
        "/Δ)",
        -13.442602535900726
      ],
      [
        "P_Ι",
        -13.443411649383265
      ],
      [
        "Ν_ν",
        -13.446456559426904
      ],
      [
        "(Ξ)*",
        -13.44798178834303
      ],
      [
        "(Ζ**",
        -13.450336462213187
      ],
      [
        "Integral(8*",
        -13.450695885136874
      ],
      [
        "ψ)/",
        -13.451532582786271
      ],
      [
        "_Υ))",
        -13.451569544334983
      ],
      [
        "_θ",
        -13.451578733969203
      ],
      [
        "J_L",
        -13.45174091108975
      ],
      [
        "κ_Η",
        -13.45365145174023
      ],
      [
        "Sum(sqrt(Ρ",
        -13.45375142819816
      ],
      [
        "υ_Η",
        -13.45411267498184
      ],
      [
        "sqrt(D)",
        -13.45474295830493
      ],
      [
        "Ν_k",
        -13.455542032863598
      ],
      [
        "(D)/",
        -13.455643089351767
      ],
      [
        "sqrt(j)",
        -13.455765039626442
      ],
      [
        "log(b)",
        -13.4565360728883
      ],
      [
        "(g)/",
        -13.458146011179606
      ],
      [
        "4)/",
        -13.458530629706587
      ],
      [
        "log(j)**",
        -13.458742348990581
      ],
      [
        "_v",
        -13.460288369276508
      ],
      [
        "B)",
        -13.460698029358324
      ],
      [
        "(γ)**",
        -13.460989080774414
      ],
      [
        "M*",
        -13.463935885226343
      ],
      [
        "ψ_θ",
        -13.46427187282199
      ],
      [
        "'Π_",
        -13.464759957966589
      ],
      [
        "Ξ_Χ",
        -13.465329795329241
      ],
      [
        "**Β)",
        -13.467341444342185
      ],
      [
        "(Κ)**(",
        -13.46830148304427
      ],
      [
        "(Ρ)*",
        -13.469119028358746
      ],
      [
        "(U)*",
        -13.469932654221436
      ],
      [
        "_s))",
        -13.470244304786455
      ],
      [
        "ν*",
        -13.473331132946981
      ],
      [
        "(L*",
        -13.473787466443502
      ],
      [
        "/Ω)",
        -13.474029138805008
      ],
      [
        "(Θ)**",
        -13.474575128833951
      ],
      [
        "9)**",
        -13.475220074616084
      ],
      [
        "sqrt(α)/",
        -13.475544558040703
      ],
      [
        "log(G)",
        -13.476696933324028
      ],
      [
        "_Ω",
        -13.476919421053971
      ],
      [
        "U_C",
        -13.477206222989608
      ],
      [
        "(Ο)/",
        -13.477714386715544
      ],
      [
        "M_2",
        -13.479528029450606
      ],
      [
        "log(ε)",
        -13.482423922991337
      ],
      [
        "Ξ_3",
        -13.482917898473428
      ],
      [
        "(S",
        -13.483492618638317
      ],
      [
        "Τ_Ι",
        -13.48427746388278
      ],
      [
        "n_",
        -13.484448511997956
      ],
      [
        "b_χΒ",
        -13.484699561008648
      ],
      [
        "(α)/",
        -13.4855060957996
      ],
      [
        "λ_gM",
        -13.48553975095422
      ],
      [
        "H_γ",
        -13.485700050105217
      ],
      [
        "y_P",
        -13.486496106140738
      ],
      [
        "θ)/2)",
        -13.486717055826874
      ],
      [
        "(-J",
        -13.488812091981147
      ],
      [
        "log(Φ)**",
        -13.488864102814553
      ],
      [
        "τ)*",
        -13.489132470576806
      ],
      [
        "(P)*",
        -13.490126481940575
      ],
      [
        "sqrt(ι)",
        -13.49127630899624
      ],
      [
        "**Ψ)",
        -13.49224471252898
      ],
      [
        "sqrt(Α)",
        -13.492316731257429
      ],
      [
        "L_",
        -13.494850735034992
      ],
      [
        "sqrt(B)",
        -13.495278838999793
      ],
      [
        "(-M",
        -13.495627821108782
      ],
      [
        "Φ_C",
        -13.49569760177795
      ],
      [
        "_b))",
        -13.496060757539752
      ],
      [
        "j*",
        -13.496281801198343
      ],
      [
        "ο)**",
        -13.496558430970028
      ],
      [
        "/5)*",
        -13.496558957387329
      ],
      [
        "(D_",
        -13.496856487687793
      ],
      [
        "Integral(sqrt(h)",
        -13.49758860594545
      ],
      [
        "(Γ)*",
        -13.49830298609074
      ],
      [
        "sqrt(X)*",
        -13.49885589457294
      ],
      [
        "_o))",
        -13.498976693350716
      ],
      [
        "/K)",
        -13.500240604770564
      ],
      [
        "2*sqrt(",
        -13.500607439295367
      ],
      [
        "h_k",
        -13.502064904665993
      ],
      [
        "(U/",
        -13.505953182190169
      ],
      [
        "(B)/",
        -13.506007190122515
      ],
      [
        "sqrt(α)",
        -13.506179452050073
      ],
      [
        "n)))",
        -13.508044087493182
      ],
      [
        "(A**",
        -13.508318176400648
      ],
      [
        "/Κ)",
        -13.508540388805208
      ],
      [
        "(G*",
        -13.509193317777502
      ],
      [
        "'w_Ζ",
        -13.510019672674794
      ],
      [
        "Ψ_6",
        -13.510834362676405
      ],
      [
        "(W_",
        -13.511024223759954
      ],
      [
        "(M_",
        -13.514910085742816
      ],
      [
        "(Α)/",
        -13.51528382678812
      ],
      [
        "_δ",
        -13.516875811570785
      ],
      [
        "U_L",
        -13.517869323333564
      ],
      [
        "ι)",
        -13.51823493496762
      ],
      [
        "J_H",
        -13.518537463467622
      ],
      [
        "(J_",
        -13.518895754556823
      ],
      [
        "ε)*",
        -13.52210814226782
      ],
      [
        "log(x)",
        -13.522363164448112
      ],
      [
        "sqrt(Ν)",
        -13.523346729734786
      ],
      [
        "log(4*",
        -13.524058075564923
      ],
      [
        "α_ω",
        -13.524477562639975
      ],
      [
        "sqrt(g)",
        -13.524847920372116
      ],
      [
        "_Ρ)*",
        -13.525377774426246
      ],
      [
        "Derivative(3*",
        -13.527645708235182
      ],
      [
        "Δ*",
        -13.530961893047742
      ],
      [
        "sqrt(R)",
        -13.530966477153473
      ],
      [
        "(m)**",
        -13.53148709398926
      ],
      [
        "log(r)",
        -13.531725561152559
      ],
      [
        "v_",
        -13.531972702829332
      ],
      [
        "(L**",
        -13.532504994395934
      ],
      [
        "sqrt(λ)*",
        -13.532910994553216
      ],
      [
        "**E)",
        -13.534619973345215
      ],
      [
        "_q",
        -13.534660547058053
      ],
      [
        "_κ",
        -13.5351760406051
      ],
      [
        "λ_8",
        -13.536760223132998
      ],
      [
        "log(K)",
        -13.53738090130337
      ],
      [
        "Κ)",
        -13.537545726543058
      ],
      [
        "Integral(sqrt(H)",
        -13.540836284544117
      ],
      [
        "Derivative(log(Κ",
        -13.543182838761503
      ],
      [
        "Derivative(log(Y",
        -13.544854813686708
      ],
      [
        "(σ_",
        -13.547797669951771
      ],
      [
        "Derivative(7*",
        -13.548462282188071
      ],
      [
        "'Η_",
        -13.548592187381155
      ],
      [
        "ξ)**",
        -13.549096595502064
      ],
      [
        ")/(log(",
        -13.549920451108285
      ],
      [
        "/4)*",
        -13.550436576427876
      ],
      [
        "A_Υ",
        -13.55112285705623
      ],
      [
        "(Δ)*",
        -13.551396904930558
      ],
      [
        "_α",
        -13.553290696991482
      ],
      [
        "(N_",
        -13.553540096304609
      ],
      [
        "g)",
        -13.554196910513294
      ],
      [
        "sqrt(l)*",
        -13.554948672158918
      ],
      [
        "M)",
        -13.555527207692736
      ],
      [
        "'l",
        -13.556030727671365
      ],
      [
        "(κ_",
        -13.556349587175774
      ],
      [
        "Ι_",
        -13.55767044349964
      ],
      [
        "(α)*",
        -13.55835843222998
      ],
      [
        "log(Κ)",
        -13.559703366847042
      ],
      [
        "log(κ_",
        -13.55988329927628
      ],
      [
        "Sum(8*",
        -13.560968076645649
      ],
      [
        "Γ)*",
        -13.561130709933218
      ],
      [
        "_V",
        -13.561156945328513
      ],
      [
        "ι)*",
        -13.561497631353078
      ],
      [
        "(η_",
        -13.561911843239827
      ],
      [
        "**k)",
        -13.561999318257136
      ],
      [
        "(T)**",
        -13.5629957861562
      ],
      [
        ")/log(ε)",
        -13.563007225032838
      ],
      [
        "**4)*",
        -13.563026128342567
      ],
      [
        "(y)/",
        -13.566502050687733
      ],
      [
        "**Ο)",
        -13.567055110902398
      ],
      [
        "z_αλ",
        -13.5686870263183
      ],
      [
        "log(u)",
        -13.569685870073977
      ],
      [
        "sqrt(c)",
        -13.57011604915952
      ],
      [
        "μ_Ν",
        -13.571603701054812
      ],
      [
        "**6)**",
        -13.57244230424545
      ],
      [
        "log(Χ)",
        -13.573913318106134
      ],
      [
        "log(α_",
        -13.574466566720815
      ],
      [
        "Integral(5*",
        -13.576799949405924
      ],
      [
        ")*log(λ)",
        -13.577124643308457
      ],
      [
        "sqrt(b)",
        -13.57783612314285
      ],
      [
        "Ε**(",
        -13.578887690939023
      ],
      [
        "_Ψ))",
        -13.578970948899208
      ],
      [
        "/4",
        -13.57934649589545
      ],
      [
        "ψ*",
        -13.57972726839567
      ],
      [
        "log(Σ)",
        -13.581679559126261
      ],
      [
        "'N_",
        -13.582447905943848
      ],
      [
        "Integral(sqrt(k)",
        -13.584101532935243
      ],
      [
        "**D)",
        -13.585718109846285
      ],
      [
        "Π_Τ",
        -13.589495196529414
      ],
      [
        "(h)/",
        -13.590906980690557
      ],
      [
        "(β)/",
        -13.591257958075127
      ],
      [
        "(Β**",
        -13.593298600859612
      ],
      [
        "j)*",
        -13.59487550495685
      ],
      [
        "(A)*",
        -13.597896535832263
      ],
      [
        "Β)",
        -13.598029182722803
      ],
      [
        "(q_",
        -13.598046557000828
      ],
      [
        "(Λ**",
        -13.599615981752276
      ],
      [
        "V)/",
        -13.600347764927264
      ],
      [
        "q*",
        -13.601512643593507
      ],
      [
        "sqrt(Φ)",
        -13.602904517809222
      ],
      [
        "_j",
        -13.602952323196881
      ],
      [
        "log(o)",
        -13.603283704406024
      ],
      [
        "sqrt(x)",
        -13.604486699354343
      ],
      [
        "log(F)",
        -13.60668067390901
      ],
      [
        "3*sqrt(",
        -13.607528575950184
      ],
      [
        "_Ρ",
        -13.609242812686263
      ],
      [
        "Sum(6*",
        -13.609513773378186
      ],
      [
        "Ω_5",
        -13.609744702985227
      ],
      [
        "**Ρ)",
        -13.610863834509368
      ],
      [
        "g_C",
        -13.611121175168554
      ],
      [
        "sqrt(Δ)",
        -13.611459053608119
      ],
      [
        "(p)**",
        -13.612880211300547
      ],
      [
        "*θ))",
        -13.614138498369382
      ],
      [
        "Q))",
        -13.615118109117297
      ],
      [
        "'Ζ_",
        -13.615514954406716
      ],
      [
        "Κ)*",
        -13.616104022005091
      ],
      [
        "(q)*",
        -13.618977313377048
      ],
      [
        "υ_h",
        -13.619008994966599
      ],
      [
        "g_q",
        -13.61937805123258
      ],
      [
        "_Ξ",
        -13.619386214136789
      ],
      [
        "*Ψ)",
        -13.619672461970783
      ],
      [
        "(Κ)**",
        -13.620274320952294
      ],
      [
        "'Υ_",
        -13.620965816823844
      ],
      [
        "w_β",
        -13.62162813286492
      ],
      [
        "P_s",
        -13.62253672419443
      ],
      [
        "C_G",
        -13.622590711880095
      ],
      [
        "Ν_9",
        -13.622723223349887
      ],
      [
        "(Χ)**",
        -13.62374782543634
      ],
      [
        "4/",
        -13.623829240862701
      ],
      [
        "/3",
        -13.62400900754411
      ],
      [
        "T_q",
        -13.624439931719156
      ],
      [
        "(C_",
        -13.6260454094679
      ],
      [
        "Ο_L",
        -13.6261130542405
      ],
      [
        "r_L",
        -13.628944385210383
      ],
      [
        "v*",
        -13.629013946189009
      ],
      [
        "A_",
        -13.629157847163997
      ],
      [
        "log(δ)",
        -13.62929964320452
      ],
      [
        "δ)**",
        -13.63054505242464
      ],
      [
        "*Μ)",
        -13.630556801346135
      ],
      [
        "/τ)",
        -13.630812613236706
      ],
      [
        "θ_V",
        -13.631783085602654
      ],
      [
        "d_A",
        -13.632314933987162
      ],
      [
        "log(c)",
        -13.633264769660547
      ],
      [
        "C)",
        -13.633339308792063
      ],
      [
        "_J))",
        -13.633472322240651
      ],
      [
        "V_ρ",
        -13.633483327712485
      ],
      [
        "8*sqrt(",
        -13.633831194248787
      ],
      [
        "D_τ",
        -13.633975006595875
      ],
      [
        "ξ_δ",
        -13.634589567089796
      ],
      [
        "ψ_Ξ",
        -13.636404376381217
      ],
      [
        "(g**",
        -13.637490564503414
      ],
      [
        "*ρ)",
        -13.63765325663971
      ],
      [
        "log(Τ)",
        -13.638608697553934
      ],
      [
        "Ω_8",
        -13.639476021711388
      ],
      [
        "(Ν_",
        -13.639792968024135
      ],
      [
        "h_3",
        -13.639833070063375
      ],
      [
        "(Μ)**",
        -13.642125772353218
      ],
      [
        "(τ)**",
        -13.642464850301367
      ],
      [
        "7**",
        -13.642915856858734
      ],
      [
        "(Φ_",
        -13.64383512828443
      ],
      [
        ")**K)",
        -13.644052978646643
      ],
      [
        "a_",
        -13.645984425274138
      ],
      [
        "σ_jλΓ",
        -13.646080887339357
      ],
      [
        "(Τ)**",
        -13.646131497771613
      ],
      [
        "n_λ",
        -13.646949127448936
      ],
      [
        "a)*",
        -13.646956122890062
      ],
      [
        "β_p",
        -13.647929242635817
      ],
      [
        "log(B",
        -13.648431947470364
      ],
      [
        "μ)**",
        -13.648871032956416
      ],
      [
        "sqrt(Ψ)*",
        -13.649180494897886
      ],
      [
        "log(J",
        -13.649417787514547
      ],
      [
        "U_iN",
        -13.649523999647458
      ],
      [
        "Π_Ε",
        -13.649610304131844
      ],
      [
        "α)*",
        -13.65046674698261
      ],
      [
        "Sum(2*",
        -13.651170323961221
      ],
      [
        "Δ_Ν",
        -13.652061509166632
      ],
      [
        "**5",
        -13.653575685281318
      ],
      [
        "M_Ξ",
        -13.653951617950618
      ],
      [
        "Χ_ξ",
        -13.655006434353805
      ],
      [
        "(ζ))",
        -13.655140734570224
      ],
      [
        "(z_",
        -13.656646650474297
      ],
      [
        "(H_",
        -13.657375809692489
      ],
      [
        "/Ζ)",
        -13.658518267669413
      ],
      [
        "k_D",
        -13.658668255659355
      ],
      [
        "Y)*",
        -13.65883780374972
      ],
      [
        "O_χ",
        -13.659327896914158
      ],
      [
        "_M)/",
        -13.65976849248301
      ],
      [
        "Ε*",
        -13.659807675927595
      ],
      [
        "Δ_",
        -13.660602788678379
      ],
      [
        "4**",
        -13.660614903495969
      ],
      [
        "I_S",
        -13.660619345863477
      ],
      [
        "_Z))",
        -13.660939336469117
      ],
      [
        "(Ε))",
        -13.662124827494825
      ],
      [
        "Y_ι",
        -13.662259556045367
      ],
      [
        "D_χ",
        -13.66347210586547
      ],
      [
        "log(W)",
        -13.663772810833642
      ],
      [
        "(τ)*",
        -13.665857168620853
      ],
      [
        "(P/",
        -13.666310537055784
      ],
      [
        "η_s",
        -13.666631732678955
      ],
      [
        "a_ν",
        -13.667320432761274
      ],
      [
        "(Τ)/",
        -13.668095595854108
      ],
      [
        "χ_Qι",
        -13.668840752754154
      ],
      [
        "sqrt(Ι)",
        -13.668887192558415
      ],
      [
        "40",
        -13.669452650639293
      ],
      [
        "ξ_KTI",
        -13.669453424096776
      ],
      [
        "N_χΘχ",
        -13.669453424317505
      ],
      [
        "B_ΝMθ",
        -13.669453424399618
      ],
      [
        "Ζ_HDA",
        -13.66945342462115
      ],
      [
        "Ο_OΠF",
        -13.669453424804267
      ],
      [
        "Υ_ηψk",
        -13.669453425293108
      ],
      [
        "G_ΘVψ",
        -13.669453425377519
      ],
      [
        "D_ΘΧβ",
        -13.669453425716684
      ],
      [
        "u_ΑΔΞ",
        -13.669453425801224
      ],
      [
        "φ_UΓΝ",
        -13.669453425986994
      ],
      [
        "λ_υωΧ",
        -13.669453426202969
      ],
      [
        "Ε_Ρχα",
        -13.669453426524715
      ],
      [
        "Δ_ΖψF",
        -13.669453426626786
      ],
      [
        "ρ_KWψ",
        -13.669453426727863
      ],
      [
        "Τ_θhλ",
        -13.669453426935814
      ],
      [
        "ρ_gθk",
        -13.669453426960898
      ],
      [
        "ω_μτj",
        -13.669453426977253
      ],
      [
        "z_MδΕ",
        -13.669453427032334
      ],
      [
        "θ_τβΧ",
        -13.669453427156256
      ],
      [
        "Δ_ΕΨj",
        -13.669453427288282
      ],
      [
        "v_δHχ",
        -13.669453427357755
      ],
      [
        "g_hΔζ",
        -13.669453427714481
      ],
      [
        "Σ_vjΘ",
        -13.669453427731233
      ],
      [
        "Ρ_HΦΟ",
        -13.669453427899105
      ],
      [
        "A_κzD",
        -13.669453428124692
      ],
      [
        "Θ_5γZ",
        -13.669453428313574
      ],
      [
        "υ_CζJ",
        -13.669453429312837
      ],
      [
        "Α_ΙΡδ",
        -13.66945342933269
      ],
      [
        "ω_γLΡ",
        -13.669453429571439
      ],
      [
        "θ_ΦΝ6",
        -13.669453431403635
      ],
      [
        "I_2ΑΥ",
        -13.669453431498257
      ],
      [
        "v_X4ν",
        -13.669453431850181
      ],
      [
        "Ε_ΩωD",
        -13.669453431947485
      ],
      [
        "C_Οσv",
        -13.669453434597447
      ],
      [
        "a_βΩΑ",
        -13.669453434789444
      ],
      [
        "H_ΝQγ",
        -13.669453437216436
      ],
      [
        "q_ΘΒΨ",
        -13.6694534372225
      ],
      [
        "u_7vT",
        -13.669453438982398
      ],
      [
        "ψ_uΘΑ",
        -13.669453440722672
      ],
      [
        "E_λNf",
        -13.669453444158618
      ],
      [
        "G_zΓu",
        -13.669453446297787
      ],
      [
        "ω_ACE",
        -13.669453446454678
      ],
      [
        "ι_VuC",
        -13.669453448374536
      ],
      [
        "Κ_aωY",
        -13.66945344950581
      ],
      [
        "θ_θ3ο",
        -13.669453450517796
      ],
      [
        "ι_uκj",
        -13.669453455290048
      ],
      [
        "n_KIη",
        -13.669453462934193
      ],
      [
        "E_ΑΨ2",
        -13.669453464302453
      ],
      [
        "q_xσρ",
        -13.669453464670458
      ],
      [
        "Π_EΕα",
        -13.669453470693965
      ],
      [
        "Δ_vg4",
        -13.669453472946998
      ],
      [
        "D_γYx",
        -13.66945347552298
      ],
      [
        "R_AxW",
        -13.669453476830686
      ],
      [
        "E_YfΙ",
        -13.669453490707028
      ],
      [
        "k_Q7p",
        -13.669453494318201
      ],
      [
        "c_bGR",
        -13.669453495335198
      ],
      [
        "m_88z",
        -13.669453547843844
      ],
      [
        "X_yWΥ",
        -13.66945355966675
      ],
      [
        "Θ_5pH",
        -13.669453595487186
      ],
      [
        "Μ_ΑΠO",
        -13.66945360903354
      ],
      [
        "ρ_nBΤ",
        -13.669453622875814
      ],
      [
        "y_BIc",
        -13.66945364054655
      ],
      [
        "Δ_vΒc",
        -13.669453645153691
      ],
      [
        "K_εS9",
        -13.669453654838655
      ],
      [
        "Ο_yφv",
        -13.669453672513248
      ],
      [
        "Ψ_ΞΒc",
        -13.669453725596494
      ],
      [
        "A_φ5b",
        -13.669453726967522
      ],
      [
        "h_ΖIΖ",
        -13.669453734205312
      ],
      [
        "τ_aKu",
        -13.669453769047696
      ],
      [
        "p_b9Ω",
        -13.669453773797882
      ],
      [
        "θ_Oθm",
        -13.669453781467412
      ],
      [
        "2401",
        -13.669453805312346
      ],
      [
        "l_7jδ",
        -13.669453808441228
      ],
      [
        "γ_wN6",
        -13.669453808549378
      ],
      [
        "4096",
        -13.669453809905905
      ],
      [
        "l_rM3",
        -13.669453863370649
      ],
      [
        "η_wλX",
        -13.6694539181369
      ],
      [
        "s_PSj",
        -13.669453923872497
      ],
      [
        "s_7νυ",
        -13.669453925097526
      ],
      [
        "ξ_wθΖ",
        -13.669453949136559
      ],
      [
        "E_Θζο",
        -13.669453956236985
      ],
      [
        "Ε_dηU",
        -13.669453972688885
      ],
      [
        "r_Υοξ",
        -13.669454043645827
      ],
      [
        "A_stα",
        -13.669454084426677
      ],
      [
        "c_iτ6",
        -13.669454094628088
      ],
      [
        "l_δΡR",
        -13.669454165140664
      ],
      [
        "Γ_apΞ",
        -13.669454189745622
      ],
      [
        "ω_Ξ3Ι",
        -13.669454190762556
      ],
      [
        "η_iΘΔ",
        -13.669454199288198
      ],
      [
        "P_yεΝ",
        -13.669454254573118
      ],
      [
        "M_νκω",
        -13.669454259557508
      ],
      [
        "n_χtj",
        -13.66945428957627
      ],
      [
        "ι_υQι",
        -13.669454362159456
      ],
      [
        "X_iΛ1",
        -13.669454379043561
      ],
      [
        "l_ΗΔi",
        -13.669454529439646
      ],
      [
        "ν_Τ7Π",
        -13.66945454272804
      ],
      [
        "A_W1Σ",
        -13.669454592216972
      ],
      [
        "Ρ_pΤx",
        -13.669454734435043
      ],
      [
        "Θ_yFΧ",
        -13.669454780095737
      ],
      [
        "x_ΤmJ",
        -13.669454839172952
      ],
      [
        "Η_uΘγ",
        -13.669454857553063
      ],
      [
        "Ο_οκ2",
        -13.66945507888225
      ],
      [
        "w_ΔΨm",
        -13.66945515091752
      ],
      [
        "α_OΝτ",
        -13.669455439742325
      ],
      [
        "γ_UψX",
        -13.669455923087396
      ],
      [
        "η_4ωC",
        -13.669456104347296
      ],
      [
        "u_bpθ",
        -13.669456436499592
      ],
      [
        "b_WUE",
        -13.669458600142782
      ],
      [
        "V_yΡn",
        -13.669459538959062
      ],
      [
        "η_χv4",
        -13.669459605274525
      ],
      [
        "Χ_zQ",
        -13.669459665500405
      ],
      [
        "z_Iδ",
        -13.669459742222154
      ],
      [
        "I_ΨσE",
        -13.669460660181153
      ],
      [
        "ζ_QGa",
        -13.669461617630827
      ],
      [
        "Η_ΛΒ",
        -13.669461812296433
      ],
      [
        "K_1R",
        -13.669464371714357
      ],
      [
        "Λ_νσ",
        -13.669465129010252
      ],
      [
        "H_βM",
        -13.669465131550131
      ],
      [
        "θ_NΝ",
        -13.669466059642485
      ],
      [
        "Q_ΩK",
        -13.669466314870919
      ],
      [
        "Β_ΕY",
        -13.669466473310766
      ],
      [
        "n_acψ",
        -13.669467339178235
      ],
      [
        "V_ψε",
        -13.669467559848714
      ],
      [
        "I_TΟ",
        -13.66946760876694
      ],
      [
        "θ_hh",
        -13.669467739371669
      ],
      [
        "ι_1Ε",
        -13.669467924078681
      ],
      [
        "ψ_D1",
        -13.669468505007611
      ],
      [
        "M_ZB",
        -13.669469134033767
      ],
      [
        "Ω_ΟΧ",
        -13.669469464888374
      ],
      [
        "Ρ_Lh",
        -13.669469720005484
      ],
      [
        "Β_Θν",
        -13.669469817949249
      ],
      [
        "θ_ZW",
        -13.669469844332777
      ],
      [
        "O_HH",
        -13.669470048701571
      ],
      [
        "O_μυ",
        -13.669470155047643
      ],
      [
        "ε_τB",
        -13.669470686747772
      ],
      [
        "B_WW",
        -13.669470789365047
      ],
      [
        "L_XY",
        -13.669472941216206
      ],
      [
        "Y_ΧΦ",
        -13.669473121695939
      ],
      [
        "c_ΒΒ",
        -13.66947344113484
      ],
      [
        "N_M8",
        -13.669474239307881
      ],
      [
        "A_Ξxκ",
        -13.669474799584924
      ],
      [
        "d_wΚd",
        -13.669474996214877
      ],
      [
        "R_ΩB",
        -13.669475216053138
      ],
      [
        "Ρ_μΠ",
        -13.669475321765297
      ],
      [
        "τ_ΤΕ",
        -13.669475687443885
      ],
      [
        "Θ_ΖWS",
        -13.669476946617705
      ],
      [
        "j_opΖ",
        -13.669477857361322
      ],
      [
        "Ρ_6ψ",
        -13.669478240083535
      ],
      [
        "υ_ΚΚ",
        -13.66947884278017
      ],
      [
        "τ_ΤΙ",
        -13.669479292266846
      ],
      [
        "κ_kΓ",
        -13.669479312560398
      ],
      [
        "I_γΟ",
        -13.669479531691557
      ],
      [
        "ι_Θ2",
        -13.669481813129263
      ],
      [
        "γ_Θ6",
        -13.6694848369859
      ],
      [
        "q_Dτ",
        -13.669485307297881
      ],
      [
        "s_4υ",
        -13.669490049682066
      ],
      [
        "κ_υτr",
        -13.66949163956654
      ],
      [
        "q_4ε",
        -13.669502905314857
      ],
      [
        "Κ_νl2",
        -13.669507158518627
      ],
      [
        "F_fφ",
        -13.669507941788908
      ],
      [
        "Γ_7rV",
        -13.66950826691265
      ],
      [
        "w_Ζ",
        -13.669519889900947
      ],
      [
        "θ_ΙdΠ",
        -13.669519932157131
      ],
      [
        "w_7U",
        -13.669520388718901
      ],
      [
        "P_irP",
        -13.669531454380211
      ],
      [
        "B_Γk",
        -13.669553124993616
      ],
      [
        "ν_Βda",
        -13.669560564642541
      ],
      [
        "Ν_ME",
        -13.66956527241729
      ],
      [
        "c_xδ",
        -13.669567588271258
      ],
      [
        "Γ_Ξiν",
        -13.66956819240566
      ],
      [
        "V_EV",
        -13.669582279198714
      ],
      [
        "K_xκ",
        -13.669593935450148
      ],
      [
        "c_ΕΙ",
        -13.66960709652085
      ],
      [
        "β_8a",
        -13.669621918174142
      ],
      [
        "n_Ξ",
        -13.669637530222829
      ],
      [
        "c_Φι",
        -13.669648874268058
      ],
      [
        "B_bnd",
        -13.669660315328178
      ],
      [
        "ε_Μxδ",
        -13.669664346830602
      ],
      [
        "h_εs",
        -13.669666100361026
      ],
      [
        "w_ωλ",
        -13.669697445702841
      ],
      [
        "V_WyU",
        -13.669723625944963
      ],
      [
        "N_dε",
        -13.669726458356166
      ],
      [
        "A_tk",
        -13.669800332465089
      ],
      [
        "r_ΡΔ",
        -13.669815712726093
      ],
      [
        "Α_ΓS",
        -13.669827899736616
      ],
      [
        "ε_Qn",
        -13.669852346495446
      ],
      [
        "Ο_σH",
        -13.669902079575659
      ],
      [
        "D_Βd",
        -13.669969045678467
      ],
      [
        "F_Sh",
        -13.670108221591164
      ],
      [
        "T_mA",
        -13.670174387970032
      ],
      [
        "Ο_cT",
        -13.670275567505032
      ],
      [
        "Ρ_Jο",
        -13.670454460511868
      ],
      [
        "u_ρ",
        -13.670515514337518
      ],
      [
        "K_tV",
        -13.670555248385902
      ],
      [
        "x_oψ",
        -13.670562437304351
      ],
      [
        "y_pζ",
        -13.670616323850597
      ],
      [
        ")/(8*",
        -13.670638438694109
      ],
      [
        "δ_bΛ",
        -13.670643365654913
      ],
      [
        "Φ_ΧQ",
        -13.670758779514413
      ],
      [
        "ζ_gJ",
        -13.670763095121709
      ],
      [
        "l_ΥΥ",
        -13.670763565532045
      ],
      [
        "M_mM",
        -13.670954528159092
      ],
      [
        "ω_r1",
        -13.671041245338445
      ],
      [
        "U_sζ",
        -13.671056056742826
      ],
      [
        "Ε_υΜ",
        -13.671117397651873
      ],
      [
        "T_JY",
        -13.67111886645073
      ],
      [
        "Τ_ηp",
        -13.671144798183228
      ],
      [
        "(K)**",
        -13.671158290962357
      ],
      [
        "n_ΝY",
        -13.671266152505787
      ],
      [
        "(Β)**(sqrt(",
        -13.671463865945615
      ],
      [
        "β_c4",
        -13.671464995094668
      ],
      [
        "l_Γ1",
        -13.671522228188529
      ],
      [
        "Α_ΩΞ",
        -13.671623219503102
      ],
      [
        "ψ_νg",
        -13.671680444568116
      ],
      [
        "δ_YΜ",
        -13.671695068406747
      ],
      [
        "o_sγ",
        -13.6717413400783
      ],
      [
        "(l)**",
        -13.671802668777605
      ],
      [
        "υ_γΟ",
        -13.671914382380638
      ],
      [
        "Sum(sqrt(V)/",
        -13.671964076042471
      ],
      [
        "M_ΔΦ",
        -13.672052836388232
      ],
      [
        "α_gΧ",
        -13.672130111329448
      ],
      [
        "X_Χη",
        -13.67231694996167
      ],
      [
        "Α_ΩΛ",
        -13.672412537350603
      ],
      [
        "ω_Τo",
        -13.672422542369961
      ],
      [
        "Sum(log(Σ)",
        -13.672508934162057
      ],
      [
        "Ξ_pλ",
        -13.67254312230064
      ],
      [
        "A_ΤΟ",
        -13.672554152677106
      ],
      [
        "Κ_ΩΑ",
        -13.672615128521036
      ],
      [
        "δ_ρyz",
        -13.67297605303971
      ],
      [
        "θ_iΣ",
        -13.673014282658558
      ],
      [
        "ι_B8",
        -13.673306939658211
      ],
      [
        "G_βt",
        -13.673387189699847
      ],
      [
        "(X)**",
        -13.673435101547819
      ],
      [
        "256",
        -13.67347603899611
      ],
      [
        "L_ΜUv",
        -13.673694125099383
      ],
      [
        "ω_αΕ",
        -13.673837760209771
      ],
      [
        "j_AΧ",
        -13.673859245143884
      ],
      [
        "C_U3",
        -13.673981595007326
      ],
      [
        "(f)*",
        -13.674450075650576
      ],
      [
        "Π_h4",
        -13.675004219998375
      ],
      [
        "V_τ",
        -13.675451276581502
      ],
      [
        "4*sqrt(",
        -13.675650838134546
      ],
      [
        "φ_7r",
        -13.675733667700314
      ],
      [
        "/9)/2)",
        -13.676341985965962
      ],
      [
        "**6)/",
        -13.676761885831338
      ],
      [
        "g_ΜΔ",
        -13.676785309583096
      ],
      [
        "O_γΔ",
        -13.67700318628773
      ],
      [
        "U_i4",
        -13.677487411843002
      ],
      [
        "u_Ψ",
        -13.67752914750313
      ],
      [
        "Z_K9",
        -13.67776094880725
      ],
      [
        "**Ζ)",
        -13.678506712925058
      ],
      [
        "sqrt(M)",
        -13.679208889301231
      ],
      [
        "9)/2)",
        -13.67932885544219
      ],
      [
        "Γ_ο",
        -13.679605253520883
      ],
      [
        "(U)**log(",
        -13.681143175436326
      ],
      [
        "ι_Η",
        -13.681680599182096
      ],
      [
        "sqrt(Κ)*",
        -13.681710722284983
      ],
      [
        "(-Σ",
        -13.682920037704147
      ],
      [
        "**(sqrt(6)*sqrt(",
        -13.683006850008562
      ],
      [
        "'o_v",
        -13.685035322987865
      ],
      [
        "(Λ)/",
        -13.685111774673757
      ],
      [
        "H_ρ",
        -13.685194552210898
      ],
      [
        "**α)",
        -13.685850010947107
      ],
      [
        "/v)",
        -13.68669571502586
      ],
      [
        "N_τ",
        -13.687363655202873
      ],
      [
        "(c_",
        -13.6875126302746
      ],
      [
        "(h)*",
        -13.687569244121768
      ],
      [
        "(F)*",
        -13.687643895937542
      ],
      [
        "log(h)",
        -13.687819295147525
      ],
      [
        "Ξ_Τ",
        -13.68808927760405
      ],
      [
        "(ε)*",
        -13.688487899864594
      ],
      [
        "(E)*",
        -13.688674165085224
      ],
      [
        "_Α",
        -13.688917284652563
      ],
      [
        "(u)**log(",
        -13.689013241745915
      ],
      [
        "Derivative(log(γ",
        -13.689422018040986
      ],
      [
        "x_Ε",
        -13.690077051734137
      ],
      [
        "λ_Β",
        -13.690588989364318
      ],
      [
        "Sum(C",
        -13.69087791366906
      ],
      [
        "σ_Ν",
        -13.691776747345338
      ],
      [
        "/8)*",
        -13.692130875731703
      ],
      [
        "κ_J",
        -13.69233272539407
      ],
      [
        ")/(7*log(",
        -13.69255203457284
      ],
      [
        "729",
        -13.693083843245617
      ],
      [
        "(Μ)*",
        -13.693109676070607
      ],
      [
        "z_1",
        -13.693633357086886
      ],
      [
        "ω_gp",
        -13.693885497034644
      ],
      [
        "σ_γ",
        -13.69414059550908
      ],
      [
        "E_θ",
        -13.694287899055896
      ],
      [
        "Μ_b",
        -13.69467405647509
      ],
      [
        "Ι_O",
        -13.69478459689681
      ],
      [
        "Q_Jε",
        -13.695967588481228
      ],
      [
        "Π_Γ",
        -13.696682385516526
      ],
      [
        "ξ)*",
        -13.696895603530097
      ],
      [
        "R)",
        -13.6970384454988
      ],
      [
        "Π_σ",
        -13.697124367068088
      ],
      [
        "sqrt(Υ)",
        -13.697995253414174
      ],
      [
        "ν_X",
        -13.698340949882098
      ],
      [
        "Ζ*",
        -13.698653160800367
      ],
      [
        "*sqrt(W",
        -13.698924993292579
      ],
      [
        "(Α**",
        -13.699029539671395
      ],
      [
        "(l)/",
        -13.699051325840253
      ],
      [
        "(α)/sqrt(",
        -13.69918418232502
      ],
      [
        "Β_d",
        -13.70080449851972
      ],
      [
        "β_Ξ",
        -13.701262750093722
      ],
      [
        "N_ο",
        -13.701266113505477
      ],
      [
        "(W)**",
        -13.701957545376333
      ],
      [
        "_δ))",
        -13.703033607582299
      ],
      [
        "Derivative(D**",
        -13.704087723014903
      ],
      [
        "f_Q",
        -13.704090185066063
      ],
      [
        "F_ι",
        -13.70424057741716
      ],
      [
        "(Z)*",
        -13.704635809390131
      ],
      [
        "log(λ)**",
        -13.705305205520979
      ],
      [
        "G_σ",
        -13.706554728079254
      ],
      [
        "Χ_Ξ",
        -13.70662792068444
      ],
      [
        "ι_δ",
        -13.70701183703207
      ],
      [
        "**ρ)",
        -13.707413618060283
      ],
      [
        "/Z)",
        -13.707637047416275
      ],
      [
        "G_ρ",
        -13.707675229888272
      ],
      [
        "Z_F",
        -13.707987928213948
      ],
      [
        "_Υ",
        -13.708022886102063
      ],
      [
        "σ_H",
        -13.708067694080505
      ],
      [
        "A_σ",
        -13.708274120464267
      ],
      [
        "h_5",
        -13.709188713374616
      ],
      [
        "M_ξ",
        -13.709535696909557
      ],
      [
        "/w)",
        -13.709871777925477
      ],
      [
        "T_U",
        -13.710251541303814
      ],
      [
        "Integral(sqrt(T)",
        -13.710315927213863
      ],
      [
        "φ*",
        -13.710464917446009
      ],
      [
        ")/(6*sqrt(",
        -13.710503980634114
      ],
      [
        "Ι_δ",
        -13.71087759595508
      ],
      [
        "(U*",
        -13.711606469137315
      ],
      [
        "(y)*",
        -13.711636524575583
      ],
      [
        "log(γ)**",
        -13.71165182529234
      ],
      [
        "E_H",
        -13.71176926731008
      ],
      [
        "(-Χ)*",
        -13.712004753420029
      ],
      [
        ")/Ξ",
        -13.712107486902536
      ],
      [
        "log(σ)",
        -13.712139457331414
      ],
      [
        "ζ)*",
        -13.712470144984454
      ],
      [
        "sqrt(A)",
        -13.71259318571376
      ],
      [
        "(F*",
        -13.712837983858307
      ],
      [
        "β_X",
        -13.712898852006736
      ],
      [
        "Ω_θ",
        -13.71382798187212
      ],
      [
        "(t)*",
        -13.714114890338376
      ],
      [
        "G_Xl",
        -13.714872150297522
      ],
      [
        "Y_T",
        -13.714983943541556
      ],
      [
        "Ε_Α",
        -13.715135226931421
      ],
      [
        "ζ_Ε",
        -13.716038325005869
      ],
      [
        "θ_Γ",
        -13.716107577099148
      ],
      [
        "P_Ε",
        -13.716182013981165
      ],
      [
        "N_B",
        -13.717571066734976
      ],
      [
        "v_9r",
        -13.71791012747921
      ],
      [
        "_ω",
        -13.717994748680814
      ],
      [
        ")**(7**",
        -13.718099465190456
      ],
      [
        "(X)*",
        -13.719051987831685
      ],
      [
        "Derivative(log(ο",
        -13.719299906857268
      ],
      [
        "Π_ν",
        -13.719399067527778
      ],
      [
        "*η)",
        -13.720541525077895
      ],
      [
        "Ψ)*",
        -13.720824798675771
      ],
      [
        "φ_j",
        -13.720919723684181
      ],
      [
        "log(q)",
        -13.721016128484527
      ],
      [
        "log(c)*",
        -13.72132067735566
      ],
      [
        "(Σ)/log(",
        -13.721680644763303
      ],
      [
        "δ_Yd",
        -13.72236113851947
      ],
      [
        "J_Ρ",
        -13.722709240697691
      ],
      [
        "log(w)",
        -13.723242932968272
      ],
      [
        "E*",
        -13.72400145456986
      ],
      [
        "(Z*",
        -13.72411678630882
      ],
      [
        "J_h",
        -13.72468584642402
      ],
      [
        "-2*sqrt(2)*sqrt(",
        -13.7250897505888
      ],
      [
        "(I_",
        -13.725385005872926
      ],
      [
        "Β_M",
        -13.726064807967395
      ],
      [
        "k_γ",
        -13.726462271980017
      ],
      [
        "log(B)",
        -13.726615070450269
      ],
      [
        "Ψ_Y",
        -13.72734983940988
      ],
      [
        "N_ζ",
        -13.727734043185349
      ],
      [
        "χ_C",
        -13.729162487484341
      ],
      [
        "Φ)*log(",
        -13.729366291338827
      ],
      [
        "Δ_u",
        -13.73015753669064
      ],
      [
        "7*log(",
        -13.730383414959116
      ],
      [
        "_Τ",
        -13.73110068417599
      ],
      [
        "(i_",
        -13.731258557673318
      ],
      [
        "C_τ",
        -13.731486016499852
      ],
      [
        "η_Φ",
        -13.731715401898704
      ],
      [
        "_X)",
        -13.73216563916724
      ],
      [
        "sqrt(Λ)*",
        -13.732188708973748
      ],
      [
        "ρ_M",
        -13.733236521325598
      ],
      [
        "*ο)",
        -13.733327157367377
      ],
      [
        "C_κ",
        -13.733362985308137
      ],
      [
        "δ_Ζ",
        -13.733427697445153
      ],
      [
        "Υ*",
        -13.733685215590842
      ],
      [
        "log(χ)**",
        -13.734897001720338
      ],
      [
        "/8",
        -13.735359208020599
      ],
      [
        "Integral(sqrt(Σ)",
        -13.735763789094804
      ],
      [
        "λ_v",
        -13.736649206047435
      ],
      [
        "sqrt(Ξ)",
        -13.736999124683674
      ],
      [
        "τ_h",
        -13.737605081001576
      ],
      [
        "Ε_Φ",
        -13.738698564944857
      ],
      [
        "(X_P",
        -13.73926705424988
      ],
      [
        "Φ_q",
        -13.741103180095653
      ],
      [
        "γ_Τ",
        -13.741569115456675
      ],
      [
        "κ_G",
        -13.742143920083358
      ],
      [
        "j_Ω",
        -13.74232594048768
      ],
      [
        "κ_W",
        -13.742869967910668
      ],
      [
        "(μ_",
        -13.742876024683492
      ],
      [
        "-4**",
        -13.743014889710977
      ],
      [
        "Ρ_ρ",
        -13.743280363017497
      ],
      [
        "(C*",
        -13.743790607252109
      ],
      [
        "θ_Y",
        -13.744006303607282
      ],
      [
        "(2*sqrt(2)*sqrt(",
        -13.74403847713483
      ],
      [
        "(L)/",
        -13.74419087900577
      ],
      [
        "sqrt(k)",
        -13.744802500576137
      ],
      [
        ")*cosh(1)",
        -13.745113514484293
      ],
      [
        "λ_Ο",
        -13.74549860472995
      ],
      [
        "Ι_τ",
        -13.746217074233845
      ],
      [
        "U_SW",
        -13.746500607333457
      ],
      [
        "'z_",
        -13.746614206368102
      ],
      [
        "u_Ω",
        -13.746647632558288
      ],
      [
        "Κ_G",
        -13.746801358570453
      ],
      [
        "(z)/",
        -13.746850955937376
      ],
      [
        "Δ_Ψ",
        -13.746933591871754
      ],
      [
        "g_ο",
        -13.747301543479672
      ],
      [
        "_ρ",
        -13.747610293388028
      ],
      [
        "ψ)**",
        -13.749619157152733
      ],
      [
        "γ_λ",
        -13.750042161035477
      ],
      [
        "sqrt(y)/",
        -13.750347653294511
      ],
      [
        "/B)",
        -13.750640100337923
      ],
      [
        "'λ_8",
        -13.751524447786116
      ],
      [
        "/M)",
        -13.751694337810575
      ],
      [
        "U)",
        -13.752029742729349
      ],
      [
        "a_K",
        -13.75244090910499
      ],
      [
        "'K_",
        -13.752487553560155
      ],
      [
        "(r))",
        -13.75251105535482
      ],
      [
        "(H)**",
        -13.752757005905199
      ],
      [
        "U_B",
        -13.753683293714499
      ],
      [
        "(Ρ/",
        -13.7537184859032
      ],
      [
        "'Θ_M",
        -13.754053710888137
      ],
      [
        "(t)*log(",
        -13.754638333035771
      ],
      [
        "Ο_7",
        -13.754894651224593
      ],
      [
        "log(ψ)",
        -13.756798398644115
      ],
      [
        "Sum(sqrt(U)",
        -13.757584477216453
      ],
      [
        "W_v",
        -13.757644680184665
      ],
      [
        "(l_",
        -13.757920808749668
      ],
      [
        "log(E_",
        -13.75840573524432
      ],
      [
        "λ_2",
        -13.7587855949778
      ],
      [
        "sqrt(6)*",
        -13.759761194559312
      ],
      [
        "Α)*",
        -13.76030169586894
      ],
      [
        "Κ_P",
        -13.760759420916562
      ],
      [
        "(ρ)*",
        -13.761729126442273
      ],
      [
        "(o*",
        -13.762380757805087
      ],
      [
        "(J_Υ",
        -13.762817055093713
      ],
      [
        "(Η_",
        -13.764741937601864
      ],
      [
        "Ε_1",
        -13.765320049111804
      ],
      [
        "sqrt(κ)",
        -13.765558586579044
      ],
      [
        "Integral(log(τ)",
        -13.766107009777418
      ],
      [
        "θ_D",
        -13.766395711835878
      ],
      [
        "Δ)",
        -13.766764334555615
      ],
      [
        "_s",
        -13.767058183484814
      ],
      [
        "M_6",
        -13.767567516310956
      ],
      [
        "ω_3",
        -13.768201430292219
      ],
      [
        "_Κ))",
        -13.769653743641165
      ],
      [
        "log(k)",
        -13.769845193462558
      ],
      [
        "(h)**",
        -13.771195037454795
      ],
      [
        "s_λ",
        -13.77329269727327
      ],
      [
        "**Θ)",
        -13.773659353745145
      ],
      [
        "*Τ)",
        -13.773747664300826
      ],
      [
        "χ_q",
        -13.77423235226786
      ],
      [
        "(v_",
        -13.774473731523267
      ],
      [
        "x)*",
        -13.774860808284329
      ],
      [
        "log(f",
        -13.775306461889802
      ],
      [
        "_μ",
        -13.775518398077361
      ],
      [
        "Sum(G",
        -13.776647857683008
      ],
      [
        "Α_8",
        -13.776695508523726
      ],
      [
        "(λ_",
        -13.777583466722412
      ],
      [
        "E_",
        -13.778377044157505
      ],
      [
        "Α_4",
        -13.778426496767185
      ],
      [
        "sqrt(C_",
        -13.778705977591759
      ],
      [
        "(Υ**",
        -13.779011094787304
      ],
      [
        "Β_7",
        -13.779666066619153
      ],
      [
        "j_G",
        -13.780091853741867
      ],
      [
        "θ_Ζ",
        -13.78025119183777
      ],
      [
        "(t**",
        -13.782649024151283
      ],
      [
        "S_Τ",
        -13.782837327403469
      ],
      [
        "C_",
        -13.782985126371353
      ],
      [
        "j**",
        -13.783601271691435
      ],
      [
        "o_υ",
        -13.784872437107497
      ],
      [
        "(ρ_σ",
        -13.785876902206976
      ],
      [
        "_B))",
        -13.785971294227803
      ],
      [
        "β)*",
        -13.786399916707463
      ],
      [
        "Α_7",
        -13.786899660840305
      ],
      [
        "Τ_oH",
        -13.787687920178627
      ],
      [
        "ρ_Λw",
        -13.787786168253826
      ],
      [
        "Ω_",
        -13.789125691930302
      ],
      [
        "**4)/",
        -13.789624674126815
      ],
      [
        "-sqrt(-",
        -13.789842557703336
      ],
      [
        "z_k",
        -13.789997145314326
      ],
      [
        "log(ω",
        -13.790671011819121
      ],
      [
        "(D)/2)",
        -13.791193522529138
      ],
      [
        ")/2)/",
        -13.791715927275128
      ],
      [
        "(F_",
        -13.792028672711867
      ],
      [
        "**Μ)",
        -13.792361095504475
      ],
      [
        "_B",
        -13.793986515880697
      ],
      [
        ")**λ",
        -13.79408093189662
      ],
      [
        "8)**(",
        -13.794170261861828
      ],
      [
        "b_μ",
        -13.794433883599858
      ],
      [
        "(q/",
        -13.796496757970566
      ],
      [
        "(Υ_",
        -13.79774285569794
      ],
      [
        "'l_O",
        -13.798721064684791
      ],
      [
        "(q)/",
        -13.7994021576643
      ],
      [
        "(β_",
        -13.800049496124258
      ],
      [
        "(γ/",
        -13.801233058236969
      ],
      [
        ")**4)",
        -13.80135788309366
      ],
      [
        "6)/",
        -13.801966545995775
      ],
      [
        "sqrt(ρ)",
        -13.803249263852257
      ],
      [
        "sqrt(θ)",
        -13.803862546116349
      ],
      [
        "sqrt(V",
        -13.804517991192359
      ],
      [
        "(ε**",
        -13.805000357850714
      ],
      [
        "K_Sb",
        -13.806804521168683
      ],
      [
        "Ζ)",
        -13.808137731516146
      ],
      [
        "sqrt(Ν)*",
        -13.80877638296172
      ],
      [
        "g_2",
        -13.808861198610224
      ],
      [
        "**7)/",
        -13.808909048039661
      ],
      [
        "_f",
        -13.809527944180083
      ],
      [
        "log(k)**",
        -13.809667435088175
      ],
      [
        "y_V",
        -13.810328416957157
      ],
      [
        "Ρ)",
        -13.810395112146798
      ],
      [
        "s_Νd",
        -13.811360617170923
      ],
      [
        "_u))",
        -13.811897584458077
      ],
      [
        ")/(3*sqrt(",
        -13.811940685715456
      ],
      [
        "log(L)",
        -13.812689106102916
      ],
      [
        "b_B",
        -13.812698468044578
      ],
      [
        "U_",
        -13.812734824058445
      ],
      [
        "(λ/",
        -13.81378141273902
      ],
      [
        "g_Γ",
        -13.813879655947265
      ],
      [
        "_k))",
        -13.814026638174788
      ],
      [
        "c_θ",
        -13.81500202620126
      ],
      [
        "K_kΟ",
        -13.818701372106919
      ],
      [
        "P_H",
        -13.819422079002685
      ],
      [
        "sqrt(l)/",
        -13.819585023866736
      ],
      [
        "τ_Ζ",
        -13.819774241793557
      ],
      [
        "θ_W",
        -13.819816349742396
      ],
      [
        ")/log(8*",
        -13.820022903319007
      ],
      [
        "log(h)**",
        -13.820250633769474
      ],
      [
        "Integral(log(κ)",
        -13.820795878716265
      ],
      [
        "sqrt(G",
        -13.821094164655925
      ],
      [
        "_p",
        -13.822602668877868
      ],
      [
        "log(M)",
        -13.823705505348528
      ],
      [
        "α_O",
        -13.825037583965749
      ],
      [
        "(-υ",
        -13.827800020146338
      ],
      [
        "Χ)",
        -13.830751325749823
      ],
      [
        "λ)**",
        -13.832920649922475
      ],
      [
        "sqrt(v)",
        -13.833151619649492
      ],
      [
        "Λ_k",
        -13.834245570547942
      ],
      [
        "S_",
        -13.836122443145376
      ],
      [
        "**5)/",
        -13.836554116868577
      ],
      [
        "sqrt(ζ)",
        -13.837455220246571
      ],
      [
        "E)*",
        -13.837700667883357
      ],
      [
        "/Ψ)",
        -13.840465309651924
      ],
      [
        "_Χ",
        -13.841652420746055
      ],
      [
        "E_E",
        -13.843196200902028
      ],
      [
        "Δ_ξ",
        -13.844253441943792
      ],
      [
        "Integral(log(L",
        -13.845333511936747
      ],
      [
        "Ο)*",
        -13.845475389614302
      ],
      [
        "(q*",
        -13.845523506490304
      ],
      [
        "(j*",
        -13.84556477886435
      ],
      [
        ")**6)",
        -13.846401623236227
      ],
      [
        "(Δ**",
        -13.846982322506665
      ],
      [
        "z**(",
        -13.847467591703424
      ],
      [
        ")**(sqrt(η",
        -13.847776420073844
      ],
      [
        "ν_Z",
        -13.848372469090773
      ],
      [
        "(s**",
        -13.84880512497513
      ],
      [
        "(B*",
        -13.849634728408057
      ],
      [
        "h_a",
        -13.849859943306056
      ],
      [
        "'H_z",
        -13.854655887790843
      ],
      [
        "(t/",
        -13.854990051926164
      ],
      [
        "β_τ",
        -13.855288051892153
      ],
      [
        "_u)/",
        -13.855762366516917
      ],
      [
        "'F_",
        -13.855984352909587
      ],
      [
        "6*log(",
        -13.856926738233957
      ],
      [
        "log(K_",
        -13.856962599343655
      ],
      [
        "*log(Δ))",
        -13.856998054370832
      ],
      [
        "(ι)/",
        -13.858345166805547
      ],
      [
        "F)",
        -13.859594340352174
      ],
      [
        "sqrt(φ)",
        -13.8618002783071
      ],
      [
        "Sum(Α",
        -13.862433345778621
      ],
      [
        "ρ_",
        -13.864396777890795
      ],
      [
        "'ψ_",
        -13.865384880965653
      ],
      [
        "Sum(log(j)",
        -13.865848017858614
      ],
      [
        "sqrt(Χ)",
        -13.867216429304355
      ],
      [
        "_d",
        -13.868611645817522
      ],
      [
        "θ_ψ",
        -13.869338771577567
      ],
      [
        "Κ_Δ",
        -13.870429070413978
      ],
      [
        "χ_r",
        -13.87062883760565
      ],
      [
        "Ω_υ",
        -13.871975342844024
      ],
      [
        "(β*",
        -13.87225665872984
      ],
      [
        "L_v",
        -13.872494572208563
      ],
      [
        "P)*",
        -13.873481446772153
      ],
      [
        "(Η/",
        -13.873852366051068
      ],
      [
        "h_ρ",
        -13.874200428338284
      ],
      [
        "o_v",
        -13.877065764871256
      ],
      [
        "Sum(log(C)",
        -13.877424401075169
      ],
      [
        "*Ω)",
        -13.878678858196404
      ],
      [
        "(Ο**",
        -13.879295224764
      ],
      [
        "_h))",
        -13.879841235167296
      ],
      [
        "Z_",
        -13.8801738680502
      ],
      [
        "Derivative(5*",
        -13.880830862434834
      ],
      [
        "α_K",
        -13.882125509421115
      ],
      [
        "**(sqrt(2)*sqrt(",
        -13.882973477511365
      ],
      [
        "**λ)",
        -13.883748710349504
      ],
      [
        "(o_",
        -13.885330496783759
      ],
      [
        "log(Α)",
        -13.885603111996511
      ],
      [
        "8)**",
        -13.886183365005337
      ],
      [
        "_2",
        -13.887079150148626
      ],
      [
        "W_βνd",
        -13.887715578755081
      ],
      [
        "(d*",
        -13.887768491290256
      ],
      [
        "Sum(sqrt(φ)",
        -13.887849003476639
      ],
      [
        "P_ρ",
        -13.888607447533648
      ],
      [
        "*υ)",
        -13.88906301918819
      ],
      [
        "(Η_q",
        -13.890029990767603
      ],
      [
        "7)/2)",
        -13.891972612064935
      ],
      [
        "ω_ε",
        -13.892627740779982
      ],
      [
        "Β**(",
        -13.892868044233474
      ],
      [
        "Sum(log(Ω)",
        -13.894350432586343
      ],
      [
        "I_R",
        -13.89817858220075
      ],
      [
        "'h_3",
        -13.898204119229455
      ],
      [
        "sqrt(f)",
        -13.898223475512905
      ],
      [
        "/Ξ))",
        -13.89848203337814
      ],
      [
        ")/log(H",
        -13.899055878918675
      ],
      [
        "R_Y",
        -13.899192314756888
      ],
      [
        "Η_A",
        -13.899479733829425
      ],
      [
        "Derivative(log(H",
        -13.90247602388304
      ],
      [
        "Y_ω",
        -13.902762168187166
      ],
      [
        "'ω_ε",
        -13.90318736933317
      ],
      [
        "g_qr",
        -13.90540825251715
      ],
      [
        "j)",
        -13.905715903351016
      ],
      [
        "Υ_Ξ",
        -13.907797309396424
      ],
      [
        "/6",
        -13.908210599462674
      ],
      [
        "ψ_B",
        -13.90894358296762
      ],
      [
        "'h_ρ",
        -13.910841295030258
      ],
      [
        "_Η)",
        -13.912446621286898
      ],
      [
        "_Ι",
        -13.913521802527182
      ],
      [
        "log(T)",
        -13.914015973154521
      ],
      [
        "Γ_H",
        -13.914382767909096
      ],
      [
        "(Ο/",
        -13.91523974337575
      ],
      [
        "Ο*",
        -13.915439815493151
      ],
      [
        "Ω*",
        -13.915674470242738
      ],
      [
        "log(ε)/",
        -13.915999624689738
      ],
      [
        "(f_",
        -13.916533917422989
      ],
      [
        "ο)*",
        -13.917092443259175
      ],
      [
        "V_f",
        -13.918641731188105
      ],
      [
        "(I_μ",
        -13.919600026773331
      ],
      [
        "Λ_",
        -13.919645220881943
      ],
      [
        "sqrt(t)",
        -13.919663416132822
      ],
      [
        "_P",
        -13.923466093473039
      ],
      [
        "11",
        -13.923946521796909
      ],
      [
        "Δ_h",
        -13.924138544755541
      ],
      [
        "*δ)",
        -13.92468608089341
      ],
      [
        "N_IiΚ",
        -13.927617926403583
      ],
      [
        "C_Z",
        -13.928815264159343
      ],
      [
        "z_q",
        -13.92947465947989
      ],
      [
        ")/cosh(1)",
        -13.930929415323769
      ],
      [
        "φ)*",
        -13.932290540176815
      ],
      [
        "δ_β",
        -13.9352619231236
      ],
      [
        "S_D",
        -13.935843236487962
      ],
      [
        "u_",
        -13.936049609629638
      ],
      [
        "M_G",
        -13.936075767436177
      ],
      [
        "(η)*",
        -13.936466813381351
      ],
      [
        "d_l",
        -13.937634103333808
      ],
      [
        "(X_",
        -13.938393951436684
      ],
      [
        "_f))",
        -13.939279888036241
      ],
      [
        "X_ρ",
        -13.939968261454474
      ],
      [
        "η_K",
        -13.940273413820968
      ],
      [
        "(Ι**",
        -13.940347647691018
      ],
      [
        "log(Δ)**",
        -13.942207998050218
      ],
      [
        "Α_αυR",
        -13.94376590451942
      ],
      [
        "Y_Λhχ",
        -13.944214352453276
      ],
      [
        "s_JφF",
        -13.945870896351721
      ],
      [
        ")/2)*log(",
        -13.945887405697569
      ],
      [
        "ι_Oι",
        -13.94619234096159
      ],
      [
        "t_oAm",
        -13.946782317300627
      ],
      [
        "Ο_p",
        -13.946849907344165
      ],
      [
        "Ξ_ω",
        -13.947118427710887
      ],
      [
        "Ω_Y",
        -13.94755134760717
      ],
      [
        "(Σ*",
        -13.94916010445685
      ],
      [
        "Κ_uΞV",
        -13.95000065796399
      ],
      [
        "sqrt(Η)",
        -13.951714765847791
      ],
      [
        "13",
        -13.951781639108171
      ],
      [
        "Q_Β",
        -13.953234118475246
      ],
      [
        "sqrt(q)",
        -13.95353499406072
      ],
      [
        "Ψ_Ω",
        -13.953936849622746
      ],
      [
        "(X*",
        -13.954004276405117
      ],
      [
        "Π)/",
        -13.954352756432332
      ],
      [
        "b_Κ",
        -13.954967602239146
      ],
      [
        "ξ_Z",
        -13.955478040837997
      ],
      [
        "-k",
        -13.95615426622856
      ],
      [
        "Κ_z",
        -13.95640033465743
      ],
      [
        "Π_ζ",
        -13.957705810595531
      ],
      [
        "G_Ζ",
        -13.958194249502174
      ],
      [
        "Φ_εh",
        -13.95827168928728
      ],
      [
        "Θ_Η",
        -13.958466121488865
      ],
      [
        "Μ_η",
        -13.958571435797815
      ],
      [
        "k_tυ",
        -13.959002961919913
      ],
      [
        "Ο_J",
        -13.959339153458027
      ],
      [
        "σ_F",
        -13.959473409686725
      ],
      [
        "γ_Π",
        -13.95990490567424
      ],
      [
        "H_z",
        -13.960563927045834
      ],
      [
        "Ψ_Ε",
        -13.96085615900212
      ],
      [
        "F_h",
        -13.960977654429685
      ],
      [
        "O_Ψ",
        -13.961009069074095
      ],
      [
        "G_j",
        -13.961406446076499
      ],
      [
        "ε_Ι",
        -13.961694351207683
      ],
      [
        "(α/",
        -13.961829081163819
      ],
      [
        "T_mwΨ",
        -13.961899167596904
      ],
      [
        "C_Γ",
        -13.961926457736249
      ],
      [
        "v_K",
        -13.962266141775409
      ],
      [
        "S_AΥV",
        -13.962475249616537
      ],
      [
        "j_D",
        -13.96247735544577
      ],
      [
        "λ_ΡJΑ",
        -13.96262732992958
      ],
      [
        "Γ_h",
        -13.962962672124469
      ],
      [
        "Ν_υ",
        -13.963043785379401
      ],
      [
        "*log(d)",
        -13.963662587364276
      ],
      [
        "8**",
        -13.964156776757834
      ],
      [
        "(σ)/",
        -13.964391514719262
      ],
      [
        "sqrt(ψ)*",
        -13.964577211223556
      ],
      [
        "Ψ_Γ",
        -13.964653924827454
      ],
      [
        "A)*",
        -13.964882949543943
      ],
      [
        "Ε_ΤiΓ",
        -13.965125848183407
      ],
      [
        "C_W",
        -13.965621813698807
      ],
      [
        "γ_U",
        -13.965794609454445
      ],
      [
        "X_Ε",
        -13.965801618343749
      ],
      [
        "Ρ_Ν",
        -13.96582206906144
      ],
      [
        "h_F",
        -13.965992430338819
      ],
      [
        "δ_ρ",
        -13.966318181244404
      ],
      [
        "Ξ_2",
        -13.966339597143126
      ],
      [
        "g_Μ",
        -13.966462211299078
      ],
      [
        "(χ/",
        -13.966485720818236
      ],
      [
        "Γ_Uw",
        -13.96656240107768
      ],
      [
        "W_T",
        -13.966885381422056
      ],
      [
        "sqrt(i)",
        -13.967330053765126
      ],
      [
        "Λ_E",
        -13.9673313763758
      ],
      [
        "/α)",
        -13.967383777553707
      ],
      [
        "C_υ",
        -13.967840945881594
      ],
      [
        "ρ_σ",
        -13.967845218903424
      ],
      [
        "Μ_ξ",
        -13.969547071906513
      ],
      [
        "U_φ",
        -13.970346675793499
      ],
      [
        "κ*",
        -13.970522589725078
      ],
      [
        "ι_",
        -13.970714458008507
      ],
      [
        "K_q",
        -13.970830439812461
      ],
      [
        "m_ΙT",
        -13.970876819578859
      ],
      [
        "υ_P",
        -13.97127229340518
      ],
      [
        "Σ_E",
        -13.971461087444139
      ],
      [
        "(Θ/",
        -13.971568831545596
      ],
      [
        "b_",
        -13.971818695328867
      ],
      [
        "χ_FΜ",
        -13.97307742413448
      ],
      [
        "Ξ_k",
        -13.973121875249548
      ],
      [
        "**ι)",
        -13.97325403497995
      ],
      [
        "Integral(Ι",
        -13.973961972408377
      ],
      [
        "'Q_",
        -13.974058347623107
      ],
      [
        "b_ρΒ",
        -13.97484059859677
      ],
      [
        "F_g",
        -13.975170274407063
      ],
      [
        "c_VC",
        -13.975182976383376
      ],
      [
        "Α_6",
        -13.976662672359517
      ],
      [
        "ρ_ζ",
        -13.977241041742047
      ],
      [
        "sqrt(F)*",
        -13.978103110671112
      ],
      [
        "_Ω)",
        -13.978140624663595
      ],
      [
        "Δ_ψ",
        -13.978370597556797
      ],
      [
        "U_R",
        -13.978437320230107
      ],
      [
        "v_τ",
        -13.978507747682686
      ],
      [
        "L)*",
        -13.978563977717387
      ],
      [
        "ω_ιΞφ",
        -13.978634982898809
      ],
      [
        "χ_μOJ",
        -13.978693934939232
      ],
      [
        "T_2αΔ",
        -13.978723751060237
      ],
      [
        "Ψ_Χαν",
        -13.978723978047054
      ],
      [
        "J_Λ7G",
        -13.978725292095408
      ],
      [
        "Χ_ρZΕ",
        -13.97872541811953
      ],
      [
        "Ρ_1",
        -13.978817207918398
      ],
      [
        "c_ΘrΒ",
        -13.97884554152215
      ],
      [
        "X_φE",
        -13.979142644997559
      ],
      [
        "(Y)**(sqrt(",
        -13.97918676320378
      ],
      [
        "Ο_pλκ",
        -13.979396811661347
      ],
      [
        "Ε_MD",
        -13.979408882370333
      ],
      [
        "ρ_Yhv",
        -13.979451468361304
      ],
      [
        "ζ_uP",
        -13.979499573940862
      ],
      [
        "v_9υ",
        -13.97964210516438
      ],
      [
        "F_ΒυN",
        -13.979728243869996
      ],
      [
        "r_χΗU",
        -13.979733970775534
      ],
      [
        "Η_9Μο",
        -13.979781764895353
      ],
      [
        "g_YΤT",
        -13.979803054291695
      ],
      [
        "z_Τs9",
        -13.97980635906677
      ],
      [
        "β_ZkW",
        -13.97985010661025
      ],
      [
        "J_txk",
        -13.979854137452662
      ],
      [
        "Y_ZΕ",
        -13.979925373875925
      ],
      [
        "χ_jSΣ",
        -13.979935396492436
      ],
      [
        "Z_ΛJr",
        -13.979944057723056
      ],
      [
        "B_Ο6E",
        -13.97996142622318
      ],
      [
        "Α_RDF",
        -13.979973470165648
      ],
      [
        "δ_dχA",
        -13.980005678966585
      ],
      [
        "Ε_ΩSσ",
        -13.980017826183392
      ],
      [
        "t_θυc",
        -13.980026348908988
      ],
      [
        "d_l4Z",
        -13.980108005430562
      ],
      [
        "L_Αυλ",
        -13.98019718967749
      ],
      [
        "T_z4",
        -13.980222829259109
      ],
      [
        "p_ΧN6",
        -13.980245324289742
      ],
      [
        "Μ_4Φ",
        -13.980248078453517
      ],
      [
        "ι_gG",
        -13.980271267123381
      ],
      [
        "d_4φM",
        -13.980275773671632
      ],
      [
        "Ξ_X",
        -13.980299438150311
      ],
      [
        "Υ_Ω",
        -13.98060065999417
      ],
      [
        "ο_Γv",
        -13.980666356664972
      ],
      [
        "B_Nu",
        -13.980690278389048
      ],
      [
        "Υ_gΠ",
        -13.980767873265009
      ],
      [
        "q_σW",
        -13.98082254376064
      ],
      [
        "(-U",
        -13.981152417090692
      ],
      [
        "a_σp",
        -13.98115628476027
      ],
      [
        "l_ΛC",
        -13.981330961134914
      ],
      [
        "s_x",
        -13.981609202401247
      ],
      [
        "g_ΑΖΧ",
        -13.981709488643585
      ],
      [
        "Υ_VΞ",
        -13.981827704761546
      ],
      [
        "Derivative(log(χ",
        -13.981836172642863
      ],
      [
        "log(λ_",
        -13.982111308448804
      ],
      [
        "δ)*",
        -13.982205969861637
      ],
      [
        "Γ_σt",
        -13.982436344299293
      ],
      [
        "Ψ_E",
        -13.982475535364461
      ],
      [
        "R_ιf",
        -13.982546391919195
      ],
      [
        "Ψ_λΦ",
        -13.982647473879108
      ],
      [
        "q_L",
        -13.982818588297135
      ],
      [
        "α_ζ",
        -13.9830568272201
      ],
      [
        "w_",
        -13.983082425228488
      ],
      [
        "T_Q8",
        -13.983403190622028
      ],
      [
        "_5",
        -13.983418743327583
      ],
      [
        "Θ_μ1",
        -13.983456903537377
      ],
      [
        "C_a",
        -13.98422764828841
      ],
      [
        "B_αγ",
        -13.984318763298917
      ],
      [
        "θ_WvZ",
        -13.984387739990968
      ],
      [
        "V_Yω",
        -13.984423502525154
      ],
      [
        "c_ι8",
        -13.98446636129354
      ],
      [
        "χ_iλ",
        -13.98516542363236
      ],
      [
        "Θ_JΠ",
        -13.985273288725402
      ],
      [
        "C_6K",
        -13.985456511918358
      ],
      [
        "(f)**log(",
        -13.985488354105335
      ],
      [
        "w_KΝ",
        -13.985496187409673
      ],
      [
        "Q_β",
        -13.985831124920802
      ],
      [
        "Φ_Ξ",
        -13.985898621303138
      ],
      [
        "Integral(sqrt(i)",
        -13.986019870471782
      ],
      [
        "t_x",
        -13.986909555040647
      ],
      [
        ")*log(8*",
        -13.987307696415373
      ],
      [
        "v)",
        -13.987562109576178
      ],
      [
        "Α_Ijs",
        -13.988120645540171
      ],
      [
        "Μ_Θ8",
        -13.988180697281274
      ],
      [
        "(Ν**",
        -13.988390462341403
      ],
      [
        "*ξ)",
        -13.988560544955138
      ],
      [
        "**4)**",
        -13.98860226089471
      ],
      [
        "/c)",
        -13.988931738140401
      ],
      [
        "Χ_",
        -13.989282949949095
      ],
      [
        "_1)/",
        -13.989508982871785
      ],
      [
        "Μ_",
        -13.989797049634369
      ],
      [
        "L_Ξ",
        -13.99002397515145
      ],
      [
        "x_6f",
        -13.990241635881695
      ],
      [
        "H*",
        -13.99140214450329
      ],
      [
        "Q_jΜ",
        -13.991553111425077
      ],
      [
        "ζ_E",
        -13.99155499388616
      ],
      [
        "Η_pΥ",
        -13.991613016722237
      ],
      [
        "**μ)",
        -13.991910425653478
      ],
      [
        "4)/2)",
        -13.992119267815056
      ],
      [
        "**A)",
        -13.992733267493014
      ],
      [
        "'ψ_B",
        -13.992799699622518
      ],
      [
        "Υ**(",
        -13.993304318247391
      ],
      [
        "k_S",
        -13.993502028532024
      ],
      [
        "*v)",
        -13.993506357802053
      ],
      [
        "μ_J4",
        -13.993538931522009
      ],
      [
        "*ψ)",
        -13.99354176401875
      ],
      [
        "Ψ_",
        -13.993806046431114
      ],
      [
        "'Λ_k",
        -13.99423014187002
      ],
      [
        "Integral(sqrt(j",
        -13.994479423569716
      ],
      [
        "(v/",
        -13.995141780856565
      ],
      [
        "W**(",
        -13.996041656293281
      ],
      [
        "M_yv",
        -13.99648263206983
      ],
      [
        "q_DGφ",
        -13.998201410330292
      ],
      [
        "Ι)",
        -13.99849877288434
      ],
      [
        "-ρ",
        -13.998613312776406
      ],
      [
        "β_UU",
        -13.99873136221624
      ],
      [
        "Integral(sqrt(φ",
        -13.99994780596616
      ],
      [
        "log(M",
        -14.000578778000115
      ],
      [
        "P**(",
        -14.000817987020405
      ],
      [
        "(J)*",
        -14.000963920418034
      ],
      [
        "x_g",
        -14.001419845974128
      ],
      [
        "_Ε",
        -14.001805318811073
      ],
      [
        "sqrt(Σ)",
        -14.001918057764058
      ],
      [
        "Integral(λ*",
        -14.00204552492699
      ],
      [
        "*Ο)",
        -14.002176612895811
      ],
      [
        "S_ι",
        -14.002762997511079
      ],
      [
        "Ε_LNN",
        -14.002786756992993
      ],
      [
        "Θ_QQΜ",
        -14.002786757089188
      ],
      [
        "ι_PQη",
        -14.002786757289414
      ],
      [
        "ι_QΠΡ",
        -14.002786757348073
      ],
      [
        "σ_ΖOΟ",
        -14.002786757426936
      ],
      [
        "Z_ΤNH",
        -14.00278675757051
      ],
      [
        "W_ILδ",
        -14.002786757590766
      ],
      [
        "R_COF",
        -14.002786757611963
      ],
      [
        "G_κQK",
        -14.002786757617276
      ],
      [
        "Υ_ΨβO",
        -14.002786757743678
      ],
      [
        "Ο_ωNN",
        -14.002786757810552
      ],
      [
        "P_UIΚ",
        -14.002786757881994
      ],
      [
        "T_VδO",
        -14.002786757968977
      ],
      [
        "V_PWO",
        -14.002786757972093
      ],
      [
        "f_ψZI",
        -14.00278675805212
      ],
      [
        "P_ΘρN",
        -14.002786758097034
      ],
      [
        "ω_ΕΞQ",
        -14.002786758102795
      ],
      [
        "Q_ΡTε",
        -14.002786758120674
      ],
      [
        "X_υOθ",
        -14.002786758159369
      ],
      [
        "Ζ_ξΓO",
        -14.002786758185426
      ],
      [
        "μ_λUN",
        -14.002786758237054
      ],
      [
        "λ_μQF",
        -14.002786758237171
      ],
      [
        "Q_ΕOΕ",
        -14.002786758259804
      ],
      [
        "Q_zξΠ",
        -14.002786758273846
      ],
      [
        "Q_IAΚ",
        -14.002786758322873
      ],
      [
        "ω_ΘχQ",
        -14.00278675837093
      ],
      [
        "G_MΞQ",
        -14.002786758425517
      ],
      [
        "Υ_TεI",
        -14.00278675845443
      ],
      [
        "δ_NZΖ",
        -14.002786758460473
      ],
      [
        "G_νQΕ",
        -14.002786758484428
      ],
      [
        "z_Συν",
        -14.002786758548709
      ],
      [
        "h_IΩω",
        -14.002786758552519
      ],
      [
        "φ_QYC",
        -14.002786758569075
      ],
      [
        "ξ_ΖιΘ",
        -14.002786758582067
      ],
      [
        "ι_DΧΡ",
        -14.002786758617985
      ],
      [
        "ι_Ιβμ",
        -14.002786758667007
      ],
      [
        "Q_ΟNι",
        -14.00278675866878
      ],
      [
        "K_9OY",
        -14.002786758670268
      ],
      [
        "G_ΚCζ",
        -14.002786758671178
      ],
      [
        "σ_οJΣ",
        -14.002786758714672
      ],
      [
        "u_χNΑ",
        -14.002786758716766
      ],
      [
        "ι_ξRΟ",
        -14.002786758718386
      ],
      [
        "ι_MXW",
        -14.002786758762387
      ],
      [
        "v_QTJ",
        -14.002786758763081
      ],
      [
        "ι_Vkτ",
        -14.002786758780507
      ],
      [
        "ψ_LμΜ",
        -14.002786758811304
      ],
      [
        "ψ_YθΧ",
        -14.002786758811952
      ],
      [
        "z_ετν",
        -14.002786758812354
      ],
      [
        "σ_ζοι",
        -14.00278675882662
      ],
      [
        "σ_ΣzJ",
        -14.002786758894995
      ],
      [
        "T_βΡΝ",
        -14.002786758922028
      ],
      [
        "B_UΠF",
        -14.002786758922788
      ],
      [
        "Ρ_ΥQΥ",
        -14.002786758926426
      ],
      [
        "ψ_δQζ",
        -14.002786758936466
      ],
      [
        "g_χNZ",
        -14.002786758955715
      ],
      [
        "N_KΠΖ",
        -14.002786758974743
      ],
      [
        "Υ_δρN",
        -14.002786759074787
      ],
      [
        "L_QσΕ",
        -14.002786759149263
      ],
      [
        "z_Πρk",
        -14.002786759149634
      ],
      [
        "ψ_vΗN",
        -14.002786759154715
      ],
      [
        "B_ΑΤΡ",
        -14.002786759158504
      ],
      [
        "W_ιξI",
        -14.002786759250684
      ],
      [
        "Τ_XNΡ",
        -14.00278675925737
      ],
      [
        "u_YRΑ",
        -14.002786759260045
      ],
      [
        "τ_zTQ",
        -14.002786759261244
      ],
      [
        "H_WhH",
        -14.002786759276423
      ],
      [
        "Ο_YTk",
        -14.002786759322685
      ],
      [
        "ξ_ΗαI",
        -14.002786759329615
      ],
      [
        "ξ_σWγ",
        -14.002786759333471
      ],
      [
        "σ_WθM",
        -14.002786759334937
      ],
      [
        "N_hφδ",
        -14.00278675934203
      ],
      [
        "ψ_JBζ",
        -14.002786759373835
      ],
      [
        "R_ιΕΔ",
        -14.002786759404634
      ],
      [
        "σ_ψ6N",
        -14.002786759447078
      ],
      [
        "G_Ωψζ",
        -14.00278675946535
      ],
      [
        "Ζ_ΠΟΑ",
        -14.002786759495091
      ],
      [
        "Μ_IΡΓ",
        -14.002786759499394
      ],
      [
        "R_Σκζ",
        -14.00278675951026
      ],
      [
        "Z_VBΓ",
        -14.002786759515296
      ],
      [
        "μ_TQΨ",
        -14.002786759533123
      ],
      [
        "Γ_OMι",
        -14.002786759544009
      ],
      [
        "T_YDλ",
        -14.002786759566881
      ],
      [
        "φ_βXA",
        -14.002786759576447
      ],
      [
        "Χ_XIο",
        -14.002786759607318
      ],
      [
        "β_IΗJ",
        -14.002786759608979
      ],
      [
        "z_9JT",
        -14.002786759609467
      ],
      [
        "E_CNΧ",
        -14.002786759656006
      ],
      [
        "I_MδN",
        -14.002786759663149
      ],
      [
        "D_NLW",
        -14.002786759687279
      ],
      [
        "X_ιPΜ",
        -14.00278675969231
      ],
      [
        "Ο_ρΠΤ",
        -14.002786759698687
      ],
      [
        "R_μψο",
        -14.002786759701854
      ],
      [
        "ι_Λιι",
        -14.002786759725744
      ],
      [
        "F_ωΘλ",
        -14.002786759732546
      ],
      [
        "t_ΤQP",
        -14.002786759733699
      ],
      [
        "u_ΥΩΣ",
        -14.002786759735908
      ],
      [
        "x_UΖκ",
        -14.002786759761797
      ],
      [
        "I_γkO",
        -14.002786759764742
      ],
      [
        "λ_οΦΠ",
        -14.00278675981376
      ],
      [
        "Ν_ΓΑJ",
        -14.00278675981442
      ],
      [
        "Ο_8DI",
        -14.002786759820768
      ],
      [
        "μ_φΝZ",
        -14.002786759865364
      ],
      [
        "B_ΜIγ",
        -14.002786759870933
      ],
      [
        "A_ZOR",
        -14.002786759882477
      ],
      [
        "σ_ΛΚζ",
        -14.00278675988511
      ],
      [
        "Z_ΖΨA",
        -14.00278675991045
      ],
      [
        "B_φHO",
        -14.002786759916878
      ],
      [
        "ι_GQν",
        -14.002786759936285
      ],
      [
        "ζ_CιY",
        -14.00278675995342
      ],
      [
        "Ν_λτυ",
        -14.00278675996188
      ],
      [
        "Μ_Μνξ",
        -14.002786759967107
      ],
      [
        "J_βυΚ",
        -14.002786759985145
      ],
      [
        "Ο_ΠΒI",
        -14.002786760007941
      ],
      [
        "Λ_RXΑ",
        -14.002786760076484
      ],
      [
        "Σ_ΩΝΞ",
        -14.002786760081886
      ],
      [
        "Δ_NεA",
        -14.002786760116175
      ],
      [
        "η_ωQR",
        -14.002786760117292
      ],
      [
        "Σ_ωΖh",
        -14.002786760147853
      ],
      [
        "Ο_ρYξ",
        -14.00278676014999
      ],
      [
        "α_αΣο",
        -14.002786760192405
      ],
      [
        "Q_7τR",
        -14.00278676021057
      ],
      [
        "M_ΡYΩ",
        -14.00278676021226
      ],
      [
        "μ_BQΒ",
        -14.002786760219948
      ],
      [
        "I_γΥH",
        -14.002786760235807
      ],
      [
        "Η_BΧW",
        -14.002786760241044
      ],
      [
        "Q_ΜΗο",
        -14.002786760247284
      ],
      [
        "Η_οΡK",
        -14.002786760263998
      ],
      [
        "δ_4ζN",
        -14.00278676027283
      ],
      [
        "Ω_ΙΡΡ",
        -14.0027867602755
      ],
      [
        "ο_OXζ",
        -14.002786760278568
      ],
      [
        "Η_Ζ5Ω",
        -14.002786760281221
      ],
      [
        "ξ_TKυ",
        -14.002786760281344
      ],
      [
        "B_γDV",
        -14.002786760300218
      ],
      [
        "ε_ΣHC",
        -14.002786760301616
      ],
      [
        "Ω_kWk",
        -14.002786760305174
      ],
      [
        "R_ΨKΝ",
        -14.00278676032137
      ],
      [
        "θ_ωRI",
        -14.002786760332732
      ],
      [
        "λ_σVδ",
        -14.0027867603328
      ],
      [
        "W_ZKA",
        -14.002786760341447
      ],
      [
        "λ_χρj",
        -14.002786760343287
      ],
      [
        "h_TCξ",
        -14.002786760362818
      ],
      [
        "Ω_kΥμ",
        -14.002786760371691
      ],
      [
        "ε_WΙW",
        -14.002786760371965
      ],
      [
        "α_ΡIX",
        -14.002786760375088
      ],
      [
        "g_ΒωA",
        -14.002786760380918
      ],
      [
        "Ψ_ψNλ",
        -14.002786760400864
      ],
      [
        "ε_οMε",
        -14.00278676041803
      ],
      [
        "η_αμZ",
        -14.002786760423723
      ],
      [
        "Β_CζΠ",
        -14.002786760424996
      ],
      [
        "σ_ΤχΟ",
        -14.002786760436898
      ],
      [
        "G_ΒΑΛ",
        -14.002786760441213
      ],
      [
        "ν_AXλ",
        -14.00278676044923
      ],
      [
        "Π_ΑεU",
        -14.002786760492814
      ],
      [
        "Ψ_ΦΛN",
        -14.002786760493779
      ],
      [
        "k_VΨφ",
        -14.002786760495141
      ],
      [
        "Τ_ΗCK",
        -14.002786760521607
      ],
      [
        "H_1φM",
        -14.00278676052343
      ],
      [
        "λ_Q8O",
        -14.002786760529425
      ],
      [
        "k_ΧDC",
        -14.00278676053032
      ],
      [
        "N_ΦβΚ",
        -14.002786760537521
      ],
      [
        "V_DρΤ",
        -14.002786760539783
      ],
      [
        "α_TBQ",
        -14.002786760542676
      ],
      [
        "M_IVZ",
        -14.002786760546272
      ],
      [
        "k_ΧνQ",
        -14.002786760556319
      ],
      [
        "Β_ΗNΩ",
        -14.002786760571894
      ],
      [
        "η_θΧΞ",
        -14.002786760599147
      ],
      [
        "Η_VXγ",
        -14.002786760617932
      ],
      [
        "K_Vkυ",
        -14.002786760619454
      ],
      [
        "W_XDδ",
        -14.002786760624309
      ],
      [
        "θ_βΘW",
        -14.002786760653631
      ],
      [
        "Z_ΤηK",
        -14.00278676068061
      ],
      [
        "g_ΝΤR",
        -14.002786760680806
      ],
      [
        "Η_LΑψ",
        -14.002786760694017
      ],
      [
        "D_Τgε",
        -14.002786760705524
      ],
      [
        "Κ_ΚΙΧ",
        -14.002786760716486
      ],
      [
        "η_zΓD",
        -14.002786760743417
      ],
      [
        "J_Κωυ",
        -14.002786760753711
      ],
      [
        "Κ_HIZ",
        -14.00278676075959
      ],
      [
        "ξ_ΞXΚ",
        -14.002786760776518
      ],
      [
        "Q_ΓΠρ",
        -14.002786760795656
      ],
      [
        "z_CΦγ",
        -14.002786760807714
      ],
      [
        "Μ_ΦΞφ",
        -14.002786760812231
      ],
      [
        "η_DQΧ",
        -14.002786760830245
      ],
      [
        "Κ_Λφh",
        -14.00278676083624
      ],
      [
        "h_ΚLΤ",
        -14.002786760851427
      ],
      [
        "η_λBΒ",
        -14.002786760864055
      ],
      [
        "Y_ΜΟg",
        -14.002786760867709
      ],
      [
        "O_KkΞ",
        -14.002786760871114
      ],
      [
        "Q_Cβκ",
        -14.002786760902906
      ],
      [
        "C_σΦΛ",
        -14.002786760905558
      ],
      [
        "φ_ΨΧζ",
        -14.002786760936338
      ],
      [
        "ε_DξM",
        -14.002786760937745
      ],
      [
        "Ι_ρNω",
        -14.002786760962023
      ],
      [
        "Λ_Dιθ",
        -14.002786760964874
      ],
      [
        "G_8PR",
        -14.002786760972624
      ],
      [
        "Γ_ΨΙO",
        -14.00278676098326
      ],
      [
        "Ε_ηkB",
        -14.002786760988347
      ],
      [
        "t_FΒT",
        -14.002786761000358
      ],
      [
        "R_ΣΝΩ",
        -14.00278676100158
      ],
      [
        "t_ΤΞB",
        -14.002786761066737
      ],
      [
        "T_δTU",
        -14.002786761073573
      ],
      [
        "G_NHμ",
        -14.002786761086561
      ],
      [
        "j_NΜF",
        -14.002786761094596
      ],
      [
        "H_NΞλ",
        -14.002786761094638
      ],
      [
        "Ι_χzΣ",
        -14.00278676110377
      ],
      [
        "Η_ΞεK",
        -14.002786761111144
      ],
      [
        "Λ_θΡσ",
        -14.002786761133274
      ],
      [
        "Β_NUΔ",
        -14.002786761136035
      ],
      [
        "Τ_ψΕγ",
        -14.002786761142364
      ],
      [
        "G_ΓXλ",
        -14.002786761161378
      ],
      [
        "θ_κIP",
        -14.002786761177596
      ],
      [
        "Ο_βCα",
        -14.002786761181172
      ],
      [
        "H_ναΖ",
        -14.002786761187313
      ],
      [
        "Β_QR7",
        -14.00278676119099
      ],
      [
        "Ε_LIλ",
        -14.002786761224868
      ],
      [
        "ε_γAη",
        -14.002786761224947
      ],
      [
        "Χ_PΧF",
        -14.002786761237441
      ],
      [
        "Γ_ΓPΛ",
        -14.002786761253523
      ],
      [
        "γ_βΝΜ",
        -14.002786761258704
      ],
      [
        "T_ΓΥβ",
        -14.002786761267345
      ],
      [
        "υ_BνT",
        -14.002786761268457
      ],
      [
        "Z_HPχ",
        -14.002786761275326
      ],
      [
        "Ρ_FΖΞ",
        -14.002786761289352
      ],
      [
        "ο_jΣζ",
        -14.00278676129234
      ],
      [
        "K_9GO",
        -14.00278676130753
      ],
      [
        "k_ΓΦO",
        -14.002786761311292
      ],
      [
        "f_γRG",
        -14.00278676131149
      ],
      [
        "υ_QγΤ",
        -14.00278676134813
      ],
      [
        "Υ_ΒVΕ",
        -14.0027867613661
      ],
      [
        "x_ΖθW",
        -14.002786761366742
      ],
      [
        "d_ΧNη",
        -14.002786761369567
      ],
      [
        "Q_γΔΣ",
        -14.00278676138937
      ],
      [
        "Y_MΛN",
        -14.002786761395303
      ],
      [
        "ψ_VZψ",
        -14.002786761420577
      ],
      [
        "T_ΘΡΧ",
        -14.002786761424014
      ],
      [
        "B_ΩγH",
        -14.002786761426083
      ],
      [
        "Μ_ΝεΦ",
        -14.002786761429691
      ],
      [
        "Q_Ωτ6",
        -14.00278676143404
      ],
      [
        "H_ΝUΔ",
        -14.002786761436159
      ],
      [
        "r_ΡOO",
        -14.002786761446517
      ],
      [
        "H_HΙΨ",
        -14.002786761460142
      ],
      [
        "J_ΤΔΗ",
        -14.002786761460655
      ],
      [
        "T_ΩφY",
        -14.002786761460658
      ],
      [
        "Τ_Ραg",
        -14.002786761489158
      ],
      [
        "z_Iψ1",
        -14.002786761503184
      ],
      [
        "ε_ΦγΣ",
        -14.002786761508426
      ],
      [
        "T_Bεε",
        -14.002786761510746
      ],
      [
        "φ_UTC",
        -14.002786761516177
      ],
      [
        "I_ΥΠΜ",
        -14.002786761545604
      ],
      [
        "Q_Hgε",
        -14.002786761575875
      ],
      [
        "O_οΥε",
        -14.002786761608727
      ],
      [
        "f_ΩΒχ",
        -14.00278676161361
      ],
      [
        "X_O6ρ",
        -14.002786761613791
      ],
      [
        "f_ΑΤΦ",
        -14.002786761616456
      ],
      [
        "H_AΙΜ",
        -14.002786761632198
      ],
      [
        "ι_X7Χ",
        -14.002786761658355
      ],
      [
        "K_1θQ",
        -14.002786761666574
      ],
      [
        "N_7σΖ",
        -14.002786761684481
      ],
      [
        "z_ιεV",
        -14.002786761692201
      ],
      [
        "Ψ_ΥΞψ",
        -14.002786761697692
      ],
      [
        "Ξ_ξBο",
        -14.002786761699236
      ],
      [
        "Ξ_ηθN",
        -14.002786761701682
      ],
      [
        "X_ααB",
        -14.002786761712086
      ],
      [
        "ζ_KΠZ",
        -14.00278676171746
      ],
      [
        "H_ΤL5",
        -14.00278676173589
      ],
      [
        "v_ΣΞv",
        -14.002786761738928
      ],
      [
        "Μ_ρzΓ",
        -14.0027867617922
      ],
      [
        "ψ_hα3",
        -14.00278676180004
      ],
      [
        "f_ΠΟω",
        -14.002786761817783
      ],
      [
        "X_1Κχ",
        -14.002786761827588
      ],
      [
        "μ_8KR",
        -14.002786761831652
      ],
      [
        "Ξ_λβΠ",
        -14.00278676184126
      ],
      [
        "E_YAI",
        -14.002786761858989
      ],
      [
        "Σ_ΛWB",
        -14.002786761863518
      ],
      [
        "φ_NΧv",
        -14.002786761865961
      ],
      [
        "Z_HγP",
        -14.00278676186775
      ],
      [
        "γ_RγΒ",
        -14.00278676187084
      ],
      [
        "Δ_ΙΞj",
        -14.002786761884494
      ],
      [
        "σ_θ1M",
        -14.002786761903645
      ],
      [
        "χ_βψε",
        -14.00278676191361
      ],
      [
        "K_ευY",
        -14.002786761915887
      ],
      [
        "γ_FαΛ",
        -14.002786761930532
      ],
      [
        "t_ωΓσ",
        -14.002786761931908
      ],
      [
        "t_μXΣ",
        -14.002786761935273
      ],
      [
        "Λ_OJσ",
        -14.00278676195073
      ],
      [
        "Χ_ΗΟP",
        -14.002786761973402
      ],
      [
        "N_ηΝχ",
        -14.002786761976111
      ],
      [
        "A_5χR",
        -14.002786761979264
      ],
      [
        "t_ιΛΙ",
        -14.00278676200241
      ],
      [
        "a_BΞμ",
        -14.00278676202002
      ],
      [
        "Η_τγφ",
        -14.002786762058777
      ],
      [
        "z_ΙUA",
        -14.002786762062877
      ],
      [
        "ο_κΛQ",
        -14.002786762071727
      ],
      [
        "σ_αΡX",
        -14.002786762083012
      ],
      [
        "E_δΗI",
        -14.002786762095438
      ],
      [
        "D_OFχ",
        -14.002786762102513
      ],
      [
        "q_OμB",
        -14.002786762108428
      ],
      [
        "z_ΓgT",
        -14.00278676211017
      ],
      [
        "f_γαλ",
        -14.002786762128329
      ],
      [
        "B_7θε",
        -14.002786762137735
      ],
      [
        "Ο_μAλ",
        -14.002786762162536
      ],
      [
        "z_QfQ",
        -14.002786762163918
      ],
      [
        "Ω_fΔO",
        -14.00278676218324
      ],
      [
        "B_3ΓP",
        -14.002786762230556
      ],
      [
        "L_ΚIκ",
        -14.002786762240675
      ],
      [
        "κ_ωOJ",
        -14.002786762252411
      ],
      [
        "N_νεΖ",
        -14.002786762268673
      ],
      [
        "I_ΗκA",
        -14.002786762277818
      ],
      [
        "σ_CΖΨ",
        -14.002786762287792
      ],
      [
        "K_Ιυν",
        -14.002786762298113
      ],
      [
        "Ρ_VψQ",
        -14.00278676229828
      ],
      [
        "U_ΩYσ",
        -14.002786762315694
      ],
      [
        "τ_4QΩ",
        -14.00278676232044
      ],
      [
        "I_HβΚ",
        -14.002786762323913
      ],
      [
        "Ρ_τQΚ",
        -14.00278676233211
      ],
      [
        "O_TJM",
        -14.002786762361778
      ],
      [
        "Χ_κΛΓ",
        -14.002786762363957
      ],
      [
        "W_αMΞ",
        -14.00278676239278
      ],
      [
        "q_ΜοF",
        -14.00278676239741
      ],
      [
        "Φ_ΗΞΓ",
        -14.002786762400437
      ],
      [
        "N_ΦzT",
        -14.002786762401955
      ],
      [
        "ζ_Θjμ",
        -14.002786762426139
      ],
      [
        "N_ΧλΧ",
        -14.002786762427922
      ],
      [
        "N_ΓτJ",
        -14.002786762427977
      ],
      [
        "χ_ΨN9",
        -14.002786762432049
      ],
      [
        "η_αXχ",
        -14.002786762439285
      ],
      [
        "Ε_τQλ",
        -14.002786762459916
      ],
      [
        "Σ_vDX",
        -14.00278676246167
      ],
      [
        "G_JFI",
        -14.002786762463298
      ],
      [
        "Δ_γΖΣ",
        -14.002786762464373
      ],
      [
        "ξ_ξBτ",
        -14.002786762467714
      ],
      [
        "T_YθG",
        -14.002786762469793
      ],
      [
        "ι_Kχσ",
        -14.002786762482302
      ],
      [
        "l_Iγμ",
        -14.002786762533342
      ],
      [
        "I_Υχκ",
        -14.002786762541986
      ],
      [
        "j_ΔHω",
        -14.002786762544916
      ],
      [
        "F_6QΙ",
        -14.002786762553182
      ],
      [
        "Υ_γFω",
        -14.002786762554255
      ],
      [
        "V_γΣΗ",
        -14.002786762573486
      ],
      [
        "ξ_εθο",
        -14.002786762601891
      ],
      [
        "Ω_Ν9μ",
        -14.002786762616331
      ],
      [
        "u_VΥΚ",
        -14.00278676266064
      ],
      [
        "a_ΘGΔ",
        -14.002786762672544
      ],
      [
        "p_ιζN",
        -14.00278676268331
      ],
      [
        "s_vΕν",
        -14.002786762695736
      ],
      [
        "X_χΣF",
        -14.00278676269592
      ],
      [
        "β_Η5Β",
        -14.002786762710226
      ],
      [
        "ω_BΙM",
        -14.002786762717372
      ],
      [
        "Υ_Δζη",
        -14.002786762717427
      ],
      [
        "φ_HΚΝ",
        -14.002786762733447
      ],
      [
        "Υ_ΔνΓ",
        -14.002786762734711
      ],
      [
        "Ζ_G8O",
        -14.002786762739259
      ],
      [
        "Ζ_ωHΚ",
        -14.002786762765814
      ],
      [
        "Υ_Kjκ",
        -14.002786762787695
      ],
      [
        "ξ_ΕβH",
        -14.002786762798067
      ],
      [
        "J_ΝΠY",
        -14.002786762799822
      ],
      [
        "Γ_5Lj",
        -14.002786762812875
      ],
      [
        "μ_ΕδΕ",
        -14.002786762834475
      ],
      [
        "Ω_οCΝ",
        -14.002786762842144
      ],
      [
        "S_νVγ",
        -14.002786762861403
      ],
      [
        "σ_κkΙ",
        -14.002786762869007
      ],
      [
        "β_UYα",
        -14.002786762875601
      ],
      [
        "Μ_YΜX",
        -14.002786762893482
      ],
      [
        "U_FNθ",
        -14.002786762893747
      ],
      [
        "η_vΠκ",
        -14.002786762894875
      ],
      [
        "Ν_κΦθ",
        -14.00278676290673
      ],
      [
        "Τ_χΘJ",
        -14.002786762908217
      ],
      [
        "u_ωψΕ",
        -14.0027867629089
      ],
      [
        "β_ΧLΥ",
        -14.00278676291232
      ],
      [
        "N_ΘφΛ",
        -14.00278676291566
      ],
      [
        "ξ_νψB",
        -14.002786762931368
      ],
      [
        "s_νVΨ",
        -14.002786762944993
      ],
      [
        "Λ_OΤh",
        -14.002786762946318
      ],
      [
        "W_μDΟ",
        -14.002786762959364
      ],
      [
        "j_ΤRC",
        -14.002786762966178
      ],
      [
        "O_zTΖ",
        -14.002786762966577
      ],
      [
        "υ_Ugκ",
        -14.00278676297248
      ],
      [
        "q_ΜλΖ",
        -14.002786762998143
      ],
      [
        "ι_GGΙ",
        -14.00278676301793
      ],
      [
        "D_4Mz",
        -14.00278676304563
      ],
      [
        "β_QΑΥ",
        -14.002786763045874
      ],
      [
        "Ξ_MMQ",
        -14.002786763051025
      ],
      [
        "E_AΟΤ",
        -14.00278676305208
      ],
      [
        "O_ΤχX",
        -14.002786763055775
      ],
      [
        "μ_ΚαΙ",
        -14.002786763055889
      ],
      [
        "Η_jΖU",
        -14.002786763056124
      ],
      [
        "Σ_KJB",
        -14.002786763059149
      ],
      [
        "γ_Oαδ",
        -14.00278676306267
      ],
      [
        "Y_Θσο",
        -14.002786763092733
      ],
      [
        "x_δλη",
        -14.00278676309642
      ],
      [
        "D_KWF",
        -14.00278676310485
      ],
      [
        "s_4AΡ",
        -14.00278676311971
      ],
      [
        "Χ_Πτψ",
        -14.00278676312185
      ],
      [
        "β_ντz",
        -14.002786763123343
      ],
      [
        "Γ_ιDΒ",
        -14.00278676312687
      ],
      [
        "p_ΡQξ",
        -14.002786763129546
      ],
      [
        "E_δRj",
        -14.002786763151008
      ],
      [
        "Z_jAθ",
        -14.002786763158623
      ],
      [
        "q_Εθ1",
        -14.002786763167643
      ],
      [
        "F_λVC",
        -14.002786763189668
      ],
      [
        "θ_QΦγ",
        -14.002786763196516
      ],
      [
        "v_ΔΘj",
        -14.00278676320556
      ],
      [
        "X_ΥΒΦ",
        -14.002786763205565
      ],
      [
        "B_εΚη",
        -14.0027867632121
      ],
      [
        "U_ΛgH",
        -14.002786763215067
      ],
      [
        "θ_κLz",
        -14.002786763215921
      ],
      [
        "I_ξΥΠ",
        -14.002786763222606
      ],
      [
        "Φ_ΠKh",
        -14.002786763238346
      ],
      [
        "D_BkΒ",
        -14.002786763243435
      ],
      [
        "E_ΔλO",
        -14.002786763283643
      ],
      [
        "Ζ_αοΦ",
        -14.002786763284437
      ],
      [
        "O_FβA",
        -14.002786763285947
      ],
      [
        "X_ΣhU",
        -14.002786763288535
      ],
      [
        "σ_7VΣ",
        -14.00278676329306
      ],
      [
        "ξ_WΖz",
        -14.002786763297825
      ],
      [
        "l_ΜΗΘ",
        -14.002786763299543
      ],
      [
        "g_φΛα",
        -14.002786763306442
      ],
      [
        "O_αΜυ",
        -14.002786763323455
      ],
      [
        "U_hζN",
        -14.002786763330088
      ],
      [
        "R_Ν1Q",
        -14.002786763346526
      ],
      [
        "x_Φkκ",
        -14.002786763351722
      ],
      [
        "Μ_BJz",
        -14.002786763377253
      ],
      [
        "g_ΘVι",
        -14.00278676339595
      ],
      [
        "K_τGδ",
        -14.002786763396657
      ],
      [
        "c_Μνδ",
        -14.00278676339837
      ],
      [
        "Ψ_FΥΣ",
        -14.002786763427805
      ],
      [
        "s_ΕVΗ",
        -14.00278676344039
      ],
      [
        "μ_ΙkΙ",
        -14.00278676344412
      ],
      [
        "V_ΜGF",
        -14.002786763471482
      ],
      [
        "ξ_σΙZ",
        -14.002786763472384
      ],
      [
        "O_ρ5O",
        -14.00278676348709
      ],
      [
        "K_τΟC",
        -14.002786763507753
      ],
      [
        "f_ΞΖ6",
        -14.002786763516186
      ],
      [
        "Σ_ZΘι",
        -14.002786763517953
      ],
      [
        "γ_gIγ",
        -14.002786763519909
      ],
      [
        "η_ΑΠΑ",
        -14.002786763520755
      ],
      [
        "S_ΕλΔ",
        -14.002786763530777
      ],
      [
        "Π_ΙωW",
        -14.002786763531144
      ],
      [
        "s_WRh",
        -14.002786763531404
      ],
      [
        "ξ_fεΩ",
[...]
