{
  "version": "1.0",
  "truncation": null,
  "padding": null,
  "added_tokens": [
    {
      "id": 0,
      "content": "[PAD]",
      "single_word": false,
      "lstrip": false,
      "rstrip": false,
      "normalized": false,
      "special": true
    },
    {
      "id": 1,
      "content": "[BOS]",
      "single_word": false,
      "lstrip": false,
      "rstrip": false,
      "normalized": false,
      "special": true
    },
    {
      "id": 2,
      "content": "[EOS]",
      "single_word": false,
      "lstrip": false,
      "rstrip": false,
      "normalized": false,
      "special": true
    },
    {
      "id": 3,
      "content": "[UNK]",
      "single_word": false,
      "lstrip": false,
      "rstrip": false,
      "normalized": false,
      "special": true
    },
    {
      "id": 4,
      "content": "<mml:mo>",
      "single_word": false,
      "lstrip": false,
      "rstrip": false,
      "normalized": false,
      "special": true
    },
    {
      "id": 5,
      "content": "</mml:mo>",
      "single_word": false,
      "lstrip": false,
      "rstrip": false,
      "normalized": false,
      "special": true
    },
    {
      "id": 6,
      "content": "<mml:mi>",
      "single_word": false,
      "lstrip": false,
      "rstrip": false,
      "normalized": false,
      "special": true
    },
    {
      "id": 7,
      "content": "</mml:mi>",
      "single_word": false,
      "lstrip": false,
      "rstrip": false,
      "normalized": false,
      "special": true
    },
    {
      "id": 8,
      "content": "<mml:msub>",
      "single_word": false,
      "lstrip": false,
      "rstrip": false,
      "normalized": false,
      "special": true
    },
    {
      "id": 9,
      "content": "</mml:msub>",
      "single_word": false,
      "lstrip": false,
      "rstrip": false,
      "normalized": false,
      "special": true
    },
    {
      "id": 10,
      "content": "<mml:msup>",
      "single_word": false,
      "lstrip": false,
      "rstrip": false,
      "normalized": false,
      "special": true
    },
    {
      "id": 11,
      "content": "</mml:msup>",
      "single_word": false,
      "lstrip": false,
      "rstrip": false,
      "normalized": false,
      "special": true
    },
    {
      "id": 12,
      "content": "<mml:mrow>",
      "single_word": false,
      "lstrip": false,
      "rstrip": false,
      "normalized": false,
      "special": true
    },
    {
      "id": 13,
      "content": "</mml:mrow>",
      "single_word": false,
      "lstrip": false,
      "rstrip": false,
      "normalized": false,
      "special": true
    },
    {
      "id": 14,
      "content": "<mml:mfrac>",
      "single_word": false,
      "lstrip": false,
      "rstrip": false,
      "normalized": false,
      "special": true
    },
    {
      "id": 15,
      "content": "</mml:mfrac><mml:mtext>",
      "single_word": false,
      "lstrip": false,
      "rstrip": false,
      "normalized": false,
      "special": true
    },
    {
      "id": 16,
      "content": "</mml:mtext>",
      "single_word": false,
      "lstrip": false,
      "rstrip": false,
      "normalized": false,
      "special": true
    }
  ],
  "normalizer": {
    "type": "Sequence",
    "normalizers": [
      {
        "type": "NFKC"
      }
    ]
  },
  "pre_tokenizer": {
    "type": "Split",
    "pattern": {
      "Regex": "<[^>]+>|\"\"\"[^\"]*\"\"\"|'''[^']*'''|\"[^\"]*\"|'[^']*'|\\bdef\\b|\\bclass\\b|\\bfor\\b|\\bwhile\\b|\\bif\\b|\\belif\\b|\\belse\\b|\\breturn\\b|\\bimport\\b|\\bfrom\\b|\\bas\\b|\\bwith\\b|\\btry\\b|\\bexcept\\b|==|!=|<=|>=|\\+=|-=|\\*=|/=|=>|->|\\bSymbol\\b|\\bEq\\b|\\bexp\\b|\\bsin\\b|\\bcos\\b|\\btan\\b|\\bdiff\\b|^\\s+|\\s+"
    },
    "behavior": "Isolated",
    "invert": false
  },
  "post_processor": null,
  "decoder": {
    "type": "ByteLevel",
    "add_prefix_space": true,
    "trim_offsets": true,
    "use_regex": true
  },
  "model": {
    "type": "BPE",
    "dropout": null,
    "unk_token": "[UNK]",
    "continuing_subword_prefix": null,
    "end_of_word_suffix": null,
    "fuse_unk": false,
    "byte_fallback": false,
    "ignore_merges": false,
    "vocab": {
      "[PAD]": 0,
      "[BOS]": 1,
      "[EOS]": 2,
      "[UNK]": 3,
      "<mml:mo>": 4,
      "</mml:mo>": 5,
      "<mml:mi>": 6,
      "</mml:mi>": 7,
      "<mml:msub>": 8,
      "</mml:msub>": 9,
      "<mml:msup>": 10,
      "</mml:msup>": 11,
      "<mml:mrow>": 12,
      "</mml:mrow>": 13,
      "<mml:mfrac>": 14,
      "</mml:mfrac><mml:mtext>": 15,
      "</mml:mtext>": 16,
      "\n": 17,
      " ": 18,
      "\"": 19,
      "'": 20,
      "(": 21,
      ")": 22,
      "*": 23,
      "+": 24,
      ",": 25,
      "-": 26,
      ".": 27,
      "/": 28,
      "0": 29,
      "1": 30,
      "2": 31,
      "3": 32,
      "4": 33,
      "5": 34,
      "6": 35,
      "7": 36,
      "8": 37,
      "9": 38,
      ":": 39,
      "<": 40,
      "=": 41,
      ">": 42,
      "A": 43,
      "B": 44,
      "C": 45,
      "D": 46,
      "E": 47,
      "F": 48,
      "G": 49,
      "H": 50,
      "I": 51,
      "J": 52,
      "K": 53,
      "L": 54,
      "M": 55,
      "N": 56,
      "O": 57,
      "P": 58,
      "Q": 59,
      "R": 60,
      "S": 61,
      "T": 62,
      "U": 63,
      "V": 64,
      "W": 65,
      "X": 66,
      "Y": 67,
      "Z": 68,
      "_": 69,
      "a": 70,
      "b": 71,
      "c": 72,
      "d": 73,
      "e": 74,
      "f": 75,
      "g": 76,
      "h": 77,
      "i": 78,
      "j": 79,
      "k": 80,
      "l": 81,
      "m": 82,
      "n": 83,
      "o": 84,
      "p": 85,
      "q": 86,
      "r": 87,
      "s": 88,
      "t": 89,
      "u": 90,
      "v": 91,
      "w": 92,
      "x": 93,
      "y": 94,
      "z": 95,
      "~": 96,
      "Α": 97,
      "Β": 98,
      "Γ": 99,
      "Δ": 100,
      "Ε": 101,
      "Ζ": 102,
      "Η": 103,
      "Θ": 104,
      "Ι": 105,
      "Κ": 106,
      "Λ": 107,
      "Μ": 108,
      "Ν": 109,
      "Ξ": 110,
      "Ο": 111,
      "Π": 112,
      "Ρ": 113,
      "Σ": 114,
      "Τ": 115,
      "Υ": 116,
      "Φ": 117,
      "Χ": 118,
      "Ψ": 119,
      "Ω": 120,
      "α": 121,
      "β": 122,
      "γ": 123,
      "δ": 124,
      "ε": 125,
      "ζ": 126,
      "η": 127,
      "θ": 128,
      "ι": 129,
      "κ": 130,
      "λ": 131,
      "μ": 132,
      "ν": 133,
      "ξ": 134,
      "ο": 135,
      "ρ": 136,
      "σ": 137,
      "τ": 138,
      "υ": 139,
      "φ": 140,
      "χ": 141,
      "ψ": 142,
      "ω": 143,
      "∂": 144,
      "∑": 145,
      "∞": 146,
      "∫": 147,
      "ml": 148,
      ":m": 149,
      "mml": 150,
      "mml:m": 151,
      "/mml:m": 152,
      "</mml:m": 153,
      "<mml:m": 154,
      "i>": 155,
      "ro": 156,
      "w>": 157,
      "row>": 158,
      "o>": 159,
      "su": 160,
      "ym": 161,
      "bo": 162,
      "Sym": 163,
      "bol": 164,
      "Symbol": 165,
      "ce": 166,
      "d>": 167,
      "en": 168,
      "fen": 169,
      "ced>": 170,
      "fenced>": 171,
      "sub": 172,
      "sub>": 173,
      "n>": 174,
      "</mml:mfenced>": 175,
      "<mml:mfenced>": 176,
      "p>": 177,
      "sup>": 178,
      "ra": 179,
      "ex": 180,
      "t>": 181,
      "))": 182,
      "c>": 183,
      "fra": 184,
      "frac>": 185,
      "Eq": 186,
      "</mml:mn>": 187,
      "<mml:mn>": 188,
      "qr": 189,
      "sqr": 190,
      "tex": 191,
      "text>": 192,
      "exp": 193,
      "os": 194,
      "cos": 195,
      "ta": 196,
      "tan": 197,
      "in": 198,
      "sin": 199,
      "og": 200,
      "log": 201,
      "er": 202,
      "</mml:mfrac>": 203,
      "sqrt>": 204,
      ")*": 205,
      "),": 206,
      "un": 207,
      "ver": 208,
      "ver>": 209,
      "de": 210,
      "rover>": 211,
      "unde": 212,
      "underover>": 213,
      "iv": 214,
      "<mml:mtext>": 215,
      "log(": 216,
      ")))": 217,
      "t(": 218,
      "</mml:msqrt>": 219,
      "<mml:msqrt>": 220,
      "sqrt(": 221,
      ")/": 222,
      ")**": 223,
      "l(": 224,
      "Su": 225,
      "m(": 226,
      "</mml:munderover>": 227,
      "<mml:munderover>": 228,
      "Sum(": 229,
      "at": 230,
      "In": 231,
      "eg": 232,
      "teg": 233,
      "ral(": 234,
      "Integ": 235,
      "Integral(": 236,
      "Der": 237,
      "e(": 238,
      "ivat": 239,
      "ive(": 240,
      "Derivat": 241,
      "Derivative(": 242,
      "subsup>": 243,
      "**": 244,
      "</mml:msubsup>": 245,
      "<mml:msubsup>": 246,
      "g_": 247,
      "4,": 248,
      "8,": 249,
      "Β_": 250,
      "ξ_": 251,
      "9,": 252,
      "H_": 253,
      "1,": 254,
      "5,": 255,
      "2,": 256,
      "C_": 257,
      "ε_": 258,
      "7,": 259,
      "s_": 260,
      "Λ_": 261,
      "Ω_": 262,
      "η_": 263,
      "τ_": 264,
      "B_": 265,
      "σ_": 266,
      "E_": 267,
      "K_": 268,
      "Q_": 269,
      "Θ_": 270,
      "S_": 271,
      "ζ_": 272,
      "u_": 273,
      "Ρ_": 274,
      "U_": 275,
      "I_": 276,
      "R_": 277,
      "Π_": 278,
      "D_": 279,
      "V_": 280,
      "Μ_": 281,
      ")**(": 282,
      "Ξ_": 283,
      "υ_": 284,
      "c_": 285,
      "w_": 286,
      "Τ_": 287,
      "β_": 288,
      "κ_": 289,
      "θ_": 290,
      "n_": 291,
      "6,": 292,
      "Y_": 293,
      "x_": 294,
      "P_": 295,
      "o_": 296,
      "3,": 297,
      "A_": 298,
      "'ν": 299,
      "l_": 300,
      "Δ_": 301,
      "ψ_": 302,
      "Ι_": 303,
      "i_": 304,
      "Ν_": 305,
      "W_": 306,
      "ρ_": 307,
      "F_": 308,
      "γ_": 309,
      "ι'": 310,
      "m_": 311,
      "β'": 312,
      "Β'": 313,
      "G'": 314,
      "a'": 315,
      "v_": 316,
      "y_": 317,
      "ο_": 318,
      "χ_": 319,
      "Ψ_": 320,
      "λ'": 321,
      "b_": 322,
      "k_": 323,
      "Η_": 324,
      "M_": 325,
      "Υ_": 326,
      "α_": 327,
      "κ'": 328,
      "'Z": 329,
      "L_": 330,
      "N_": 331,
      "Ο'": 332,
      "t_": 333,
      "R'": 334,
      "c'": 335,
      "ε'": 336,
      "G_": 337,
      "L'": 338,
      "O_": 339,
      "v'": 340,
      "D'": 341,
      "Ι'": 342,
      "J_": 343,
      "K'": 344,
      "Ζ_": 345,
      "φ_": 346,
      "Γ'": 347,
      "m'": 348,
      "q_": 349,
      "z_": 350,
      "Γ_": 351,
      "θ'": 352,
      "τ'": 353,
      "d'": 354,
      "h'": 355,
      "r_": 356,
      "w'": 357,
      "j_": 358,
      "ο'": 359,
      "χ'": 360,
      "Ζ'": 361,
      "'ω": 362,
      "f_": 363,
      "Σ'": 364,
      "'X": 365,
      "A'": 366,
      "d_": 367,
      "o'": 368,
      "F'": 369,
      "ρ'": 370,
      "n'": 371,
      "q'": 372,
      "α'": 373,
      "υ'": 374,
      "U'": 375,
      "Δ'": 376,
      "C'": 377,
      "V'": 378,
      "φ'": 379,
      "'δ": 380,
      "η'": 381,
      "ι_": 382,
      "Ε_": 383,
      "Η'": 384,
      "Λ'": 385,
      "ξ'": 386,
      "P'": 387,
      "h_": 388,
      "t'": 389,
      "s'": 390,
      "Υ'": 391,
      "Χ'": 392,
      "Τ'": 393,
      "'Α": 394,
      "Ρ'": 395,
      "J'": 396,
      "T_": 397,
      "T'": 398,
      "W'": 399,
      "Ο_": 400,
      "Σ_": 401,
      "M'": 402,
      "p'": 403,
      "g'": 404,
      "Χ_": 405,
      "Ψ'": 406,
      "Ω'": 407,
      "μ'": 408,
      "B'": 409,
      "a_": 410,
      "x'": 411,
      "z'": 412,
      "Φ_": 413,
      "i'": 414,
      "Ξ'": 415,
      "j'": 416,
      "Π'": 417,
      "ψ'": 418,
      "b'": 419,
      "Ν'": 420,
      "ζ'": 421,
      "l'": 422,
      "'Κ": 423,
      "λ_": 424,
      "k'": 425,
      "p_": 426,
      "r'": 427,
      "y'": 428,
      "u'": 429,
      "Θ'": 430,
      "Μ'": 431,
      "Φ'": 432,
      "σ'": 433,
      "Ε'": 434,
      "γ'": 435,
      "**(": 436,
      "H'": 437,
      "f'": 438,
      "(-": 439,
      "μ_": 440,
      "Y'": 441,
      ")*log(": 442,
      ")/2": 443,
      "Sum(sqrt(": 444,
      "'ν'": 445,
      "Derivative(sqrt(": 446,
      "'ι'": 447,
      "'D'": 448,
      "'K'": 449,
      "Integral(-": 450,
      "'a'": 451,
      "'R'": 452,
      "(Z": 453,
      "'κ'": 454,
      "(ν": 455,
      "'v'": 456,
      "'Ι'": 457,
      "Sum(-": 458,
      "'λ'": 459,
      "'Z'": 460,
      "'Β'": 461,
      "'β'": 462,
      "'G'": 463,
      "Integral(sqrt(": 464,
      "'c'": 465,
      "'L'": 466,
      "(X": 467,
      "'F'": 468,
      "'n'": 469,
      "'ε'": 470,
      "'Ο'": 471,
      "'w'": 472,
      "'m'": 473,
      "'φ'": 474,
      "'χ'": 475,
      "'V'": 476,
      ")/log(": 477,
      "'ω'": 478,
      "'Γ'": 479,
      "'α'": 480,
      "'X'": 481,
      "'Δ'": 482,
      "'θ'": 483,
      "'d'": 484,
      "'s'": 485,
      "'J'": 486,
      "'Ω'": 487,
      "'z'": 488,
      "'Η'": 489,
      "(ω": 490,
      "Derivative(-": 491,
      "'Τ'": 492,
      "'g'": 493,
      "'Ξ'": 494,
      "'δ'": 495,
      "'ο'": 496,
      "'Υ'": 497,
      "'τ'": 498,
      "'h'": 499,
      "'o'": 500,
      "'υ'": 501,
      "'P'": 502,
      "'Ρ'": 503,
      "'Α'": 504,
      "'Ζ'": 505,
      "'Σ'": 506,
      "'ρ'": 507,
      "δ_": 508,
      "'η'": 509,
      ")),": 510,
      "'μ'": 511,
      "'q'": 512,
      "'t'": 513,
      "Α_": 514,
      "'Ν'": 515,
      "'Ψ'": 516,
      "'B'": 517,
      "'k'": 518,
      "'ξ'": 519,
      "'σ'": 520,
      "'Μ'": 521,
      "'U'": 522,
      "'p'": 523,
      "'i'": 524,
      "'j'": 525,
      "'b'": 526,
      "'Θ'": 527,
      "Sum(log(": 528,
      "'Κ'": 529,
      "'ζ'": 530,
      "'l'": 531,
      "'A'": 532,
      "'M'": 533,
      "'r'": 534,
      "Κ_": 535,
      "'T'": 536,
      "Integral(log(": 537,
      "'ψ'": 538,
      "'Χ'": 539,
      "Derivative(log(": 540,
      "'C'": 541,
      "'x'": 542,
      "'u'": 543,
      "O'": 544,
      "'W'": 545,
      "'f'": 546,
      "'Λ'": 547,
      "'Φ'": 548,
      "I'": 549,
      "'Π'": 550,
      "'H'": 551,
      "Q'": 552,
      "S'": 553,
      ")**(sqrt(": 554,
      "'y'": 555,
      "'Ε'": 556,
      "'γ'": 557,
      ")/sqrt(": 558,
      "'Y'": 559,
      "(R": 560,
      "N'": 561,
      ")**log(": 562,
      "(Β": 563,
      "(D": 564,
      "(β": 565,
      "(G": 566,
      "E'": 567,
      "(L": 568,
      "(v": 569,
      "(V": 570,
      "(ι": 571,
      "(w": 572,
      "(K": 573,
      "ν_": 574,
      "(a": 575,
      "(Ι": 576,
      "(Ξ": 577,
      "(s": 578,
      "Z_": 579,
      "(j": 580,
      "(o": 581,
      "(Η": 582,
      "(Μ": 583,
      "(α": 584,
      "(κ": 585,
      "(J": 586,
      "(n": 587,
      "(Θ": 588,
      "(q": 589,
      "(k": 590,
      "(m": 591,
      "(B": 592,
      "(λ": 593,
      "(τ": 594,
      "'g_": 595,
      "(F": 596,
      "(Δ": 597,
      "*sqrt(": 598,
      "(c": 599,
      "(Τ": 600,
      "(h": 601,
      "(z": 602,
      "(g": 603,
      "(Ζ": 604,
      "ω_": 605,
      "(C": 606,
      "(θ": 607,
      "(φ": 608,
      "X_": 609,
      "(H": 610,
      "(i": 611,
      "(t": 612,
      "(Λ": 613,
      "(ζ": 614,
      "(χ": 615,
      "(P": 616,
      "(T": 617,
      "(p": 618,
      "(Α": 619,
      "(ρ": 620,
      "(E": 621,
      "(U": 622,
      "(d": 623,
      "(Ν": 624,
      "(Ο": 625,
      "(ε": 626,
      "(M": 627,
      "(r": 628,
      "(Γ": 629,
      "(u": 630,
      "(Σ": 631,
      "(Ω": 632,
      "(Ρ": 633,
      "(Υ": 634,
      "(υ": 635,
      "(ο": 636,
      "(σ": 637,
      "(δ": 638,
      "(A": 639,
      "(f": 640,
      "(Ψ": 641,
      "'Β_": 642,
      "(b": 643,
      "(Π": 644,
      "(l": 645,
      "(x": 646,
      "(W": 647,
      "(Χ": 648,
      "(η": 649,
      "(ξ": 650,
      "*log(": 651,
      "'ξ_": 652,
      "'H_": 653,
      "(y": 654,
      "(Φ": 655,
      "'C_": 656,
      ")*sqrt(": 657,
      "(Κ": 658,
      "1'": 659,
      "'ε_": 660,
      "9)))": 661,
      "'η_": 662,
      "'u_": 663,
      "(γ": 664,
      "'s_": 665,
      "'τ_": 666,
      "'Q_": 667,
      "'Ω_": 668,
      "'B_": 669,
      "'σ_": 670,
      "'E_": 671,
      "5)": 672,
      "'Λ_": 673,
      "'K_": 674,
      "'S_": 675,
      "'ζ_": 676,
      "'U_": 677,
      "'Θ_": 678,
      "'V_": 679,
      "(μ": 680,
      "'Ξ_": 681,
      "'β_": 682,
      "8)))": 683,
      "'Ρ_": 684,
      "'I_": 685,
      "'R_": 686,
      "'Π_": 687,
      "'Μ_": 688,
      "'w_": 689,
      "Q,": 690,
      "'D_": 691,
      "'υ_": 692,
      "(ψ": 693,
      "'c_": 694,
      "'κ_": 695,
      "'θ_": 696,
      "'Τ_": 697,
      "'Y_": 698,
      "'x_": 699,
      "'A_": 700,
      "(Ε": 701,
      "2'": 702,
      "'n_": 703,
      "'P_": 704,
      "'o_": 705,
      "4)))": 706,
      "'ψ_": 707,
      "'i_": 708,
      "'ρ_": 709,
      "6'": 710,
      "'l_": 711,
      "'Δ_": 712,
      "'Ι_": 713,
      "'Ν_": 714,
      "'W_": 715,
      "/2": 716,
      "'γ_": 717,
      "'ο_": 718,
      "4'": 719,
      "O,": 720,
      "'F_": 721,
      "'m_": 722,
      "'v_": 723,
      "'y_": 724,
      "(Y": 725,
      "3)": 726,
      "8'": 727,
      "'Ψ_": 728,
      "'M_": 729,
      "6)))": 730,
      "'χ_": 731,
      "'k_": 732,
      "5)))": 733,
      ")/(": 734,
      "'ν_": 735,
      "'b_": 736,
      "'Υ_": 737,
      "'α_": 738,
      "'L_": 739,
      "'Η_": 740,
      "'N_": 741,
      "'t_": 742,
      "'G_": 743,
      "'O_": 744,
      "'z_": 745,
      "'Z_": 746,
      "'J_": 747,
      "'Ζ_": 748,
      "'Γ_": 749,
      "'r_": 750,
      "'φ_": 751,
      "'q_": 752,
      "'j_": 753,
      "7'": 754,
      "N,": 755,
      "'f_": 756,
      "'d_": 757,
      "Z'": 758,
      "4)": 759,
      "6)": 760,
      "I,": 761,
      "'ω_": 762,
      "'X_": 763,
      "'h_": 764,
      "'Ε_": 765,
      "'Σ_": 766,
      "ω'": 767,
      "'ι_": 768,
      "'T_": 769,
      "'Ο_": 770,
      "3'": 771,
      "9)": 772,
      "'δ_": 773,
      "1)))": 774,
      "7)))": 775,
      "ν'": 776,
      "'Α_": 777,
      "'Χ_": 778,
      "'a_": 779,
      "2*": 780,
      "Α'": 781,
      "X'": 782,
      "'λ_": 783,
      "(g_": 784,
      "(ξ_": 785,
      "2)))": 786,
      "7)": 787,
      "'Φ_": 788,
      "'p_": 789,
      "4*": 790,
      "'Κ_": 791,
      "Κ'": 792,
      "8*": 793,
      "S,": 794,
      "7*": 795,
      "8)": 796,
      "9'": 797,
      "δ'": 798,
      "(Β_": 799,
      "(H_": 800,
      "(Β,": 801,
      "5'": 802,
      "'μ_": 803,
      "'O'": 804,
      "(ζ_": 805,
      "'Q'": 806,
      "5*": 807,
      "3)))": 808,
      "(E_": 809,
      "(I_": 810,
      "(D_": 811,
      "-sqrt(": 812,
      "(s_": 813,
      "(τ_": 814,
      "(ν,": 815,
      "(β,": 816,
      "(G,": 817,
      "(B_": 818,
      "(β_": 819,
      "(Ζ_": 820,
      "2)": 821,
      "(ε_": 822,
      "(Λ_": 823,
      "(J_": 824,
      "(D,": 825,
      "(h,": 826,
      "(n_": 827,
      "(G_": 828,
      "(Q,": 829,
      "(ω,": 830,
      "(Ν,": 831,
      "(V_": 832,
      "(c_": 833,
      "(ι,": 834,
      "(w,": 835,
      "(z,": 836,
      "(Ω_": 837,
      "(σ_": 838,
      "(Q_": 839,
      "(κ_": 840,
      "(R,": 841,
      "(Θ_": 842,
      ")/2),": 843,
      "(n,": 844,
      "(Ω,": 845,
      "(U_": 846,
      "(Μ_": 847,
      "(A_": 848,
      "(η_": 849,
      "(K_": 850,
      "(w_": 851,
      "(v,": 852,
      "(K,": 853,
      "(C_": 854,
      "(Ρ_": 855,
      "(Ν_": 856,
      "(L_": 857,
      "(f_": 858,
      "3*": 859,
      "(Μ,": 860,
      "(W_": 861,
      "(F_": 862,
      "(v_": 863,
      "(y_": 864,
      "(k_": 865,
      "(t_": 866,
      "9*": 867,
      "(Z,": 868,
      "(X,": 869,
      "(Η,": 870,
      "(i,": 871,
      "(S_": 872,
      "(R_": 873,
      "(Τ_": 874,
      "(o_": 875,
      "(M_": 876,
      "(L,": 877,
      "(Δ,": 878,
      "(Π_": 879,
      "(υ_": 880,
      "(θ_": 881,
      "(ν_": 882,
      "(a,": 883,
      "(j,": 884,
      "(τ,": 885,
      "(Τ,": 886,
      "(υ,": 887,
      "(Δ_": 888,
      "(Φ_": 889,
      "(Ι,": 890,
      "(κ,": 891,
      "(T,": 892,
      "'S'": 893,
      "'E'": 894,
      "(Ι_": 895,
      "(d_": 896,
      "(h_": 897,
      "(λ,": 898,
      "(H,": 899,
      "(d,": 900,
      "(u_": 901,
      "(Ξ_": 902,
      "(P_": 903,
      "(Z_": 904,
      "(X_": 905,
      "(ω_": 906,
      "(V,": 907,
      "(Θ,": 908,
      "(k,": 909,
      "(b,": 910,
      "'I'": 911,
      "(Y_": 912,
      "(m_": 913,
      "(O_": 914,
      "(O,": 915,
      "1)": 916,
      "(α,": 917,
      "(φ,": 918,
      "(Σ,": 919,
      "(Χ,": 920,
      "(Ψ_": 921,
      "(b_": 922,
      "(N_": 923,
      "(q_": 924,
      "(z_": 925,
      "(r_": 926,
      "(θ,": 927,
      "(ζ,": 928,
      "(p,": 929,
      "(x_": 930,
      "(ψ_": 931,
      "(ο_": 932,
      "(Η_": 933,
      "(φ_": 934,
      "2))": 935,
      "(q,": 936,
      "(B,": 937,
      "(C,": 938,
      "(χ,": 939,
      "(ρ,": 940,
      "(ε,": 941,
      "(M,": 942,
      "(Ξ,": 943,
      "(o,": 944,
      "(Υ,": 945,
      "(δ,": 946,
      "(f,": 947,
      "(l,": 948,
      "(ρ_": 949,
      "(T_": 950,
      "6*": 951,
      "(s,": 952,
      "(Λ,": 953,
      "(Α,": 954,
      "(r,": 955,
      "(l_": 956,
      "(i_": 957,
      "(γ_": 958,
      "(Ε_": 959,
      "(δ_": 960,
      "(Α_": 961,
      "5),": 962,
      "(m,": 963,
      "(c,": 964,
      "(A,": 965,
      "(μ,": 966,
      "(χ_": 967,
      "(Υ_": 968,
      "(Κ_": 969,
      "3),": 970,
      "(g,": 971,
      "(P,": 972,
      "(Γ,": 973,
      "(y,": 974,
      "(Κ,": 975,
      "(ψ,": 976,
      "'N'": 977,
      "(Γ_": 978,
      "(j_": 979,
      "(ι_": 980,
      "(p_": 981,
      "(I,": 982,
      "(J,": 983,
      "(σ,": 984,
      "(γ,": 985,
      "(α_": 986,
      "-log(": 987,
      "(Ζ,": 988,
      "(E,": 989,
      "(Ο,": 990,
      "(ο,": 991,
      "(x,": 992,
      "(η,": 993,
      "(ξ,": 994,
      "(u,": 995,
      "(λ_": 996,
      "(Ψ,": 997,
      "(a_": 998,
      "2),": 999,
      "7),": 1000,
      "(Ο_": 1001,
      "(t,": 1002,
      "(U,": 1003,
      "(Π,": 1004,
      "(Y,": 1005,
      "(Χ_": 1006,
      "(F,": 1007,
      "(Ρ,": 1008,
      "(S,": 1009,
      ")/2))": 1010,
      "(W,": 1011,
      "(N,": 1012,
      "**(sqrt(": 1013,
      "(Φ,": 1014,
      "4),": 1015,
      "6),": 1016,
      "6))": 1017,
      "io": 1018,
      "(Σ_": 1019,
      "4))": 1020,
      "5))": 1021,
      "8),": 1022,
      "υ))": 1023,
      "(Ε,": 1024,
      "9),": 1025,
      "Χ,": 1026,
      "Derivative(-sqrt(": 1027,
      "W,": 1028,
      "(μ_": 1029,
      "Ι))": 1030,
      "Ο))": 1031,
      "θ,": 1032,
      "1))": 1033,
      "w))": 1034,
      "7))": 1035,
      "d,": 1036,
      ")/2)": 1037,
      "8))": 1038,
      "c))": 1039,
      "U,": 1040,
      "al(": 1041,
      "nal(": 1042,
      "Η))": 1043,
      "ι))": 1044,
      "ω,": 1045,
      "atio": 1046,
      "/2),": 1047,
      "ational(": 1048,
      "3))": 1049,
      "G,": 1050,
      "Σ,": 1051,
      "β))": 1052,
      "λ,": 1053,
      "ν))": 1054,
      "v,": 1055,
      "Ο,": 1056,
      "Π,": 1057,
      "ε))": 1058,
      "η))": 1059,
      "A))": 1060,
      "Z))": 1061,
      "m))": 1062,
      "s))": 1063,
      "Γ,": 1064,
      "Λ))": 1065,
      "γ))": 1066,
      "ο))": 1067,
      "1),": 1068,
      "9))": 1069,
      "Z,": 1070,
      "j,": 1071,
      "Δ,": 1072,
      "Ζ))": 1073,
      "κ,": 1074,
      "(4*": 1075,
      "F))": 1076,
      "G))": 1077,
      "K))": 1078,
      "L))": 1079,
      "M))": 1080,
      "p,": 1081,
      "Υ,": 1082,
      "Sum(-sqrt(": 1083,
      "o,": 1084,
      "Ψ,": 1085,
      "ξ,": 1086,
      "(8*": 1087,
      "h,": 1088,
      "m,": 1089,
      "o))": 1090,
      "u))": 1091,
      "Β))": 1092,
      "Λ,": 1093,
      "β,": 1094,
      "μ))": 1095,
      "τ,": 1096,
      "ψ))": 1097,
      "Integral(-sqrt(": 1098,
      "P))": 1099,
      "X))": 1100,
      "a))": 1101,
      "x))": 1102,
      "Α,": 1103,
      "Γ))": 1104,
      "Ρ))": 1105,
      "ψ,": 1106,
      "D))": 1107,
      "M,": 1108,
      "g,": 1109,
      "q,": 1110,
      "z))": 1111,
      "Ε))": 1112,
      "Ν,": 1113,
      "Φ,": 1114,
      "α))": 1115,
      "ι,": 1116,
      "ρ,": 1117,
      "A,": 1118,
      "F,": 1119,
      "a,": 1120,
      "p))": 1121,
      "s,": 1122,
      "Θ,": 1123,
      "Ι,": 1124,
      "Σ)": 1125,
      "Τ))": 1126,
      "δ,": 1127,
      "λ))": 1128,
      "μ,": 1129,
      "ο,": 1130,
      "σ))": 1131,
      "(2*": 1132,
      "B))": 1133,
      "C,": 1134,
      "V,": 1135,
      "Y))": 1136,
      "t,": 1137,
      "y))": 1138,
      "Γ)": 1139,
      "Ζ,": 1140,
      "ε,": 1141,
      "φ))": 1142,
      "χ,": 1143,
      "**(log(": 1144,
      "D)": 1145,
      "L,": 1146,
      "P,": 1147,
      "i,": 1148,
      "r))": 1149,
      "Κ,": 1150,
      "Ξ))": 1151,
      "Ρ,": 1152,
      "Τ,": 1153,
      "Υ))": 1154,
      "η,": 1155,
      "θ))": 1156,
      "ξ))": 1157,
      "ρ))": 1158,
      "φ,": 1159,
      "χ))": 1160,
      "(7*": 1161,
      "R,": 1162,
      "R))": 1163,
      "h))": 1164,
      "r,": 1165,
      "Π))": 1166,
      "ε)": 1167,
      "ζ,": 1168,
      "ζ))": 1169,
      "τ))": 1170,
      "υ,": 1171,
      "(5*": 1172,
      "E,": 1173,
      "J))": 1174,
      "P)": 1175,
      "Rational(": 1176,
      "b,": 1177,
      "d)": 1178,
      "d))": 1179,
      "u)": 1180,
      "Β,": 1181,
      "Κ))": 1182,
      "α,": 1183,
      "δ))": 1184,
      "ψ)": 1185,
      "H,": 1186,
      "T,": 1187,
      "X,": 1188,
      "c)": 1189,
      "Δ))": 1190,
      "Σ))": 1191,
      "Ψ))": 1192,
      "κ))": 1193,
      "C))": 1194,
      "K,": 1195,
      "V))": 1196,
      "l))": 1197,
      "m)": 1198,
      "n))": 1199,
      "q))": 1200,
      "Η,": 1201,
      "9)*": 1202,
      "J,": 1203,
      "T))": 1204,
      "f))": 1205,
      "g))": 1206,
      "n,": 1207,
      "t))": 1208,
      "Α))": 1209,
      "γ,": 1210,
      "ν),": 1211,
      "ω))": 1212,
      "cosh": 1213,
      "**log(": 1214,
      "(6*": 1215,
      "U))": 1216,
      "Y,": 1217,
      "b))": 1218,
      "c,": 1219,
      "i))": 1220,
      "l,": 1221,
      "u,": 1222,
      "v))": 1223,
      "w)": 1224,
      "x,": 1225,
      "Μ,": 1226,
      "Ω))": 1227,
      "ο)": 1228,
      "G)": 1229,
      "J)": 1230,
      "X)": 1231,
      "y,": 1232,
      "Ε,": 1233,
      "Θ))": 1234,
      "Μ))": 1235,
      "ζ)": 1236,
      "κ)": 1237,
      "μ)": 1238,
      "ν,": 1239,
      "A)": 1240,
      "H))": 1241,
      "R)": 1242,
      "k)": 1243,
      "z,": 1244,
      "Ν))": 1245,
      "Π)": 1246,
      "ν)": 1247,
      "τ)": 1248,
      "6)*": 1249,
      "f)": 1250,
      "w,": 1251,
      "Ι)": 1252,
      "Ξ)": 1253,
      "Ξ,": 1254,
      "Φ))": 1255,
      "Ω,": 1256,
      "γ)": 1257,
      "η)": 1258,
      "ι)": 1259,
      "υ),": 1260,
      "φ)": 1261,
      "χ)": 1262,
      "χ),": 1263,
      "ω)": 1264,
      "W))": 1265,
      "f,": 1266,
      "r)": 1267,
      "v)": 1268,
      "Ο)": 1269,
      "Χ))": 1270,
      "α),": 1271,
      "λ),": 1272,
      "Sum(-log(": 1273,
      "2*sqrt(": 1274,
      "2)*sqrt(": 1275,
      "D,": 1276,
      "j))": 1277,
      "o)": 1278,
      "x)": 1279,
      "z)": 1280,
      "Δ)": 1281,
      "Ζ)": 1282,
      "Ν)": 1283,
      "Χ)": 1284,
      "λ)": 1285,
      "φ)))": 1286,
      "(9*": 1287,
      "C)": 1288,
      "k))": 1289,
      "l)": 1290,
      "Κ)": 1291,
      "Λ)": 1292,
      "Ρ)": 1293,
      "Ω)": 1294,
      "ρ),": 1295,
      "σ)": 1296,
      ")/8,": 1297,
      "(3*": 1298,
      "K)": 1299,
      "T)": 1300,
      "W)": 1301,
      "g)": 1302,
      "h)": 1303,
      "t)": 1304,
      "Ι),": 1305,
      "Μ)": 1306,
      "Τ)": 1307,
      "Φ)": 1308,
      "σ,": 1309,
      "**Rational(": 1310,
      "B,": 1311,
      "M)": 1312,
      "a)": 1313,
      "k,": 1314,
      "α)": 1315,
      "ι),": 1316,
      "5)*": 1317,
      "L)": 1318,
      "a),": 1319,
      "a)))": 1320,
      "c)))": 1321,
      "n)": 1322,
      "z)))": 1323,
      "Κ)))": 1324,
      "Ο),": 1325,
      "Υ),": 1326,
      "Ψ)": 1327,
      "β)": 1328,
      "δ)": 1329,
      "Derivative(-log(": 1330,
      "B)": 1331,
      "O)))": 1332,
      "b)": 1333,
      "v)))": 1334,
      "y)": 1335,
      "Ε)": 1336,
      "δ),": 1337,
      "ε)))": 1338,
      "θ)": 1339,
      "ξ)": 1340,
      ")/4,": 1341,
      "(κ),": 1342,
      "A),": 1343,
      "F)": 1344,
      "K),": 1345,
      "Y)": 1346,
      "Z)": 1347,
      "Η)": 1348,
      "Θ)": 1349,
      "ε),": 1350,
      "ξ),": 1351,
      "ρ)": 1352,
      ")**(log(": 1353,
      "Integral(-log(": 1354,
      "/2)": 1355,
      "/log(": 1356,
      "/sqrt(": 1357,
      "K)))": 1358,
      "q)": 1359,
      "w),": 1360,
      "Β)": 1361,
      "θ),": 1362,
      "μ)))": 1363,
      "ο)))": 1364,
      "σ),": 1365,
      "σ)))": 1366,
      "**4": 1367,
      "(θ),": 1368,
      "(t)": 1369,
      "3)*": 1370,
      "S)))": 1371,
      "T)))": 1372,
      "Z),": 1373,
      "n)))": 1374,
      "o),": 1375,
      "p)": 1376,
      "q)))": 1377,
      "t)))": 1378,
      "Α)))": 1379,
      "Μ),": 1380,
      "Υ)": 1381,
      "Ω),": 1382,
      ")/5,": 1383,
      "(Ι)": 1384,
      "2)*": 1385,
      "8)*": 1386,
      "H)": 1387,
      "i)": 1388,
      "s)": 1389,
      "β),": 1390,
      "β)))": 1391,
      "η)))": 1392,
      "κ)))": 1393,
      "ψ),": 1394,
      "(Γ)": 1395,
      "(υ),": 1396,
      "3*sqrt(": 1397,
      "F)))": 1398,
      "Α)": 1399,
      "Α),": 1400,
      "Β),": 1401,
      "Ε),": 1402,
      "Λ),": 1403,
      "Ρ),": 1404,
      "Ψ),": 1405,
      "δ)))": 1406,
      "η),": 1407,
      "κ),": 1408,
      "ο),": 1409,
      "(j)": 1410,
      "(r),": 1411,
      "D),": 1412,
      "G)))": 1413,
      "R),": 1414,
      "W),": 1415,
      "Z)))": 1416,
      "h),": 1417,
      "j)": 1418,
      "j),": 1419,
      "q),": 1420,
      "Ε)))": 1421,
      "Τ),": 1422,
      "Φ),": 1423,
      "μ),": 1424,
      ")/7": 1425,
      ")/3,": 1426,
      "1)*": 1427,
      "4**": 1428,
      "7)*": 1429,
      "B)))": 1430,
      "C),": 1431,
      "I))": 1432,
      "O)": 1433,
      "P),": 1434,
      "Q)": 1435,
      "S))": 1436,
      "V)": 1437,
      "c),": 1438,
      "l),": 1439,
      "m),": 1440,
      "o)))": 1441,
      "Β)))": 1442,
      "Δ),": 1443,
      "Ι)))": 1444,
      "Σ)))": 1445,
      "Υ)))": 1446,
      "Φ)))": 1447,
      "Χ),": 1448,
      ")/2)*": 1449,
      "(s),": 1450,
      "(J)": 1451,
      "(k),": 1452,
      "(λ)": 1453,
      "(Α)": 1454,
      "(Σ),": 1455,
      "3)*sqrt(": 1456,
      "6)**": 1457,
      "B),": 1458,
      "E),": 1459,
      "G),": 1460,
      "H)))": 1461,
      "I),": 1462,
      "J),": 1463,
      "Q))": 1464,
      "S)": 1465,
      "U),": 1466,
      "X)))": 1467,
      "Y)))": 1468,
      "k)))": 1469,
      "p),": 1470,
      "y),": 1471,
      "z),": 1472,
      "Χ)))": 1473,
      "α)))": 1474,
      "θ)))": 1475,
      "ξ)))": 1476,
      "ρ)))": 1477,
      "τ),": 1478,
      "τ)))": 1479,
      "ω),": 1480,
      "(V),": 1481,
      "(ι),": 1482,
      "(Ι),": 1483,
      "(α),": 1484,
      "(m),": 1485,
      "(E),": 1486,
      "(Ψ),": 1487,
      "(Π)": 1488,
      "7)**": 1489,
      "M),": 1490,
      "O))": 1491,
      "S),": 1492,
      "U)))": 1493,
      "m)))": 1494,
      "n),": 1495,
      "v),": 1496,
      "x)))": 1497,
      "Γ),": 1498,
      "Γ)))": 1499,
      "Ζ),": 1500,
      "Η),": 1501,
      "Η)))": 1502,
      "Θ)))": 1503,
      "Π),": 1504,
      "Ρ)))": 1505,
      "Σ),": 1506,
      "ν)))": 1507,
      "ψ)))": 1508,
      ")/4": 1509,
      ")/3)": 1510,
      "(ν),": 1511,
      "(ω),": 1512,
      "(β),": 1513,
      "(v),": 1514,
      "(V)": 1515,
      "(w),": 1516,
      "(K)": 1517,
      "(J),": 1518,
      "(B)": 1519,
      "(C)": 1520,
      "(θ)": 1521,
      "(ε)": 1522,
      "(f),": 1523,
      "(Π),": 1524,
      "(Φ)": 1525,
      "(ψ),": 1526,
      "/4)": 1527,
      "D)))": 1528,
      "E))": 1529,
      "I)": 1530,
      "M)))": 1531,
      "R)))": 1532,
      "T)*": 1533,
      "T),": 1534,
      "U)": 1535,
      "h)))": 1536,
      "i),": 1537,
      "l)))": 1538,
      "p)))": 1539,
      "x)*": 1540,
      "y)))": 1541,
      "Ζ)))": 1542,
      "Ν)))": 1543,
      "Ο)))": 1544,
      "Ω)*": 1545,
      "γ)))": 1546,
      "ζ),": 1547,
      "ι)))": 1548,
      "υ)": 1549,
      "ω)))": 1550,
      ")/7,": 1551,
      "(Z),": 1552,
      "(X)": 1553,
      "(X),": 1554,
      "(R)": 1555,
      "(L)": 1556,
      "(a)": 1557,
      "(Ξ)": 1558,
      "(Μ),": 1559,
      "(τ),": 1560,
      "(H)": 1561,
      "(Λ),": 1562,
      "(P),": 1563,
      "(ρ)": 1564,
      "(ε),": 1565,
      "(u),": 1566,
      "(Ρ)": 1567,
      "(Υ),": 1568,
      "12": 1569,
      "4)*": 1570,
      "7)*sqrt(": 1571,
      "C)))": 1572,
      "E)))": 1573,
      "J)))": 1574,
      "N))": 1575,
      "P)))": 1576,
      "V)))": 1577,
      "b),": 1578,
      "d)))": 1579,
      "g)))": 1580,
      "h)*": 1581,
      "j)))": 1582,
      "r),": 1583,
      "Κ),": 1584,
      "Τ)))": 1585,
      "Ω)))": 1586,
      "χ)))": 1587,
      ")/2,": 1588,
      ")/9)": 1589,
      "(Β),": 1590,
      "(D)": 1591,
      "(L),": 1592,
      "(Ξ))": 1593,
      "(Μ)": 1594,
      "(Θ)": 1595,
      "(q),": 1596,
      "(c)": 1597,
      "(φ),": 1598,
      "(x),": 1599,
      "(W)": 1600,
      "(W),": 1601,
      "(Κ)": 1602,
      "7)/": 1603,
      "9**": 1604,
      "F),": 1605,
      "W)))": 1606,
      "d)*": 1607,
      "d),": 1608,
      "g),": 1609,
      "x),": 1610,
      "Ψ)))": 1611,
      "λ)))": 1612,
      "υ)))": 1613,
      "φ),": 1614,
      "ψG": 1615,
      ")/9,": 1616,
      ")**2,": 1617,
      ")**6,": 1618,
      "**7),": 1619,
      "**6),": 1620,
      "(G),": 1621,
      "(o),": 1622,
      "(Η)": 1623,
      "(α)": 1624,
      "(Θ))": 1625,
      "(Δ),": 1626,
      "(c),": 1627,
      "(Τ),": 1628,
      "(z)": 1629,
      "(Ζ)": 1630,
      "(ζ),": 1631,
      "(χ))": 1632,
      "(p),": 1633,
      "(E))": 1634,
      "(U)": 1635,
      "(r)": 1636,
      "(Ω),": 1637,
      "(δ)": 1638,
      "(f)": 1639,
      "(η)": 1640,
      "(ξ)": 1641,
      "(y)": 1642,
      "/2))": 1643,
      ")/(sqrt(": 1644,
      "cosh(": 1645,
      "/9)": 1646,
      "4)/": 1647,
      "6**": 1648,
      "9)**": 1649,
      "B)*": 1650,
      "L),": 1651,
      "N)))": 1652,
      "Y),": 1653,
      "n)*": 1654,
      "q)*": 1655,
      "s),": 1656,
      "u),": 1657,
      "Β)*": 1658,
      "Γη": 1659,
      "Δ)))": 1660,
      "Θ),": 1661,
      "Ο)*": 1662,
      "Π)))": 1663,
      "Τω": 1664,
      "ν)*": 1665,
      "ο)*": 1666,
      "χ)*": 1667,
      "ω)*": 1668,
      ")/7)": 1669,
      ")**8,": 1670,
      "**3": 1671,
      "**9),": 1672,
      "(ν))": 1673,
      "(β)": 1674,
      "(Θ),": 1675,
      "(g),": 1676,
      "(T)": 1677,
      "(p))": 1678,
      "(Ν)": 1679,
      "(Ο))": 1680,
      "(Ρ),": 1681,
      "(ο),": 1682,
      "(A)": 1683,
      "(l)": 1684,
      "/5)": 1685,
      "/9),": 1686,
      "5)**": 1687,
      "6*sqrt(": 1688,
      "8**": 1689,
      "A)*": 1690,
      "H),": 1691,
      "N)": 1692,
      "R)*": 1693,
      "W)*": 1694,
      "X)*": 1695,
      "b)))": 1696,
      "f)))": 1697,
      "i)*": 1698,
      "r)))": 1699,
      "t),": 1700,
      "w)))": 1701,
      "Η)*": 1702,
      "Ν),": 1703,
      "Ξ),": 1704,
      "Π)*": 1705,
      "ΨW": 1706,
      "Ψ)*": 1707,
      "β)*": 1708,
      "β)**": 1709,
      "γα": 1710,
      "ζ)))": 1711,
      "ι)*": 1712,
      "ξ)*": 1713,
      "υK": 1714,
      "φι": 1715,
      ")**9,": 1716,
      "**5)": 1717,
      "**6)": 1718,
      "**5))": 1719,
      "(Z)": 1720,
      "(G)": 1721,
      "(Ξ),": 1722,
      "(Η))": 1723,
      "(n),": 1724,
      "(q))": 1725,
      "(λ),": 1726,
      "(τ))": 1727,
      "(F),": 1728,
      "(z),": 1729,
      "(g)": 1730,
      "(Ζ),": 1731,
      "(φ))": 1732,
      "(t),": 1733,
      "(Λ)": 1734,
      "(ζ)": 1735,
      "(Α),": 1736,
      "(Ν),": 1737,
      "(Ο),": 1738,
      "(Γ),": 1739,
      "(Ω)": 1740,
      "(σ)**": 1741,
      "(Ε)": 1742,
      "/7),": 1743,
      "2)/": 1744,
      "2**": 1745,
      "2*log(": 1746,
      "5*log(": 1747,
      "71": 1748,
      "A)))": 1749,
      "L)))": 1750,
      "Mc": 1751,
      "Yo": 1752,
      "f),": 1753,
      "k),": 1754,
      "o)*": 1755,
      "p)*": 1756,
      "Ε)*": 1757,
      "ΚΠ": 1758,
      "Ξ)*": 1759,
      "γ),": 1760,
      "ζτ": 1761,
      ")/6,": 1762,
      ")**5,": 1763,
      "**3)": 1764,
      "**4)": 1765,
      "**9)": 1766,
      "**2)": 1767,
      "**2),": 1768,
      "(Z))": 1769,
      "(R),": 1770,
      "(Rational(": 1771,
      "(β))": 1772,
      "(ι)": 1773,
      "(K),": 1774,
      "(a),": 1775,
      "(s)": 1776,
      "(o)**": 1777,
      "(Η),": 1778,
      "(k)": 1779,
      "(τ)": 1780,
      "(F)": 1781,
      "(Δ))": 1782,
      "(C),": 1783,
      "(φ)": 1784,
      "(ζ))": 1785,
      "(P)": 1786,
      "(p)": 1787,
      "(U),": 1788,
      "(Ο)": 1789,
      "(u)": 1790,
      "(σ)": 1791,
      "(δ),": 1792,
      "(b),": 1793,
      "(γ),": 1794,
      "(μ),": 1795,
      "(Y)": 1796,
      "**Rational(9,": 1797,
      "/6)": 1798,
      "/8)": 1799,
      "/5),": 1800,
      "/3),": 1801,
      "/8),": 1802,
      "5*sqrt(": 1803,
      "EΡ": 1804,
      "G)*": 1805,
      "KΛ": 1806,
      "L)*": 1807,
      "L)**": 1808,
      "P)*": 1809,
      "Q),": 1810,
      "X),": 1811,
      "bO": 1812,
      "b)*": 1813,
      "i)))": 1814,
      "m)*": 1815,
      "s)*": 1816,
      "u)))": 1817,
      "u)**": 1818,
      "wΒ": 1819,
      "w)*": 1820,
      "Γ)*": 1821,
      "Ζ)*": 1822,
      "Λ)))": 1823,
      "Χλ": 1824,
      "ΨL": 1825,
      "θ)*": 1826,
      "λ)*": 1827,
      "τ)*": 1828,
      "log(K_": 1829,
      ")/4)": 1830,
      "**3),": 1831,
      "**4),": 1832,
      "l_7": 1833,
      "(ν)": 1834,
      "(α))": 1835,
      "(n))": 1836,
      "(B))": 1837,
      "(B),": 1838,
      "(Δ)": 1839,
      "(h)": 1840,
      "(z))": 1841,
      "(Ζ))": 1842,
      "(C))": 1843,
      "(t))": 1844,
      "(χ),": 1845,
      "(T),": 1846,
      "(ρ),": 1847,
      "(Σ))": 1848,
      "(Ρ))": 1849,
      "(Υ))": 1850,
      "(σ))": 1851,
      "(σ),": 1852,
      "(A),": 1853,
      "(x))": 1854,
      "(W))": 1855,
      "(η),": 1856,
      "(y),": 1857,
      "(γ))": 1858,
      "(Rational(1,": 1859,
      "/7)": 1860,
      "2/": 1861,
      "2)**": 1862,
      "5)/": 1863,
      "5**": 1864,
      "7**": 1865,
      "7*sqrt(": 1866,
      "8Y": 1867,
      "9)/": 1868,
      "AI": 1869,
      "CΦ": 1870,
      "Cζ": 1871,
      "C)*": 1872,
      "F)/": 1873,
      "Hb": 1874,
      "I)))": 1875,
      "JΓ": 1876,
      "M)*": 1877,
      "OA": 1878,
      "a3": 1879,
      "a)/": 1880,
      "b)**": 1881,
      "fΒ": 1882,
      "fσ": 1883,
      "j)*": 1884,
      "l)*": 1885,
      "m*": 1886,
      "mΨ": 1887,
      "n)**": 1888,
      "qΥ": 1889,
      "t**": 1890,
      "y)**": 1891,
      "zW": 1892,
      "ΒB": 1893,
      "Β)/": 1894,
      "Η)**": 1895,
      "Κ)*": 1896,
      "Λ)*": 1897,
      "Μυ": 1898,
      "Π)/": 1899,
      "Ω8": 1900,
      "Ω)**": 1901,
      "γ)*": 1902,
      "κ)*": 1903,
      "μ)*": 1904,
      "ρ)*": 1905,
      "φ)*": 1906,
      "**6)*": 1907,
      "(v)": 1908,
      "(V))": 1909,
      "(ι))": 1910,
      "(o)": 1911,
      "(o))": 1912,
      "(κ)": 1913,
      "(J))": 1914,
      "(n)": 1915,
      "(h))": 1916,
      "(g))": 1917,
      "(H))": 1918,
      "(χ)": 1919,
      "(d)": 1920,
      "(d),": 1921,
      "(Υ)": 1922,
      "(ο)": 1923,
      "(Χ),": 1924,
      "(ξ),": 1925,
      "(Κ),": 1926,
      "/2)*": 1927,
      "/4": 1928,
      "1ε": 1929,
      "2)),": 1930,
      "3)**": 1931,
      "4δ": 1932,
      "4ζ": 1933,
      "4*sqrt(": 1934,
      "5Z": 1935,
      "5n": 1936,
      "6)/": 1937,
      "6)*sqrt(": 1938,
      "8*log(": 1939,
      "FE": 1940,
      "FZ": 1941,
      "F)*": 1942,
      "Gd": 1943,
      "K)/": 1944,
      "Lp": 1945,
      "NC": 1946,
      "NG": 1947,
      "N),": 1948,
      "QΛ": 1949,
      "S)*": 1950,
      "U)*": 1951,
      "Wτ": 1952,
      "Y)*": 1953,
      "b)/": 1954,
      "d)**": 1955,
      "f)*": 1956,
      "g)/": 1957,
      "jk": 1958,
      "pQ": 1959,
      "qp": 1960,
      "rθ": 1961,
      "s5": 1962,
      "s)**": 1963,
      "tΓ": 1964,
      "t)*": 1965,
      "vΞ": 1966,
      "ΔΞ": 1967,
      "Δ)*": 1968,
      "Ε)**": 1969,
      "Ζι": 1970,
      "Ι*": 1971,
      "ΚΓ": 1972,
      "Μ)))": 1973,
      "Ξv": 1974,
      "ΣB": 1975,
      "Υλ": 1976,
      "Υ)/": 1977,
      "Φ)/": 1978,
      "ε6": 1979,
      "εξ": 1980,
      "ζ)*": 1981,
      "θ)/": 1982,
      "ξ)**": 1983,
      "ο)**": 1984,
      "τΝ": 1985,
      "χκ": 1986,
      "ψ)*": 1987,
      "log(-": 1988,
      ")**7,": 1989,
      ")**8)": 1990,
      "**8),": 1991,
      "**9))": 1992,
      "Β_χ": 1993,
      ")**(-": 1994,
      "(X))": 1995,
      "(Β)": 1996,
      "(L))": 1997,
      "(w)": 1998,
      "ν_1": 1999,
      "(s))": 2000,
      "(s)/": 2001,
      "(q)": 2002,
      "(k))": 2003,
      "(g)**": 2004,
      "(i))": 2005,
      "(i),": 2006,
      "(Λ))": 2007,
      "(P))": 2008,
      "(M)": 2009,
      "(M),": 2010,
      "(υ))": 2011,
      "(ο))": 2012,
      "(ο)**": 2013,
      "(δ))": 2014,
      "(η))": 2015,
      "(Φ)**": 2016,
      "(γ)": 2017,
      "(ψ)": 2018,
      "/4),": 2019,
      "/6),": 2020,
      "/4))": 2021,
      "1)/": 2022,
      "21": 2023,
      "2y": 2024,
      "3/": 2025,
      "3γ": 2026,
      "3**": 2027,
      "45": 2028,
      "48": 2029,
      "5)*sqrt(": 2030,
      "6ψ": 2031,
      "7F": 2032,
      "8/": 2033,
      "8D": 2034,
      "8)**": 2035,
      "9Π": 2036,
      "A8": 2037,
      "DE": 2038,
      "Gu": 2039,
      "GΔ": 2040,
      "H5": 2041,
      "HΔ": 2042,
      "JΒ": 2043,
      "KΘ": 2044,
      "K)*": 2045,
      "M)**": 2046,
      "O),": 2047,
      "Q)))": 2048,
      "R)/": 2049,
      "U)**": 2050,
      "YT": 2051,
      "Z)*": 2052,
      "c)**": 2053,
      "d)/": 2054,
      "g*": 2055,
      "gυ": 2056,
      "lm": 2057,
      "mG": 2058,
      "p)/": 2059,
      "qΦ": 2060,
      "r)*": 2061,
      "u3": 2062,
      "u)*": 2063,
      "v2": 2064,
      "v)*": 2065,
      "wQ": 2066,
      "y)*": 2067,
      "Αο": 2068,
      "Βυ": 2069,
      "Δ9": 2070,
      "ΕQ": 2071,
      "Η)/": 2072,
      "ΘP": 2073,
      "Θυ": 2074,
      "Ι)*": 2075,
      "Λψ": 2076,
      "Μ)*": 2077,
      "Μ)**": 2078,
      "Ν7": 2079,
      "Ρ8": 2080,
      "ΡW": 2081,
      "Σ)*": 2082,
      "Τ1": 2083,
      "ΦΒ": 2084,
      "α)/": 2085,
      "α)**": 2086,
      "γ)/": 2087,
      "δH": 2088,
      "δκ": 2089,
      "δ)*": 2090,
      "εM": 2091,
      "ελ": 2092,
      "η)*": 2093,
      "η)**": 2094,
      "μV": 2095,
      "ν)**": 2096,
      "ξΑ": 2097,
      "σz": 2098,
      "συ": 2099,
      "σ)*": 2100,
      "χΖ": 2101,
      "χ)/": 2102,
      "ψυ": 2103,
      "ωB": 2104,
      "log(u_": 2105,
      "**4))": 2106,
      "l_3": 2107,
      "γ_l": 2108,
      "b_V": 2109,
      "α_p": 2110,
      "(ω)": 2111,
      "(ω))": 2112,
      "Α_b": 2113,
      "(R)/": 2114,
      "(Β))": 2115,
      "(G)**": 2116,
      "(v))": 2117,
      "(w))": 2118,
      "(a))": 2119,
      "(Ι))": 2120,
      "(j),": 2121,
      "(m)": 2122,
      "(F))": 2123,
      "(c)**": 2124,
      "(Τ)": 2125,
      "(Τ)**": 2126,
      "(h),": 2127,
      "(ρ)**": 2128,
      "(d))": 2129,
      "(ε))": 2130,
      "(M)**": 2131,
      "(Ω))": 2132,
      "(Ψ))": 2133,
      "(Χ))": 2134,
      "(ξ))": 2135,
      "(ξ)**": 2136,
      "(Φ),": 2137,
      "(Y),": 2138,
      ")/(log(": 2139,
      "/3)": 2140,
      "/5))": 2141,
      "1/": 2142,
      "2z": 2143,
      "2)*log(": 2144,
      "3)/": 2145,
      "4n": 2146,
      "4Ξ": 2147,
      "4*log(": 2148,
      "5a": 2149,
      "6*log(": 2150,
      "76": 2151,
      "7P": 2152,
      "8a": 2153,
      "9*sqrt(": 2154,
      "Ah": 2155,
      "A)/": 2156,
      "BA": 2157,
      "C*": 2158,
      "C)/": 2159,
      "C)**": 2160,
      "D*": 2161,
      "E)": 2162,
      "E*": 2163,
      "EM": 2164,
      "Gh": 2165,
      "H*": 2166,
      "H)*": 2167,
      "H)/": 2168,
      "I9": 2169,
      "Iy": 2170,
      "J*": 2171,
      "JG": 2172,
      "KT": 2173,
      "Kb": 2174,
      "Lt": 2175,
      "L)/": 2176,
      "L**(": 2177,
      "M9": 2178,
      "Nn": 2179,
      "Nt": 2180,
      "RB": 2181,
      "Rγ": 2182,
      "U*": 2183,
      "Vψ": 2184,
      "V),": 2185,
      "W6": 2186,
      "X2": 2187,
      "X**": 2188,
      "Y)**": 2189,
      "Z1": 2190,
      "Zκ": 2191,
      "ay": 2192,
      "aδ": 2193,
      "a)*": 2194,
      "c)*": 2195,
      "d*": 2196,
      "dr": 2197,
      "dψ": 2198,
      "f*": 2199,
      "fY": 2200,
      "h*": 2201,
      "jΔ": 2202,
      "jι": 2203,
      "mV": 2204,
      "n9": 2205,
      "ny": 2206,
      "nz": 2207,
      "o*": 2208,
      "oφ": 2209,
      "pδ": 2210,
      "qF": 2211,
      "s)))": 2212,
      "t*": 2213,
      "tD": 2214,
      "u*": 2215,
      "uρ": 2216,
      "wΤ": 2217,
      "yl": 2218,
      "zν": 2219,
      "z)**": 2220,
      "Α1": 2221,
      "Α9": 2222,
      "ΑS": 2223,
      "Α)*": 2224,
      "ΒG": 2225,
      "Γl": 2226,
      "Δz": 2227,
      "ΕΞ": 2228,
      "ΖΗ": 2229,
      "Κ1": 2230,
      "ΛE": 2231,
      "Μψ": 2232,
      "Ν*": 2233,
      "Νο": 2234,
      "Ξ)))": 2235,
      "Οβ": 2236,
      "ΠQ": 2237,
      "Πl": 2238,
      "Πy": 2239,
      "ΠΤ": 2240,
      "Ρy": 2241,
      "Σ*": 2242,
      "ΣC": 2243,
      "Σa": 2244,
      "Σ)**": 2245,
      "Τ*": 2246,
      "ΥΣ": 2247,
      "Υ)**": 2248,
      "Φ)**": 2249,
      "Ψ3": 2250,
      "ΨH": 2251,
      "Ψα": 2252,
      "Ω*": 2253,
      "Ωγ": 2254,
      "Ω**": 2255,
      "εC": 2256,
      "ει": 2257,
      "ζo": 2258,
      "ζ)/": 2259,
      "θu": 2260,
      "θχ": 2261,
      "ιW": 2262,
      "κΧ": 2263,
      "κ)/": 2264,
      "λη": 2265,
      "μο": 2266,
      "μ)/": 2267,
      "οt": 2268,
      "ρz": 2269,
      "σb": 2270,
      "υ)/": 2271,
      "φC": 2272,
      "χR": 2273,
      "ψR": 2274,
      "ω3": 2275,
      "ωη": 2276,
      "ω**": 2277,
      "log(C_": 2278,
      "log(w_": 2279,
      "log(m_": 2280,
      ")/6)": 2281,
      "Integral(2*sqrt(": 2282,
      "Derivative(2*": 2283,
      "Derivative(4*": 2284,
      "Derivative(9*": 2285,
      "**5),": 2286,
      "**3))": 2287,
      "Λ_Η": 2288,
      "B_6": 2289,
      "D_Η": 2290,
      "Υ_8": 2291,
      "J_z": 2292,
      "z_R": 2293,
      ")/2)/": 2294,
      ")/2)),": 2295,
      "(Z)*": 2296,
      "(D)*": 2297,
      "(D),": 2298,
      "(G))": 2299,
      "(G)/": 2300,
      "(L)*": 2301,
      "(ι)**": 2302,
      "(w)/": 2303,
      "(a)**": 2304,
      "(Μ))": 2305,
      "(J)/": 2306,
      "(m/": 2307,
      "(m))": 2308,
      "(B)*": 2309,
      "(τ)**": 2310,
      "(F)**": 2311,
      "(Τ))": 2312,
      "(θ))": 2313,
      "(H),": 2314,
      "(H)**": 2315,
      "(χ)/": 2316,
      "(χ)**": 2317,
      "(T))": 2318,
      "(Α/": 2319,
      "(ρ))": 2320,
      "(E)*": 2321,
      "(E)/": 2322,
      "(Ο)/": 2323,
      "(M))": 2324,
      "(u))": 2325,
      "(u)**": 2326,
      "(Ρ)*": 2327,
      "(Υ)**": 2328,
      "(A))": 2329,
      "(Ψ)": 2330,
      "(b)": 2331,
      "(x)": 2332,
      "(x)*": 2333,
      "(W)/": 2334,
      "(η)**": 2335,
      "(y))": 2336,
      "(μ))": 2337,
      "(Ε),": 2338,
      "-V": 2339,
      "/6))": 2340,
      "/8))": 2341,
      "/9))": 2342,
      "1l": 2343,
      "2u": 2344,
      "2Τ": 2345,
      "3C": 2346,
      "3*log(": 2347,
      "4Y": 2348,
      "4d": 2349,
      "4Β": 2350,
      "59": 2351,
      "5Κ": 2352,
      "6μ": 2353,
      "7C": 2354,
      "7q": 2355,
      "7ο": 2356,
      "8*sqrt(": 2357,
      "9/": 2358,
      "9k": 2359,
      "B2": 2360,
      "B3": 2361,
      "CJ": 2362,
      "Ca": 2363,
      "Cψ": 2364,
      "Dε": 2365,
      "Dχ": 2366,
      "E)*": 2367,
      "Gt": 2368,
      "GΛ": 2369,
      "Hi": 2370,
      "IΣ": 2371,
      "J)*": 2372,
      "J)/": 2373,
      "Ky": 2374,
      "KΖ": 2375,
      "L*": 2376,
      "LI": 2377,
      "Lr": 2378,
      "Ly": 2379,
      "LΧ": 2380,
      "N)*": 2381,
      "PK": 2382,
      "P)**": 2383,
      "Qβ": 2384,
      "Rα": 2385,
      "Sχ": 2386,
      "Th": 2387,
      "Tφ": 2388,
      "Uτ": 2389,
      "U**": 2390,
      "VP": 2391,
      "V)**": 2392,
      "W*": 2393,
      "WF": 2394,
      "YF": 2395,
      "Zi": 2396,
      "Zθ": 2397,
      "ak": 2398,
      "al": 2399,
      "aΖ": 2400,
      "bc": 2401,
      "c7": 2402,
      "cU": 2403,
      "cr": 2404,
      "c**": 2405,
      "dc": 2406,
      "dα": 2407,
      "d**": 2408,
      "fΡ": 2409,
      "g)*": 2410,
      "hb": 2411,
      "i)/": 2412,
      "j*": 2413,
      "kn": 2414,
      "kΓ": 2415,
      "k)/": 2416,
      "m5": 2417,
      "m)**": 2418,
      "n6": 2419,
      "nN": 2420,
      "nR": 2421,
      "nσ": 2422,
      "n)/": 2423,
      "oD": 2424,
      "oε": 2425,
      "pg": 2426,
      "pθ": 2427,
      "p)**": 2428,
      "q5": 2429,
      "qy": 2430,
      "qχ": 2431,
      "q)**": 2432,
      "rS": 2433,
      "rΨ": 2434,
      "s*": 2435,
      "sΠ": 2436,
      "t)/": 2437,
      "uJ": 2438,
      "ua": 2439,
      "v4": 2440,
      "v)**": 2441,
      "x/": 2442,
      "xs": 2443,
      "yg": 2444,
      "z)*": 2445,
      "ΑΣ": 2446,
      "ΒΝ": 2447,
      "ΒΨ": 2448,
      "Β)**": 2449,
      "Γ*": 2450,
      "Γ/": 2451,
      "ΓJ": 2452,
      "Δε": 2453,
      "Εv": 2454,
      "Ε)/": 2455,
      "Ζj": 2456,
      "Ζs": 2457,
      "Θ6": 2458,
      "Ι8": 2459,
      "Ιr": 2460,
      "ΙΦ": 2461,
      "Κz": 2462,
      "Λ**": 2463,
      "ΝH": 2464,
      "Ν)*": 2465,
      "Ν)/": 2466,
      "ΞO": 2467,
      "Ξ)/": 2468,
      "Ξ**": 2469,
      "Ο)/": 2470,
      "Πa": 2471,
      "Πj": 2472,
      "ΡΜ": 2473,
      "ΥΔ": 2474,
      "Υζ": 2475,
      "Υ)*": 2476,
      "Φj": 2477,
      "Φs": 2478,
      "ΦΜ": 2479,
      "Χ*": 2480,
      "Χ)/": 2481,
      "Ψw": 2482,
      "Ψχ": 2483,
      "Ω)/": 2484,
      "α5": 2485,
      "αN": 2486,
      "αι": 2487,
      "α)*": 2488,
      "β3": 2489,
      "δ)**": 2490,
      "ε)*": 2491,
      "ε)/": 2492,
      "ε)**": 2493,
      "η6": 2494,
      "η)/": 2495,
      "θΕ": 2496,
      "θτ": 2497,
      "ιF": 2498,
      "ιΛ": 2499,
      "ιρ": 2500,
      "ι)/": 2501,
      "κE": 2502,
      "κb": 2503,
      "κx": 2504,
      "κΙ": 2505,
      "λJ": 2506,
      "λρ": 2507,
      "μd": 2508,
      "μp": 2509,
      "μψ": 2510,
      "μ**": 2511,
      "ν)/": 2512,
      "ξ1": 2513,
      "ξd": 2514,
      "ξg": 2515,
      "ξ)/": 2516,
      "ρJ": 2517,
      "σ*": 2518,
      "σc": 2519,
      "τz": 2520,
      "τ)/": 2521,
      "υ*": 2522,
      "υ)**": 2523,
      "χU": 2524,
      "χd": 2525,
      "χm": 2526,
      "ωN": 2527,
      "ωΘ": 2528,
      "ωΜ": 2529,
      "ω)**": 2530,
      "log(Η_": 2531,
      "sqrt(-": 2532,
      "sqrt(7)*sqrt(": 2533,
      ")/8)": 2534,
      "Sum(5*": 2535,
      "Sum(9*": 2536,
      "Integral(3*": 2537,
      "**8)": 2538,
      "**2))": 2539,
      "g_O": 2540,
      "Β_Λ": 2541,
      "ξ_Ε": 2542,
      "τ_Β": 2543,
      "u_S": 2544,
      "R_w": 2545,
      "Ξ_Υ": 2546,
      "υ_B": 2547,
      "υ_Ο": 2548,
      "Τ_ζ": 2549,
      "o_v": 2550,
      "Ι_Ν": 2551,
      "χ_y": 2552,
      "G_M": 2553,
      "J_φ": 2554,
      "(ν)/": 2555,
      "(w/": 2556,
      "(K))": 2557,
      "(K)**": 2558,
      "(Ξ)/": 2559,
      "(Η)**": 2560,
      "(κ))": 2561,
      "(F)*": 2562,
      "(Ζ)**": 2563,
      "(φ)**": 2564,
      "(i)": 2565,
      "(i)**": 2566,
      "(E/": 2567,
      "(U))": 2568,
      "(ε)**": 2569,
      "(Σ)/": 2570,
      "(Σ)**": 2571,
      "(Ω)/": 2572,
      "(υ)": 2573,
      "(σ)/": 2574,
      "(Ψ)*": 2575,
      "(b))": 2576,
      "(l))": 2577,
      "(l)*": 2578,
      "(Φ))": 2579,
      "(Κ))": 2580,
      "(μ)": 2581,
      "(Ε)**": 2582,
      ")/(2*": 2583,
      "**Rational(5,": 2584,
      "/3))": 2585,
      "2S": 2586,
      "3E": 2587,
      "3u": 2588,
      "46": 2589,
      "4X": 2590,
      "4Ω": 2591,
      "53": 2592,
      "5L": 2593,
      "5P": 2594,
      "63": 2595,
      "6V": 2596,
      "6Φ": 2597,
      "6θ": 2598,
      "6ι": 2599,
      "88": 2600,
      "8κ": 2601,
      "8)*log(": 2602,
      "9R": 2603,
      "9p": 2604,
      "9Ζ": 2605,
      "9φ": 2606,
      "9*log(": 2607,
      "A*": 2608,
      "AG": 2609,
      "Aθ": 2610,
      "Aψ": 2611,
      "Bo": 2612,
      "Bs": 2613,
      "Bx": 2614,
      "By": 2615,
      "BΖ": 2616,
      "CΔ": 2617,
      "DX": 2618,
      "DY": 2619,
      "Do": 2620,
      "D)*": 2621,
      "D)**": 2622,
      "E3": 2623,
      "EA": 2624,
      "EΩ": 2625,
      "Fο": 2626,
      "F)**": 2627,
      "F**": 2628,
      "G*": 2629,
      "G3": 2630,
      "G7": 2631,
      "Gk": 2632,
      "HΦ": 2633,
      "Hτ": 2634,
      "H)**": 2635,
      "Iw": 2636,
      "IΓ": 2637,
      "I)/": 2638,
      "KN": 2639,
      "Kt": 2640,
      "Kμ": 2641,
      "K)**": 2642,
      "M*": 2643,
      "MΨ": 2644,
      "NT": 2645,
      "Nε": 2646,
      "OL": 2647,
      "OΛ": 2648,
      "PC": 2649,
      "Pq": 2650,
      "P)/": 2651,
      "Sg": 2652,
      "SΗ": 2653,
      "Sκ": 2654,
      "Sν": 2655,
      "Sω": 2656,
      "TY": 2657,
      "Ts": 2658,
      "TΥ": 2659,
      "Tθ": 2660,
      "Uν": 2661,
      "Vf": 2662,
      "Wj": 2663,
      "WΡ": 2664,
      "W)/": 2665,
      "Xx": 2666,
      "XΟ": 2667,
      "YΕ": 2668,
      "Y)/": 2669,
      "Z*": 2670,
      "ZU": 2671,
      "Zo": 2672,
      "ZΓ": 2673,
      "Zα": 2674,
      "Zσ": 2675,
      "aΝ": 2676,
      "aυ": 2677,
      "bψ": 2678,
      "cΔ": 2679,
      "fΖ": 2680,
      "f**": 2681,
      "gΛ": 2682,
      "gΧ": 2683,
      "gβ": 2684,
      "gε": 2685,
      "gρ": 2686,
      "h8": 2687,
      "hR": 2688,
      "hΩ": 2689,
      "iD": 2690,
      "iG": 2691,
      "jZ": 2692,
      "jζ": 2693,
      "k*": 2694,
      "kY": 2695,
      "k)*": 2696,
      "lG": 2697,
      "lΟ": 2698,
      "mα": 2699,
      "mζ": 2700,
      "mψ": 2701,
      "o)**": 2702,
      "qΞ": 2703,
      "q)/": 2704,
      "rJ": 2705,
      "rX": 2706,
      "rj": 2707,
      "rζ": 2708,
      "sY": 2709,
      "sk": 2710,
      "sl": 2711,
      "s**": 2712,
      "t7": 2713,
      "ui": 2714,
      "uσ": 2715,
      "vz": 2716,
      "v)/": 2717,
      "wW": 2718,
      "wΡ": 2719,
      "w)**": 2720,
      "xU": 2721,
      "xΓ": 2722,
      "y5": 2723,
      "yE": 2724,
      "y)/": 2725,
      "z3": 2726,
      "z8": 2727,
      "zu": 2728,
      "zθ": 2729,
      "Α*": 2730,
      "Α8": 2731,
      "Αx": 2732,
      "Α)/": 2733,
      "Α)**": 2734,
      "ΒF": 2735,
      "Γ3": 2736,
      "ΓN": 2737,
      "ΔΚ": 2738,
      "Δθ": 2739,
      "Δ)/": 2740,
      "ΕΘ": 2741,
      "Ε**": 2742,
      "ΗG": 2743,
      "Ηκ": 2744,
      "Η**": 2745,
      "ΘΑ": 2746,
      "ΘΨ": 2747,
      "Θβ": 2748,
      "Θ)*": 2749,
      "Θ)/": 2750,
      "ΙD": 2751,
      "ΙΙ": 2752,
      "ΙΛ": 2753,
      "ΙΤ": 2754,
      "ΚR": 2755,
      "ΚΕ": 2756,
      "ΚΘ": 2757,
      "Λ*": 2758,
      "Λ5": 2759,
      "Λ6": 2760,
      "Λa": 2761,
      "ΛΚ": 2762,
      "ΜN": 2763,
      "Μω": 2764,
      "Νm": 2765,
      "ΞΙ": 2766,
      "ΞΤ": 2767,
      "Ξ)**": 2768,
      "Ο*": 2769,
      "ΟΦ": 2770,
      "Ον": 2771,
      "Ο)**": 2772,
      "Ρg": 2773,
      "Ρp": 2774,
      "Ρψ": 2775,
      "Ρ)*": 2776,
      "Ρ)**": 2777,
      "ΣΓ": 2778,
      "Σψ": 2779,
      "Τ)/": 2780,
      "Υ*": 2781,
      "ΥΞ": 2782,
      "Υδ": 2783,
      "Υψ": 2784,
      "Φ*": 2785,
      "Φψ": 2786,
      "Φ**(": 2787,
      "Χτ": 2788,
      "Χ)*": 2789,
      "Χ)**": 2790,
      "Ψ*": 2791,
      "Ψo": 2792,
      "Ψs": 2793,
      "ΨΛ": 2794,
      "Ωu": 2795,
      "αg": 2796,
      "β*": 2797,
      "βN": 2798,
      "βU": 2799,
      "βr": 2800,
      "γ*": 2801,
      "γh": 2802,
      "γΥ": 2803,
      "γι": 2804,
      "δ*": 2805,
      "δB": 2806,
      "δG": 2807,
      "δι": 2808,
      "εL": 2809,
      "ζ*": 2810,
      "ζG": 2811,
      "ζX": 2812,
      "ζθ": 2813,
      "θ*": 2814,
      "θω": 2815,
      "ι*": 2816,
      "ιΓ": 2817,
      "κ*": 2818,
      "κd": 2819,
      "κο": 2820,
      "λ*": 2821,
      "λV": 2822,
      "λΑ": 2823,
      "λΝ": 2824,
      "μ*": 2825,
      "μj": 2826,
      "μy": 2827,
      "μΦ": 2828,
      "μ)**": 2829,
      "νC": 2830,
      "νf": 2831,
      "νr": 2832,
      "οC": 2833,
      "οf": 2834,
      "ρ2": 2835,
      "ρW": 2836,
      "ρa": 2837,
      "ρx": 2838,
      "ρξ": 2839,
      "ρτ": 2840,
      "ρ)**": 2841,
      "σΕ": 2842,
      "σ**": 2843,
      "τt": 2844,
      "υ1": 2845,
      "υ)*": 2846,
      "φF": 2847,
      "φΖ": 2848,
      "χ2": 2849,
      "ψ/": 2850,
      "ψd": 2851,
      "ψp": 2852,
      "ψΝ": 2853,
      "ωc": 2854,
      "ωd": 2855,
      "ω)/": 2856,
      "log(a": 2857,
      "log(s_": 2858,
      "log(E_": 2859,
      "log(Τ_": 2860,
      "log(ψ_": 2861,
      "log(γ_": 2862,
      "log(φ_": 2863,
      "log(Ο_": 2864,
      "log(μ_": 2865,
      "log(Α_": 2866,
      "sqrt(c": 2867,
      "sqrt(ρ": 2868,
      "sqrt(i_": 2869,
      "sqrt(2)*sqrt(": 2870,
      "Integral(4*": 2871,
      "**6": 2872,
      "**7)": 2873,
      "**6))": 2874,
      "**9)*": 2875,
      "ξ_ψ": 2876,
      "Λ_β": 2877,
      "Ω_b": 2878,
      "B_φ": 2879,
      "σ_Λ": 2880,
      "E_Ν": 2881,
      "S_9": 2882,
      "ζ_6": 2883,
      "Ρ_L": 2884,
      "Ρ_Α": 2885,
      "R_U": 2886,
      "R_Λ": 2887,
      "V_Q": 2888,
      "V_b": 2889,
      "Μ_ν": 2890,
      "Ξ_9": 2891,
      "υ_ε": 2892,
      "c_ο": 2893,
      "β_Ξ": 2894,
      "κ_K": 2895,
      "Y_l": 2896,
      "o_3": 2897,
      "A_α": 2898,
      "v_Φ": 2899,
      "Ψ_κ": 2900,
      "Η_O": 2901,
      "Η_Q": 2902,
      "Η_Ρ": 2903,
      "M_s": 2904,
      "Υ_μ": 2905,
      "α_Ψ": 2906,
      "N_q": 2907,
      "Ζ_ω": 2908,
      "q_A": 2909,
      "z_A": 2910,
      "d_w": 2911,
      "ι_v": 2912,
      "μ_W": 2913,
      "(X)*": 2914,
      "(X)/": 2915,
      ")/sqrt(-": 2916,
      "(R))": 2917,
      "(Β)*": 2918,
      "(Β)/": 2919,
      "(Β)**": 2920,
      "(D))": 2921,
      "(β)**": 2922,
      "(L)**": 2923,
      "(v)*": 2924,
      "(K)*": 2925,
      "(Ι)*": 2926,
      "(j)*": 2927,
      "(j)**": 2928,
      "(Μ)**": 2929,
      "(κ/": 2930,
      "(J)*": 2931,
      "(n*": 2932,
      "(q)**": 2933,
      "(k)**": 2934,
      "(B)/": 2935,
      "(B)**": 2936,
      "(λ))": 2937,
      "(λ)/": 2938,
      "(c))": 2939,
      "(c)/": 2940,
      "(h)**": 2941,
      "(z)**": 2942,
      "(C)*": 2943,
      "(ζ)*": 2944,
      "(Α)/": 2945,
      "(U*": 2946,
      "(U)*": 2947,
      "(U)**": 2948,
      "(Ν)/": 2949,
      "(Ο)**": 2950,
      "(Γ))": 2951,
      "(Γ)**": 2952,
      "(Σ)": 2953,
      "(Ρ)**": 2954,
      "(δ)/": 2955,
      "(Ψ)/": 2956,
      "(b)**": 2957,
      "(Π)/": 2958,
      "(l)**": 2959,
      "(Φ)/": 2960,
      "(Ε))": 2961,
      "2*sqrt(2)*sqrt(": 2962,
      "-3": 2963,
      "-6": 2964,
      "-Ζ": 2965,
      "/3": 2966,
      "/9": 2967,
      "/5)*": 2968,
      "1d": 2969,
      "1r": 2970,
      "1η": 2971,
      "1)**": 2972,
      "1)*log(": 2973,
      "2l": 2974,
      "2ο": 2975,
      "3Γ": 2976,
      "40": 2977,
      "49": 2978,
      "4j": 2979,
      "4m": 2980,
      "4Ζ": 2981,
      "4β": 2982,
      "56": 2983,
      "5N": 2984,
      "5υ": 2985,
      "5χ": 2986,
      "5)**(": 2987,
      "6/": 2988,
      "64": 2989,
      "6q": 2990,
      "6Σ": 2991,
      "7N": 2992,
      "7d": 2993,
      "7Ξ": 2994,
      "7*log(": 2995,
      "7**log(": 2996,
      "83": 2997,
      "8h": 2998,
      "8l": 2999,
      "8Ε": 3000,
      "8Υ": 3001,
      "8τ": 3002,
      "9A": 3003,
      "9G": 3004,
      "9K": 3005,
      "9x": 3006,
      "9y": 3007,
      "9ζ": 3008,
      "9υ": 3009,
      "Av": 3010,
      "AΗ": 3011,
      "A)**": 3012,
      "A**(": 3013,
      "BU": 3014,
      "Bc": 3015,
      "B)**": 3016,
      "CV": 3017,
      "Cf": 3018,
      "CΨ": 3019,
      "D9": 3020,
      "DV": 3021,
      "DΕ": 3022,
      "EW": 3023,
      "EΧ": 3024,
      "Eβ": 3025,
      "F*": 3026,
      "F4": 3027,
      "FK": 3028,
      "Fb": 3029,
      "FΖ": 3030,
      "GΦ": 3031,
      "HN": 3032,
      "HΣ": 3033,
      "IF": 3034,
      "IN": 3035,
      "Ic": 3036,
      "Il": 3037,
      "Iγ": 3038,
      "Iε": 3039,
      "J1": 3040,
      "J7": 3041,
      "JU": 3042,
      "JZ": 3043,
      "Jw": 3044,
      "KJ": 3045,
      "Kσ": 3046,
      "LH": 3047,
      "LK": 3048,
      "LΓ": 3049,
      "M2": 3050,
      "MI": 3051,
      "MV": 3052,
      "Md": 3053,
      "MΤ": 3054,
      "Mε": 3055,
      "Ns": 3056,
      "OP": 3057,
      "Ot": 3058,
      "OΑ": 3059,
      "OΓ": 3060,
      "Oμ": 3061,
      "Oφ": 3062,
      "Pv": 3063,
      "PΣ": 3064,
      "P**": 3065,
      "QW": 3066,
      "Ql": 3067,
      "Qy": 3068,
      "QΟ": 3069,
      "Qφ": 3070,
      "R*": 3071,
      "Rf": 3072,
      "RΘ": 3073,
      "RΠ": 3074,
      "S9": 3075,
      "SA": 3076,
      "SE": 3077,
      "SΛ": 3078,
      "SΟ": 3079,
      "Sρ": 3080,
      "TE": 3081,
      "TM": 3082,
      "TS": 3083,
      "Tj": 3084,
      "Tl": 3085,
      "Tτ": 3086,
      "T)**": 3087,
      "U/": 3088,
      "UΒ": 3089,
      "U)/": 3090,
      "Vl": 3091,
      "Vx": 3092,
      "VΟ": 3093,
      "V)*": 3094,
      "V**": 3095,
      "Wγ": 3096,
      "Wρ": 3097,
      "X*": 3098,
      "X7": 3099,
      "XL": 3100,
      "XS": 3101,
      "X)**": 3102,
      "ZI": 3103,
      "Zε": 3104,
      "Z)**": 3105,
      "as": 3106,
      "aΥ": 3107,
      "bΙ": 3108,
      "bθ": 3109,
      "cD": 3110,
      "cp": 3111,
      "cs": 3112,
      "cΝ": 3113,
      "f5": 3114,
      "fΝ": 3115,
      "g/": 3116,
      "gΩ": 3117,
      "g**(": 3118,
      "hL": 3119,
      "hV": 3120,
      "hh": 3121,
      "hΟ": 3122,
      "h)/": 3123,
      "ix": 3124,
      "iΚ": 3125,
      "iΠ": 3126,
      "iΨ": 3127,
      "jP": 3128,
      "jS": 3129,
      "jf": 3130,
      "jq": 3131,
      "jΑ": 3132,
      "jψ": 3133,
      "j**": 3134,
      "jι'": 3135,
      "kN": 3136,
      "kg": 3137,
      "k)**": 3138,
      "la": 3139,
      "lg": 3140,
      "lμ": 3141,
      "lχ": 3142,
      "l)**": 3143,
      "m9": 3144,
      "mK": 3145,
      "mx": 3146,
      "mκ": 3147,
      "nH": 3148,
      "nP": 3149,
      "nΒ": 3150,
      "nΕ": 3151,
      "nβ": 3152,
      "nχ": 3153,
      "n**": 3154,
      "oh": 3155,
      "oΞ": 3156,
      "pT": 3157,
      "pΚ": 3158,
      "p**": 3159,
      "qM": 3160,
      "qS": 3161,
      "qa": 3162,
      "qj": 3163,
      "qρ": 3164,
      "rE": 3165,
      "rK": 3166,
      "rR": 3167,
      "rΕ": 3168,
      "s/": 3169,
      "sP": 3170,
      "tU": 3171,
      "tμ": 3172,
      "uΑ": 3173,
      "vF": 3174,
      "vj": 3175,
      "vΡ": 3176,
      "v**": 3177,
      "wν": 3178,
      "wτ": 3179,
      "x*": 3180,
      "xO": 3181,
      "y*": 3182,
      "ya": 3183,
      "yΖ": 3184,
      "z*": 3185,
      "zn": 3186,
      "zΕ": 3187,
      "Αb": 3188,
      "Αi": 3189,
      "ΑΨ": 3190,
      "ΑΩ": 3191,
      "ΒL": 3192,
      "Δψ": 3193,
      "ΕD": 3194,
      "ΕΚ": 3195,
      "ΕΤ": 3196,
      "Ε)),": 3197,
      "Ζx": 3198,
      "Ζy": 3199,
      "ΖΡ": 3200,
      "Ζω": 3201,
      "Ζ)),": 3202,
      "ΗB": 3203,
      "Ηr": 3204,
      "Θη": 3205,
      "Ι)/": 3206,
      "Ι)**": 3207,
      "ΚJ": 3208,
      "Κi": 3209,
      "Κw": 3210,
      "ΚΣ": 3211,
      "Κω": 3212,
      "Κ)/": 3213,
      "Κ)**": 3214,
      "Λ/": 3215,
      "ΛΓ": 3216,
      "Λα": 3217,
      "ΜJ": 3218,
      "ΜO": 3219,
      "Μφ": 3220,
      "Μ**": 3221,
      "Ν6": 3222,
      "ΝΦ": 3223,
      "ΝΩ": 3224,
      "Ξ*": 3225,
      "ΞY": 3226,
      "ΞΛ": 3227,
      "Ξγ": 3228,
      "Ξο": 3229,
      "ΟE": 3230,
      "ΟΔ": 3231,
      "Π*": 3232,
      "Π/": 3233,
      "ΠE": 3234,
      "ΠY": 3235,
      "ΠΔ": 3236,
      "Πο": 3237,
      "Ρ2": 3238,
      "ΡI": 3239,
      "ΡΡ": 3240,
      "Ρ)/": 3241,
      "ΣH": 3242,
      "Σy": 3243,
      "Σ)*log(": 3244,
      "Τg": 3245,
      "Τδ": 3246,
      "Τν": 3247,
      "Υr": 3248,
      "Φ1": 3249,
      "ΦL": 3250,
      "Φq": 3251,
      "Φυ": 3252,
      "Χ4": 3253,
      "ΧR": 3254,
      "Χi": 3255,
      "Χβ": 3256,
      "ΨQ": 3257,
      "Ψ)/": 3258,
      "ΩP": 3259,
      "Ωc": 3260,
      "ΩΔ": 3261,
      "αΡ": 3262,
      "βT": 3263,
      "βΚ": 3264,
      "γ7": 3265,
      "γΘ": 3266,
      "δ5": 3267,
      "δλ": 3268,
      "δ)/": 3269,
      "δ**": 3270,
      "ε*": 3271,
      "εB": 3272,
      "εS": 3273,
      "εu": 3274,
      "εΔ": 3275,
      "ζQ": 3276,
      "ζx": 3277,
      "ηα": 3278,
      "θA": 3279,
      "θR": 3280,
      "θΡ": 3281,
      "θΣ": 3282,
      "ι3": 3283,
      "ιJ": 3284,
      "ιL": 3285,
      "ιY": 3286,
      "κΡ": 3287,
      "κΥ": 3288,
      "λb": 3289,
      "λΘ": 3290,
      "λ**": 3291,
      "μχ": 3292,
      "νB": 3293,
      "νΟ": 3294,
      "νΥ": 3295,
      "νθ": 3296,
      "ξ*": 3297,
      "ξ/": 3298,
      "ξκ": 3299,
      "ο*": 3300,
      "οh": 3301,
      "ολ": 3302,
      "ρj": 3303,
      "ρk": 3304,
      "ρs": 3305,
      "ρΖ": 3306,
      "ρΗ": 3307,
      "ρΠ": 3308,
      "ρ)/": 3309,
      "σ2": 3310,
      "σa": 3311,
      "σr": 3312,
      "σΟ": 3313,
      "τb": 3314,
      "τ**": 3315,
      "υΔ": 3316,
      "υΧ": 3317,
      "υψ": 3318,
      "φ*": 3319,
      "φ2": 3320,
      "φV": 3321,
      "φZ": 3322,
      "φΚ": 3323,
      "φα": 3324,
      "φ)**": 3325,
      "φ**(": 3326,
      "χS": 3327,
      "χh": 3328,
      "χΑ": 3329,
      "χρ": 3330,
      "ψV": 3331,
      "ψ)*log(": 3332,
      "ωL": 3333,
      "ωh": 3334,
      "ωm": 3335,
      "ωq": 3336,
      "ωδ": 3337,
      "log(J": 3338,
      "log(Q_": 3339,
      "log(x_": 3340,
      "log(o_": 3341,
      "log(ρ_": 3342,
      "log(O_": 3343,
      "log(d_": 3344,
      "log(Σ_": 3345,
      "log(Γ)": 3346,
      "log(p)": 3347,
      "sqrt(η_": 3348,
      "sqrt(U_": 3349,
      "sqrt(Δ_": 3350,
      "sqrt(χ_": 3351,
      "sqrt(μ)": 3352,
      "Sum(8*": 3353,
      "Sum(7*": 3354,
      "Integral(2*": 3355,
      "Integral(8*": 3356,
      "Integral(5*": 3357,
      "Integral(3*sqrt(": 3358,
      "**8)*": 3359,
      "g_b": 3360,
      "g_m": 3361,
      "Β_c": 3362,
      "Β_Μ": 3363,
      "ξ_Τ": 3364,
      "ξ_λ": 3365,
      "H_n": 3366,
      "H_Κ": 3367,
      "C_ε": 3368,
      "ε_2": 3369,
      "s_A": 3370,
      "s_F": 3371,
      "s_Λ": 3372,
      "s_θ": 3373,
      "Λ_R": 3374,
      "Λ_h": 3375,
      "Ω_L": 3376,
      "η_N": 3377,
      "η_t": 3378,
      "η_Η": 3379,
      "η_λ": 3380,
      "τ_G": 3381,
      "B_Ν": 3382,
      "σ_1": 3383,
      "σ_k": 3384,
      "E_U": 3385,
      "K_ζ": 3386,
      "K_η": 3387,
      "Q_p": 3388,
      "S_b": 3389,
      "S_α": 3390,
      "ζ_υ": 3391,
      "Ρ_χ": 3392,
      "I_T": 3393,
      "I_Β": 3394,
      "I_θ": 3395,
      "Π_m": 3396,
      "D_τ": 3397,
      "Μ_q": 3398,
      "Μ_Γ": 3399,
      "Μ_Τ": 3400,
      "Μ_χ": 3401,
      "Ξ_Ζ": 3402,
      "υ_Υ": 3403,
      "c_i": 3404,
      "c_Ω": 3405,
      "w_τ": 3406,
      "Τ_η": 3407,
      "κ_η": 3408,
      "θ_9": 3409,
      "Y_k": 3410,
      "x_4": 3411,
      "x_ο": 3412,
      "o_Q": 3413,
      "o_U": 3414,
      "l_O": 3415,
      "l_h": 3416,
      "i_j": 3417,
      "W_W": 3418,
      "F_κ": 3419,
      "γ_3": 3420,
      "γ_Γ": 3421,
      "m_2": 3422,
      "v_Α": 3423,
      "ο_v": 3424,
      "ο_Μ": 3425,
      "ο_Χ": 3426,
      "χ_Δ": 3427,
      "Ψ_Ν": 3428,
      "b_6": 3429,
      "k_φ": 3430,
      "Η_Π": 3431,
      "M_W": 3432,
      "M_f": 3433,
      "α_I": 3434,
      "L_Γ": 3435,
      "L_ι": 3436,
      "N_S": 3437,
      "J_x": 3438,
      "φ_Ε": 3439,
      "q_Q": 3440,
      "Γ_Ν": 3441,
      "Ε_j": 3442,
      "Σ_Ζ": 3443,
      "Χ_Σ": 3444,
      "a_Φ": 3445,
      "Φ_Κ": 3446,
      "λ_β": 3447,
      ")/2)*log(": 3448,
      "Derivative(sqrt(C_": 3449,
      "(Z)/": 3450,
      "(Z**": 3451,
      "(ω)**": 3452,
      "Κ_V": 3453,
      "(R)**": 3454,
      "(D)/": 3455,
      "(β/": 3456,
      "(β)/": 3457,
      "(L/": 3458,
      "(V*": 3459,
      "(V)*": 3460,
      "(V)/": 3461,
      "(V)**": 3462,
      "(ι**": 3463,
      "(ι)**log(": 3464,
      "(K)/": 3465,
      "ν_R": 3466,
      "(Ι)/": 3467,
      "(Ξ)*": 3468,
      "(s)**": 3469,
      "(s**": 3470,
      "Z_O": 3471,
      "(j*": 3472,
      "(j))": 3473,
      "(o)/": 3474,
      "(Η)*": 3475,
      "(Μ)/": 3476,
      "(α)/": 3477,
      "(α)**": 3478,
      "(α**": 3479,
      "(n)**": 3480,
      "(m)*": 3481,
      "(λ)**": 3482,
      "(F*": 3483,
      "(F)/": 3484,
      "(Δ)**": 3485,
      "(c)*": 3486,
      "(Τ)*": 3487,
      "(Τ**": 3488,
      "(h)*": 3489,
      "(Ζ)*": 3490,
      "(θ)**": 3491,
      "(φ)*": 3492,
      "X_o": 3493,
      "(t)/": 3494,
      "(ζ/": 3495,
      "(T*": 3496,
      "(T)*": 3497,
      "(T)/": 3498,
      "(p)*": 3499,
      "(ρ)/": 3500,
      "(d**": 3501,
      "(Ν))": 3502,
      "(r))": 3503,
      "(r)*": 3504,
      "(Γ)/": 3505,
      "(Ω)**": 3506,
      "(ο)*": 3507,
      "(f)/": 3508,
      "(b*": 3509,
      "(Π))": 3510,
      "(Χ)": 3511,
      "(ξ)/": 3512,
      "(y)*": 3513,
      "(γ)**": 3514,
      "(μ)*": 3515,
      "(μ)**": 3516,
      "(Ε)*": 3517,
      "/2)),": 3518,
      "(Y)**": 3519,
      ")/(7*": 3520,
      ")/(7*sqrt(": 3521,
      "'J_φ": 3522,
      "cosh(1))": 3523,
      "-8": 3524,
      "-h": 3525,
      "/S_": 3526,
      "/Ι_": 3527,
      "/7))": 3528,
      "1I": 3529,
      "1c": 3530,
      "1j": 3531,
      "1o": 3532,
      "1Ζ": 3533,
      "1Η": 3534,
      "1Ρ": 3535,
      "1α": 3536,
      "1λ": 3537,
      "1ν": 3538,
      "23": 3539,
      "29": 3540,
      "2L": 3541,
      "2Ζ": 3542,
      "3l": 3543,
      "3s": 3544,
      "3w": 3545,
      "3τ": 3546,
      "4/": 3547,
      "4Γ": 3548,
      "4Λ": 3549,
      "5A": 3550,
      "5S": 3551,
      "5g": 3552,
      "5r": 3553,
      "5Ψ": 3554,
      "5ω": 3555,
      "5)*log(": 3556,
      "5)),": 3557,
      "6B": 3558,
      "6F": 3559,
      "6J": 3560,
      "6u": 3561,
      "6η": 3562,
      "6)*log(": 3563,
      "7M": 3564,
      "7V": 3565,
      "7o": 3566,
      "7r": 3567,
      "7s": 3568,
      "7ξ": 3569,
      "85": 3570,
      "8b": 3571,
      "8q": 3572,
      "8Τ": 3573,
      "8β": 3574,
      "8ι": 3575,
      "8χ": 3576,
      "8ψ": 3577,
      "8)**log(": 3578,
      "9P": 3579,
      "9q": 3580,
      "AH": 3581,
      "B7": 3582,
      "B8": 3583,
      "BΙ": 3584,
      "BΛ": 3585,
      "BΥ": 3586,
      "Bε": 3587,
      "C1": 3588,
      "CL": 3589,
      "CN": 3590,
      "CQ": 3591,
      "Ct": 3592,
      "CΣ": 3593,
      "DA": 3594,
      "Dd": 3595,
      "Dζ": 3596,
      "Dη": 3597,
      "Dσ": 3598,
      "Dυ": 3599,
      "D**": 3600,
      "E8": 3601,
      "EI": 3602,
      "Ed": 3603,
      "Ev": 3604,
      "Eγ": 3605,
      "Eλ": 3606,
      "E)**": 3607,
      "GH": 3608,
      "GU": 3609,
      "Gv": 3610,
      "GΧ": 3611,
      "HΕ": 3612,
      "HΙ": 3613,
      "Hλ": 3614,
      "Hψ": 3615,
      "IΡ": 3616,
      "IΧ": 3617,
      "J/": 3618,
      "JK": 3619,
      "Jf": 3620,
      "Jδ": 3621,
      "Jυ": 3622,
      "K*": 3623,
      "Kο": 3624,
      "L/": 3625,
      "LM": 3626,
      "MB": 3627,
      "MM": 3628,
      "MY": 3629,
      "M**": 3630,
      "NH": 3631,
      "NI": 3632,
      "Np": 3633,
      "Nq": 3634,
      "Nu": 3635,
      "Nx": 3636,
      "Nz": 3637,
      "Nθ": 3638,
      "O*": 3639,
      "O3": 3640,
      "O9": 3641,
      "OM": 3642,
      "OU": 3643,
      "OW": 3644,
      "OΘ": 3645,
      "OΠ": 3646,
      "OΡ": 3647,
      "Oζ": 3648,
      "Oκ": 3649,
      "Oο": 3650,
      "O)*": 3651,
      "P/": 3652,
      "P5": 3653,
      "Pp": 3654,
      "PΕ": 3655,
      "PΧ": 3656,
      "PΩ": 3657,
      "Q3": 3658,
      "Qt": 3659,
      "Qω": 3660,
      "R5": 3661,
      "Ri": 3662,
      "RΤ": 3663,
      "S*": 3664,
      "Sc": 3665,
      "Sυ": 3666,
      "Tq": 3667,
      "Tw": 3668,
      "TΗ": 3669,
      "Tλ": 3670,
      "Tν": 3671,
      "Uf": 3672,
      "Uj": 3673,
      "Um": 3674,
      "UΩ": 3675,
      "U)*log(": 3676,
      "V*": 3677,
      "VX": 3678,
      "Va": 3679,
      "Vc": 3680,
      "VΗ": 3681,
      "Vθ": 3682,
      "Vσ": 3683,
      "V)/": 3684,
      "Vl'": 3685,
      "V**(": 3686,
      "WS": 3687,
      "Ww": 3688,
      "Wφ": 3689,
      "W**": 3690,
      "X/": 3691,
      "XQ": 3692,
      "Xε": 3693,
      "X)/": 3694,
      "YΓ": 3695,
      "ZD": 3696,
      "ZV": 3697,
      "ZΣ": 3698,
      "ZΧ": 3699,
      "Z**": 3700,
      "aΗ": 3701,
      "aΣ": 3702,
      "a**": 3703,
      "bΘ": 3704,
      "cq": 3705,
      "cθ": 3706,
      "cι": 3707,
      "c)/": 3708,
      "dE": 3709,
      "dm": 3710,
      "dΣ": 3711,
      "fC": 3712,
      "fQ": 3713,
      "ff": 3714,
      "gG": 3715,
      "gΓ": 3716,
      "gυ'": 3717,
      "hM": 3718,
      "hΣ": 3719,
      "hλ": 3720,
      "h)**": 3721,
      "h**(": 3722,
      "iC": 3723,
      "iL": 3724,
      "iΤ": 3725,
      "iλ": 3726,
      "iψ": 3727,
      "iω": 3728,
      "i**": 3729,
      "j3": 3730,
      "jW": 3731,
      "jw": 3732,
      "jz": 3733,
      "jΓ": 3734,
      "kA": 3735,
      "l*": 3736,
      "l/": 3737,
      "lM": 3738,
      "ls": 3739,
      "lΗ": 3740,
      "lΨ": 3741,
      "lκ": 3742,
      "lξ": 3743,
      "m2": 3744,
      "mU": 3745,
      "mΛ": 3746,
      "mΝ": 3747,
      "mβ": 3748,
      "mυ": 3749,
      "m**": 3750,
      "n7": 3751,
      "ns": 3752,
      "nx": 3753,
      "nΠ": 3754,
      "oV": 3755,
      "oY": 3756,
      "oo": 3757,
      "ou": 3758,
      "oΖ": 3759,
      "oΤ": 3760,
      "oκ": 3761,
      "oλ": 3762,
      "o)/": 3763,
      "p2": 3764,
      "pΡ": 3765,
      "pγ": 3766,
      "pζ": 3767,
      "q*": 3768,
      "q8": 3769,
      "qΗ": 3770,
      "qγ": 3771,
      "q)*log(": 3772,
      "sV": 3773,
      "sΙ": 3774,
      "s)/": 3775,
      "tp": 3776,
      "ty": 3777,
      "tΛ": 3778,
      "tΨ": 3779,
      "u/": 3780,
      "u2": 3781,
      "uA": 3782,
      "uE": 3783,
      "uh": 3784,
      "up": 3785,
      "uΙ": 3786,
      "uΚ": 3787,
      "uφ": 3788,
      "v*": 3789,
      "vA": 3790,
      "vB": 3791,
      "vM": 3792,
      "vS": 3793,
      "vΘ": 3794,
      "vΙ": 3795,
      "w*": 3796,
      "wP": 3797,
      "wβ": 3798,
      "wρ": 3799,
      "xr": 3800,
      "xΤ": 3801,
      "yX": 3802,
      "yΦ": 3803,
      "yΧ": 3804,
      "yβ": 3805,
      "zA": 3806,
      "zd": 3807,
      "zΚ": 3808,
      "zβ": 3809,
      "z**": 3810,
      "ΑW": 3811,
      "ΑΛ": 3812,
      "Β*": 3813,
      "ΒS": 3814,
      "Βd": 3815,
      "ΒΚ": 3816,
      "Γ1": 3817,
      "ΔI": 3818,
      "ΔΛ": 3819,
      "ΔΦ": 3820,
      "Δο": 3821,
      "ΕR": 3822,
      "ΕU": 3823,
      "ΕΖ": 3824,
      "Εχ": 3825,
      "ΖQ": 3826,
      "Ζo": 3827,
      "ΖΙ": 3828,
      "Ζχ": 3829,
      "Ζ)/": 3830,
      "Ζ)**": 3831,
      "Ζo'": 3832,
      "Η*": 3833,
      "Η4": 3834,
      "ΗV": 3835,
      "Η)),": 3836,
      "Θr": 3837,
      "ΘΜ": 3838,
      "Θρ": 3839,
      "Θ)**": 3840,
      "Θ**(": 3841,
      "ΙC": 3842,
      "ΙV": 3843,
      "Ιc": 3844,
      "Ιy": 3845,
      "ΙΛ'": 3846,
      "ΚP": 3847,
      "Κβ": 3848,
      "Κζ": 3849,
      "Κτ": 3850,
      "Λβ": 3851,
      "Λη": 3852,
      "Λλ": 3853,
      "Λym": 3854,
      "Λ)/": 3855,
      "ΜT": 3856,
      "Μ)/": 3857,
      "ΝY": 3858,
      "Ν)**": 3859,
      "ΞW": 3860,
      "Ξν": 3861,
      "ΟU": 3862,
      "ΟΓ": 3863,
      "ΟΣ": 3864,
      "ΠΒ": 3865,
      "Πδ": 3866,
      "Πρ": 3867,
      "Π**": 3868,
      "Ρ/": 3869,
      "ΡA": 3870,
      "Ρα": 3871,
      "Ρζ": 3872,
      "Σ/": 3873,
      "Σk": 3874,
      "Σq": 3875,
      "Σ)/": 3876,
      "Σ**": 3877,
      "Τ/": 3878,
      "ΤP": 3879,
      "Τm": 3880,
      "Τ)*": 3881,
      "ΥS": 3882,
      "Υθ": 3883,
      "Υι": 3884,
      "Υω": 3885,
      "ΦU": 3886,
      "Φ)*": 3887,
      "Χ7": 3888,
      "ΧB": 3889,
      "Χm": 3890,
      "Χz": 3891,
      "ΧΒ": 3892,
      "Χφ": 3893,
      "Χ)/log(": 3894,
      "Ψ1": 3895,
      "ΨO": 3896,
      "ΨΓ": 3897,
      "ΨΗ": 3898,
      "Ψ)**": 3899,
      "Ω9": 3900,
      "ΩO": 3901,
      "Ωι": 3902,
      "Ωλ": 3903,
      "Ωτ": 3904,
      "Ω**(": 3905,
      "α4": 3906,
      "αF": 3907,
      "αU": 3908,
      "αh": 3909,
      "αγ": 3910,
      "βΒ": 3911,
      "β**": 3912,
      "γF": 3913,
      "γZ": 3914,
      "γΜ": 3915,
      "γτ": 3916,
      "δY": 3917,
      "δf": 3918,
      "δj": 3919,
      "δn": 3920,
      "δΘ": 3921,
      "δΨ": 3922,
      "δξ": 3923,
      "δ)*log(": 3924,
      "ε8": 3925,
      "εq": 3926,
      "ε**": 3927,
      "ζB": 3928,
      "ζα": 3929,
      "ζκ": 3930,
      "ζ)**": 3931,
      "η*": 3932,
      "ηP": 3933,
      "ηq": 3934,
      "ηw": 3935,
      "θs": 3936,
      "θΙ": 3937,
      "θ)**": 3938,
      "ιK": 3939,
      "ιN": 3940,
      "ιl": 3941,
      "ιΘ": 3942,
      "ιμ": 3943,
      "κA": 3944,
      "κM": 3945,
      "κΚ": 3946,
      "κΜ": 3947,
      "κΦ": 3948,
      "λd": 3949,
      "λΒ": 3950,
      "λθ": 3951,
      "λ)/": 3952,
      "μΗ": 3953,
      "μγ": 3954,
      "ν*": 3955,
      "ν/": 3956,
      "νS": 3957,
      "νΒ": 3958,
      "ξI": 3959,
      "ξn": 3960,
      "ξt": 3961,
      "ξΠ": 3962,
      "ξ**": 3963,
      "οL": 3964,
      "οT": 3965,
      "οw": 3966,
      "οη": 3967,
      "σv": 3968,
      "σy": 3969,
      "σχ": 3970,
      "τ2": 3971,
      "τ6": 3972,
      "τQ": 3973,
      "τω": 3974,
      "τ)**": 3975,
      "υT": 3976,
      "φS": 3977,
      "φ)/": 3978,
      "χ6": 3979,
      "χB": 3980,
      "χF": 3981,
      "χΛ": 3982,
      "χο": 3983,
      "χ)**": 3984,
      "ψ9": 3985,
      "ψW": 3986,
      "ψΦ": 3987,
      "ψο": 3988,
      "ψρ": 3989,
      "ψψ": 3990,
      "ω/": 3991,
      "ωΑ": 3992,
      "ωΡ": 3993,
      "ωυ": 3994,
      "log(g_": 3995,
      "log(V_": 3996,
      "log(Μ_": 3997,
      "log(l_": 3998,
      "log(F_": 3999,
      "log(α_": 4000,
      "log(N_": 4001,
      "log(f_": 4002,
      "log(p_": 4003,
      "log(X_": 4004,
      "log(7*": 4005,
      "log(Σ)": 4006,
      "log(ο)": 4007,
      "log(χ),": 4008,
      "log(Ρ)": 4009,
      "log(σ)": 4010,
      "log(W)": 4011,
      "log(D),": 4012,
      "sqrt(w": 4013,
      "sqrt(Γ": 4014,
      "sqrt(β_": 4015,
      "sqrt(y_": 4016,
      "sqrt(ο_": 4017,
      "sqrt(Χ_": 4018,
      "sqrt(ν_": 4019,
      "sqrt(Z_": 4020,
      "sqrt(X_": 4021,
      "sqrt(x)": 4022,
      "sqrt(Δ)": 4023,
      "sqrt(θ)": 4024,
      "sqrt(6)*sqrt(": 4025,
      "Sum(3*": 4026,
      "Integral(7*": 4027,
      "Integral(6*": 4028,
      "Integral(2*log(": 4029,
      "Derivative(8*": 4030,
      "Derivative(7*": 4031,
      "Derivative(3*": 4032,
      "Derivative(6*": 4033,
      "**x_": 4034,
      "g_H": 4035,
      "g_V": 4036,
      "g_ω": 4037,
      "ξ_Γ": 4038,
      "ξ_Ξ": 4039,
      "ξ_ε": 4040,
      "H_7": 4041,
      "H_z": 4042,
      "H_ι": 4043,
      "C_Ζ": 4044,
      "ε_H": 4045,
      "ε_j": 4046,
      "s_3": 4047,
      "s_h": 4048,
      "s_w": 4049,
      "s_ζ": 4050,
      "Ω_2": 4051,
      "Ω_3": 4052,
      "Ω_O": 4053,
      "Ω_Ι": 4054,
      "η_W": 4055,
      "η_Β": 4056,
      "η_ζ": 4057,
      "τ_4": 4058,
      "τ_ε": 4059,
      "B_2": 4060,
      "B_Δ": 4061,
      "B_Ζ": 4062,
      "B_γ": 4063,
      "σ_H": 4064,
      "K_W": 4065,
      "K_j": 4066,
      "Q_9": 4067,
      "Q_Τ": 4068,
      "Q_Υ": 4069,
      "Θ_H": 4070,
      "Θ_t": 4071,
      "Θ_Τ": 4072,
      "S_F": 4073,
      "S_ω": 4074,
      "ζ_k": 4075,
      "ζ_m": 4076,
      "u_γ": 4077,
      "U_3": 4078,
      "U_P": 4079,
      "U_x": 4080,
      "U_Α": 4081,
      "R_β": 4082,
      "Π_6": 4083,
      "Π_P": 4084,
      "Π_U": 4085,
      "V_G": 4086,
      "Ξ_Z": 4087,
      "Ξ_γ": 4088,
      "υ_r": 4089,
      "υ_Β": 4090,
      "Τ_Q": 4091,
      "Τ_d": 4092,
      "Τ_Τ": 4093,
      "β_n": 4094,
      "β_o": 4095,
      "β_Ν": 4096,
      "κ_Ι": 4097,
      "θ_p": 4098,
      "θ_t": 4099,
      "θ_ν": 4100,
      "n_i": 4101,
      "Y_S": 4102,
      "Y_t": 4103,
      "Y_Ζ": 4104,
      "x_X": 4105,
      "x_s": 4106,
      "P_Z": 4107,
      "P_f": 4108,
      "o_S": 4109,
      "o_Θ": 4110,
      "o_Ο": 4111,
      "o_ε": 4112,
      "A_2": 4113,
      "A_υ": 4114,
      "l_T": 4115,
      "l_Β": 4116,
      "l_χ": 4117,
      "Δ_i": 4118,
      "ψ_M": 4119,
      "ψ_θ": 4120,
      "Ι_d": 4121,
      "Ι_Α": 4122,
      "i_N": 4123,
      "i_W": 4124,
      "i_Z": 4125,
      "W_F": 4126,
      "W_ν": 4127,
      "ρ_b": 4128,
      "ρ_Η": 4129,
      "ρ_Χ": 4130,
      "F_8": 4131,
      "F_P": 4132,
      "γ_μ": 4133,
      "γ_ν": 4134,
      "m_ρ": 4135,
      "v_μ": 4136,
      "y_C": 4137,
      "y_L": 4138,
      "ο_9": 4139,
      "ο_Q": 4140,
      "ο_μ": 4141,
      "χ_A": 4142,
      "χ_T": 4143,
      "χ_l": 4144,
      "Ψ_S": 4145,
      "Ψ_a": 4146,
      "b_G": 4147,
      "b_R": 4148,
      "b_Η": 4149,
      "k_v": 4150,
      "k_τ": 4151,
      "Η_b": 4152,
      "Η_λ": 4153,
      "M_D": 4154,
      "M_Σ": 4155,
      "Υ_B": 4156,
      "Υ_i": 4157,
      "Υ_Ξ": 4158,
      "Υ_ν": 4159,
      "α_C": 4160,
      "α_Γ": 4161,
      "L_7": 4162,
      "L_J": 4163,
      "L_ν": 4164,
      "N_F": 4165,
      "N_a": 4166,
      "N_δ": 4167,
      "t_τ": 4168,
      "G_τ": 4169,
      "O_X": 4170,
      "O_o": 4171,
      "O_t": 4172,
      "φ_T": 4173,
      "φ_s": 4174,
      "φ_δ": 4175,
      "q_9": 4176,
      "q_R": 4177,
      "z_l": 4178,
      "z_κ": 4179,
      "j_c": 4180,
      "j_k": 4181,
      "j_t": 4182,
      "d_W": 4183,
      "ι_m": 4184,
      "Ε_9": 4185,
      "Ε_F": 4186,
      "Ε_s": 4187,
      "h_ο": 4188,
      "T_d": 4189,
      "T_Ο": 4190,
      "Ο_Q": 4191,
      "Ο_U": 4192,
      "Ο_δ": 4193,
      "Ο_ψ": 4194,
      "Σ_A": 4195,
      "Σ_g": 4196,
      "Σ_q": 4197,
      "Σ_λ": 4198,
      "Χ_z": 4199,
      "a_A": 4200,
      "a_a": 4201,
      "a_y": 4202,
      "Φ_b": 4203,
      "Φ_v": 4204,
      "p_H": 4205,
      "p_φ": 4206,
      ")*log(3*": 4207,
      ")/2)*sqrt(": 4208,
      "Sum(sqrt(δ)": 4209,
      "Derivative(sqrt(Γ": 4210,
      "Derivative(sqrt(h)": 4211,
      "(Z/": 4212,
      "(Z)**": 4213,
      "(ν)**": 4214,
      "(ω**": 4215,
      "δ_C": 4216,
      "δ_r": 4217,
      "Κ_Υ": 4218,
      "Κ_γ": 4219,
      "Integral(log(u_": 4220,
      ")/sqrt(g_": 4221,
      "(R*": 4222,
      "(R)*": 4223,
      "(R**": 4224,
      "(L)/": 4225,
      "(v*": 4226,
      "(w*": 4227,
      "ν_ω": 4228,
      "(a)/": 4229,
      "(a**": 4230,
      "(o)*": 4231,
      "(α/": 4232,
      "(κ)**": 4233,
      "(J)**": 4234,
      "(n)*": 4235,
      "(Θ)/": 4236,
      "(Θ)**": 4237,
      "(q*": 4238,
      "(k/": 4239,
      "(B*": 4240,
      "(Δ)/": 4241,
      "(z)*": 4242,
      "(g)*": 4243,
      "(C*": 4244,
      "(φ)/": 4245,
      "X_M": 4246,
      "(H)/": 4247,
      "(i)*": 4248,
      "(t)*": 4249,
      "(Λ)*": 4250,
      "(Λ)**": 4251,
      "(ζ)/": 4252,
      "(ζ)**": 4253,
      "(P*": 4254,
      "(P)*": 4255,
      "(P)/": 4256,
      "(T)**": 4257,
      "(Α))": 4258,
      "(E)": 4259,
      "(E)/log(": 4260,
      "(d*": 4261,
      "(M)/": 4262,
      "(u*": 4263,
      "(Υ)/": 4264,
      "(ο)/": 4265,
      "(f))": 4266,
      "(Ψ)**": 4267,
      "(Ψ**": 4268,
      "'Β_χ": 4269,
      "(b)*": 4270,
      "(l/": 4271,
      "(l),": 4272,
      "(x)/": 4273,
      "(W*": 4274,
      "(W)*": 4275,
      "(W)**": 4276,
      "(Χ)/": 4277,
      "(η**": 4278,
      "'Λ_Η": 4279,
      "'Ξ_Υ": 4280,
      "(ψ/": 4281,
      "(ψ))": 4282,
      "'n_p": 4283,
      "'l_7": 4284,
      "'ν_1": 4285,
      "'N_Z": 4286,
      "'Z_O": 4287,
      "(Λ_β": 4288,
      "(J_φ": 4289,
      "(n_p": 4290,
      "(η_Φ": 4291,
      "**(sqrt(-": 4292,
      "Derivative(-sqrt(2)*sqrt(": 4293,
      "**Rational(7,": 4294,
      "**4)*": 4295,
      "(2": 4296,
      "(4": 4297,
      "*υ_": 4298,
      "-9": 4299,
      "-U": 4300,
      "-Χ": 4301,
      "-κ": 4302,
      "/5": 4303,
      "/Τ_": 4304,
      "/l_": 4305,
      "/9)*": 4306,
      "/6)*": 4307,
      "/8)*": 4308,
      "1T": 4309,
      "1Ε": 4310,
      "1Θ": 4311,
      "1Κ": 4312,
      "1Μ": 4313,
      "1ξ": 4314,
      "1τ": 4315,
      "1υ": 4316,
      "20": 4317,
      "2D": 4318,
      "2W": 4319,
      "2a": 4320,
      "2d": 4321,
      "2Ν": 4322,
      "2Ω": 4323,
      "2ν": 4324,
      "2υ": 4325,
      "2)**log(": 4326,
      "30": 4327,
      "3U": 4328,
      "3t": 4329,
      "3Δ": 4330,
      "3β": 4331,
      "3κ": 4332,
      "3υ": 4333,
      "3s'": 4334,
      "4C": 4335,
      "4E": 4336,
      "4f": 4337,
      "4υ": 4338,
      "4φ": 4339,
      "4)**": 4340,
      "5/": 4341,
      "5Y": 4342,
      "5q": 4343,
      "5Β": 4344,
      "5Δ": 4345,
      "5ο": 4346,
      "576": 4347,
      "60": 4348,
      "6A": 4349,
      "6G": 4350,
      "6I": 4351,
      "6P": 4352,
      "6Z": 4353,
      "6g": 4354,
      "6k": 4355,
      "6Μ": 4356,
      "6β": 4357,
      "6ω": 4358,
      "6u'": 4359,
      "6)),": 4360,
      "6)**log(": 4361,
      "75": 4362,
      "7Q": 4363,
      "7b": 4364,
      "7g": 4365,
      "7t": 4366,
      "7Η": 4367,
      "7Λ": 4368,
      "7Σ": 4369,
      "7Ω": 4370,
      "7σ": 4371,
      "7υ": 4372,
      "7)*log(": 4373,
      "8C": 4374,
      "8I": 4375,
      "8k": 4376,
      "8p": 4377,
      "8x": 4378,
      "8Α": 4379,
      "8Θ": 4380,
      "8Σ": 4381,
      "8α": 4382,
      "8ε": 4383,
      "8σ": 4384,
      "8)/": 4385,
      "8)**(": 4386,
      "8a'": 4387,
      "8α'": 4388,
      "8)**(sqrt(": 4389,
      "9I": 4390,
      "9Z": 4391,
      "9j": 4392,
      "9Ι": 4393,
      "9η": 4394,
      "9ι": 4395,
      "9ο": 4396,
      "AQ": 4397,
      "Ad": 4398,
      "Al": 4399,
      "Ao": 4400,
      "AΕ": 4401,
      "AΠ": 4402,
      "AΤ": 4403,
      "Aα": 4404,
      "Aν": 4405,
      "Aφ": 4406,
      "AQ'": 4407,
      "B*": 4408,
      "BΠ": 4409,
      "B)/": 4410,
      "B**": 4411,
      "B7'": 4412,
      "C/": 4413,
      "C5": 4414,
      "CD": 4415,
      "CΙ": 4416,
      "Cρ": 4417,
      "CΨ'": 4418,
      "DI": 4419,
      "DQ": 4420,
      "Dn": 4421,
      "DΠ": 4422,
      "Dδ": 4423,
      "D)/": 4424,
      "E6": 4425,
      "Ej": 4426,
      "Es": 4427,
      "EΟ": 4428,
      "Eη": 4429,
      "Eν": 4430,
      "F/": 4431,
      "FL": 4432,
      "FM": 4433,
      "Ft": 4434,
      "FΘ": 4435,
      "FΙ": 4436,
      "FΛ": 4437,
      "FΞ": 4438,
      "Fγ": 4439,
      "Fξ": 4440,
      "Fρ": 4441,
      "GΑ": 4442,
      "GΒ": 4443,
      "GΓ": 4444,
      "Gτ": 4445,
      "G**": 4446,
      "HC": 4447,
      "Hf": 4448,
      "Hm": 4449,
      "HΠ": 4450,
      "Hγ": 4451,
      "Hε": 4452,
      "Hι": 4453,
      "Hν": 4454,
      "Hi'": 4455,
      "I2": 4456,
      "IH": 4457,
      "IX": 4458,
      "It": 4459,
      "IΕ": 4460,
      "IΨ": 4461,
      "Iβ": 4462,
      "I)/log(": 4463,
      "J2": 4464,
      "JP": 4465,
      "JT": 4466,
      "Jd": 4467,
      "JΘ": 4468,
      "JΞ": 4469,
      "JΠ": 4470,
      "JΤ": 4471,
      "Jκ": 4472,
      "Jφ": 4473,
      "Jψ": 4474,
      "J**(": 4475,
      "K6": 4476,
      "KR": 4477,
      "KΟ": 4478,
      "KΣ": 4479,
      "K**(": 4480,
      "L1": 4481,
      "LP": 4482,
      "LW": 4483,
      "LΔ": 4484,
      "LΖ": 4485,
      "LΣ": 4486,
      "Lθ": 4487,
      "Lι": 4488,
      "Lκ": 4489,
      "Lο": 4490,
      "LI'": 4491,
      "M3": 4492,
      "MP": 4493,
      "Mf": 4494,
      "Mi": 4495,
      "Mo": 4496,
      "MΣ": 4497,
      "Mρ": 4498,
      "Mυ": 4499,
      "Mω": 4500,
      "M)/": 4501,
      "MM'": 4502,
      "NP": 4503,
      "NS": 4504,
      "Nb": 4505,
      "Nl": 4506,
      "NΘ": 4507,
      "NΠ": 4508,
      "NΩ": 4509,
      "OC": 4510,
      "OD": 4511,
      "OΔ": 4512,
      "Oθ": 4513,
      "Oν": 4514,
      "Oω": 4515,
      "O)/": 4516,
      "O)**": 4517,
      "PY": 4518,
      "Pb": 4519,
      "Ps": 4520,
      "PΞ": 4521,
      "Pζ": 4522,
      "Pν": 4523,
      "Q7": 4524,
      "QI": 4525,
      "Qn": 4526,
      "Qw": 4527,
      "QΦ": 4528,
      "R6": 4529,
      "RA": 4530,
      "RS": 4531,
      "RV": 4532,
      "Rc": 4533,
      "Rd": 4534,
      "Rg": 4535,
      "Rr": 4536,
      "Rv": 4537,
      "Sk": 4538,
      "Sr": 4539,
      "SΘ": 4540,
      "SΞ": 4541,
      "Sι": 4542,
      "TW": 4543,
      "To": 4544,
      "Tv": 4545,
      "Tx": 4546,
      "TΚ": 4547,
      "TΧ": 4548,
      "Tκ": 4549,
      "T)/": 4550,
      "Ts'": 4551,
      "T)/log(": 4552,
      "U7": 4553,
      "UΖ": 4554,
      "Uσ": 4555,
      "Uχ": 4556,
      "V1": 4557,
      "VC": 4558,
      "VT": 4559,
      "V)),": 4560,
      "WH": 4561,
      "WU": 4562,
      "Wl": 4563,
      "Wm": 4564,
      "WΤ": 4565,
      "W)**": 4566,
      "X6": 4567,
      "Xn": 4568,
      "XΦ": 4569,
      "Xι": 4570,
      "YG": 4571,
      "YZ": 4572,
      "Yx": 4573,
      "Yz": 4574,
      "YΔ": 4575,
      "YΡ": 4576,
      "Z4": 4577,
      "ZA": 4578,
      "ZC": 4579,
      "ZZ": 4580,
      "ZΔ": 4581,
      "ZΡ": 4582,
      "Z1'": 4583,
      "a*": 4584,
      "aC": 4585,
      "aH": 4586,
      "aW": 4587,
      "af": 4588,
      "aq": 4589,
      "aΜ": 4590,
      "aε": 4591,
      "aχ": 4592,
      "av'": 4593,
      "bf": 4594,
      "br": 4595,
      "bΖ": 4596,
      "bY'": 4597,
      "cC": 4598,
      "cE": 4599,
      "cS": 4600,
      "cΖ": 4601,
      "cΦ": 4602,
      "cθ'": 4603,
      "c7'": 4604,
      "dA": 4605,
      "dC": 4606,
      "dd": 4607,
      "dg": 4608,
      "du": 4609,
      "dv": 4610,
      "dΚ": 4611,
      "dμ": 4612,
      "dο": 4613,
      "fJ": 4614,
      "fN": 4615,
      "fm": 4616,
      "fΙ": 4617,
      "fΤ": 4618,
      "f)/": 4619,
      "gb": 4620,
      "gr": 4621,
      "gΕ": 4622,
      "gΝ": 4623,
      "gγ": 4624,
      "gι": 4625,
      "g)**": 4626,
      "g**": 4627,
      "h/": 4628,
      "hY": 4629,
      "hq": 4630,
      "hΞ": 4631,
      "hΧ": 4632,
      "hσ": 4633,
      "hυ": 4634,
      "hφ": 4635,
      "hΠ'": 4636,
      "h)*log(": 4637,
      "i*": 4638,
      "iI": 4639,
      "iM": 4640,
      "iq": 4641,
      "iΑ": 4642,
      "i)**": 4643,
      "jJ": 4644,
      "jm": 4645,
      "jΒ": 4646,
      "jη": 4647,
      "jω": 4648,
      "j)**": 4649,
      "kO": 4650,
      "kΒ": 4651,
      "kΖ": 4652,
      "kΠ": 4653,
      "kλ": 4654,
      "kY'": 4655,
      "k)/(": 4656,
      "kY,": 4657,
      "l7": 4658,
      "lb": 4659,
      "ld": 4660,
      "lΑ": 4661,
      "lΤ": 4662,
      "lγ": 4663,
      "l**": 4664,
      "mC": 4665,
      "mI": 4666,
      "mo": 4667,
      "mu": 4668,
      "mΙ": 4669,
      "m)/": 4670,
      "nΘ": 4671,
      "nΨ": 4672,
      "nλ": 4673,
      "o2": 4674,
      "oM": 4675,
      "on": 4676,
      "oΓ": 4677,
      "oΔ": 4678,
      "oΨ": 4679,
      "o)*log(": 4680,
      "p*": 4681,
      "pA": 4682,
      "pW": 4683,
      "pb": 4684,
      "pd": 4685,
      "ph": 4686,
      "po": 4687,
      "pq": 4688,
      "pΝ": 4689,
      "pν": 4690,
      "pψ": 4691,
      "pg'": 4692,
      "qV": 4693,
      "qΡ": 4694,
      "qΤ": 4695,
      "r*": 4696,
      "rA": 4697,
      "rd": 4698,
      "rΓ": 4699,
      "rδ": 4700,
      "rν": 4701,
      "r)/": 4702,
      "r)**": 4703,
      "r)*log(": 4704,
      "s3": 4705,
      "sΣ": 4706,
      "sβ": 4707,
      "sω": 4708,
      "tJ": 4709,
      "tΒ": 4710,
      "tΦ": 4711,
      "tα": 4712,
      "t)**": 4713,
      "u5": 4714,
      "ug": 4715,
      "uη": 4716,
      "uμ": 4717,
      "uν": 4718,
      "vL": 4719,
      "vf": 4720,
      "vw": 4721,
      "vφ": 4722,
      "w4": 4723,
      "wK": 4724,
      "wn": 4725,
      "wΞ": 4726,
      "wι": 4727,
      "wυ": 4728,
      "x9": 4729,
      "xΙ": 4730,
      "x)/": 4731,
      "x)**": 4732,
      "yT": 4733,
      "yW": 4734,
      "yf": 4735,
      "yu": 4736,
      "yw": 4737,
      "yz": 4738,
      "yα": 4739,
      "yλ": 4740,
      "yξ": 4741,
      "yτ": 4742,
      "zm": 4743,
      "zz": 4744,
      "zΙ": 4745,
      "z)**(": 4746,
      "z)),": 4747,
      "Α2": 4748,
      "ΑE": 4749,
      "Αu": 4750,
      "Α1'": 4751,
      "ΒA": 4752,
      "ΒN": 4753,
      "ΒW": 4754,
      "Βf": 4755,
      "Βi": 4756,
      "Βo": 4757,
      "Βv": 4758,
      "ΒΠ": 4759,
      "ΒΧ": 4760,
      "Β**": 4761,
      "ΓV": 4762,
      "Γu": 4763,
      "Γι": 4764,
      "Γν": 4765,
      "Γχ": 4766,
      "Γψ": 4767,
      "Γ)**": 4768,
      "Γ**": 4769,
      "ΔH": 4770,
      "ΔP": 4771,
      "ΔR": 4772,
      "ΔZ": 4773,
      "Δk": 4774,
      "Δs": 4775,
      "ΔΩ": 4776,
      "Δα": 4777,
      "Δ)**": 4778,
      "Δ**": 4779,
      "Δ)**(sqrt(": 4780,
      "ΕA": 4781,
      "Εi": 4782,
      "Εt": 4783,
      "Εu": 4784,
      "Εx": 4785,
      "Εz": 4786,
      "Εω": 4787,
      "ΖI": 4788,
      "Ζf": 4789,
      "ΖΑ": 4790,
      "ΖΔ": 4791,
      "Ζ**(": 4792,
      "Η6": 4793,
      "ΗD": 4794,
      "Ηd": 4795,
      "Ηf": 4796,
      "Ηη": 4797,
      "Ηλ": 4798,
      "ΘG": 4799,
      "Θa": 4800,
      "Θf": 4801,
      "ΘΓ": 4802,
      "ΙF": 4803,
      "ΙN": 4804,
      "Ιk": 4805,
      "Ιγ": 4806,
      "Ιο": 4807,
      "Ιφ": 4808,
      "Ι**(": 4809,
      "Κ*": 4810,
      "ΚG": 4811,
      "Κa": 4812,
      "Κq": 4813,
      "ΚΣ'": 4814,
      "Λ1": 4815,
      "ΛH": 4816,
      "ΛL": 4817,
      "Λc": 4818,
      "Λn": 4819,
      "Λy": 4820,
      "ΛΩ": 4821,
      "Λγ": 4822,
      "Λ)**": 4823,
      "Λa'": 4824,
      "ΛΩ'": 4825,
      "Μ*": 4826,
      "ΜL": 4827,
      "ΜP": 4828,
      "ΜS": 4829,
      "Μa": 4830,
      "Μo": 4831,
      "Μv": 4832,
      "ΜΝ": 4833,
      "ΜΦ": 4834,
      "ΜΩ": 4835,
      "Μθ": 4836,
      "Μ)*log(": 4837,
      "ΝA": 4838,
      "ΝF": 4839,
      "ΝS": 4840,
      "Νp": 4841,
      "Νr": 4842,
      "ΝΔ": 4843,
      "ΝΟ": 4844,
      "ΝΣ": 4845,
      "ΝΨ": 4846,
      "Νχ": 4847,
      "Ν**": 4848,
      "ΝΖ'": 4849,
      "Νω'": 4850,
      "Ξ/": 4851,
      "ΞJ": 4852,
      "ΞΕ": 4853,
      "ΞΚ": 4854,
      "ΞΟ": 4855,
      "Ξξ": 4856,
      "Ο2": 4857,
      "ΟB": 4858,
      "ΟK": 4859,
      "Οi": 4860,
      "Οn": 4861,
      "Οη": 4862,
      "Οο": 4863,
      "ΠG": 4864,
      "Πf": 4865,
      "Πn": 4866,
      "ΠΜ": 4867,
      "Πε": 4868,
      "ΠQ'": 4869,
      "Ρ*": 4870,
      "ΡL": 4871,
      "Ρd": 4872,
      "Ρw": 4873,
      "Ρz": 4874,
      "ΡΛ": 4875,
      "ΡΥ": 4876,
      "Ρρ": 4877,
      "Ρ**(": 4878,
      "Ρ)),": 4879,
      "ΣQ": 4880,
      "ΣΔ": 4881,
      "ΣΖ": 4882,
      "Σβ": 4883,
      "Σθ": 4884,
      "Σν": 4885,
      "Σρ": 4886,
      "Τ9": 4887,
      "ΤA": 4888,
      "ΤX": 4889,
      "ΤY": 4890,
      "Τs": 4891,
      "Τε": 4892,
      "Τ**(": 4893,
      "Υm": 4894,
      "ΥΚ": 4895,
      "ΥΟ": 4896,
      "ΥΠ": 4897,
      "Υξ": 4898,
      "ΥQ'": 4899,
      "Φ5": 4900,
      "Φd": 4901,
      "Φr": 4902,
      "Χ9": 4903,
      "ΧD": 4904,
      "ΧV": 4905,
      "Χh": 4906,
      "Χk": 4907,
      "Χx": 4908,
      "ΧΖ": 4909,
      "ΧΜ": 4910,
      "ΧΒ'": 4911,
      "Χ9'": 4912,
      "Ψ6": 4913,
      "Ψb": 4914,
      "Ψf": 4915,
      "Ψi": 4916,
      "Ψn": 4917,
      "Ψu": 4918,
      "Ψv": 4919,
      "ΨΑ": 4920,
      "Ψγ": 4921,
      "Ψζ": 4922,
      "Ψξ": 4923,
      "Ψ)),": 4924,
      "Ω1": 4925,
      "Ω3": 4926,
      "Ω7": 4927,
      "ΩT": 4928,
      "ΩV": 4929,
      "Ωa": 4930,
      "Ωg": 4931,
      "ΩΓ": 4932,
      "ΩΨ": 4933,
      "α/": 4934,
      "α7": 4935,
      "α8": 4936,
      "αa": 4937,
      "αi": 4938,
      "αΑ": 4939,
      "αΞ": 4940,
      "αλ": 4941,
      "αχ": 4942,
      "α)),": 4943,
      "βI": 4944,
      "βX": 4945,
      "βi": 4946,
      "βm": 4947,
      "βu": 4948,
      "βΞ": 4949,
      "βν": 4950,
      "βχ": 4951,
      "β)/": 4952,
      "γ1": 4953,
      "γu": 4954,
      "γΧ": 4955,
      "γφ": 4956,
      "γos": 4957,
      "γ)*log(": 4958,
      "δN": 4959,
      "δR": 4960,
      "δΖ": 4961,
      "δη": 4962,
      "ε2": 4963,
      "εI": 4964,
      "εh": 4965,
      "εΑ": 4966,
      "εη": 4967,
      "ευ": 4968,
      "ε)/2),": 4969,
      "ζ7": 4970,
      "ζJ": 4971,
      "ζΞ": 4972,
      "ζM'": 4973,
      "ηB": 4974,
      "ηU": 4975,
      "ηX": 4976,
      "ηY": 4977,
      "ηc": 4978,
      "ηk": 4979,
      "ηΦ": 4980,
      "ηε": 4981,
      "ηη": 4982,
      "η)**log(": 4983,
      "θ9": 4984,
      "θI": 4985,
      "θj": 4986,
      "θΜ": 4987,
      "θΞ": 4988,
      "θλ": 4989,
      "θυ": 4990,
      "θ**(": 4991,
      "θ)*log(": 4992,
      "ι7": 4993,
      "ι8": 4994,
      "ιo": 4995,
      "ιι": 4996,
      "ιΘ'": 4997,
      "ι)/log(": 4998,
      "κj": 4999,
      "κl": 5000,
      "κ)**": 5001,
      "κ**(": 5002,
      "λ4": 5003,
      "λI": 5004,
      "λp": 5005,
      "λΚ": 5006,
      "λΡ": 5007,
      "λΥ": 5008,
      "λΧ": 5009,
      "λ)**": 5010,
      "λb'": 5011,
      "μl": 5012,
      "μm": 5013,
      "μo": 5014,
      "μx": 5015,
      "μσ": 5016,
      "νV": 5017,
      "νd": 5018,
      "νψ": 5019,
      "ξA": 5020,
      "ξi": 5021,
      "ξx": 5022,
      "ξΘ": 5023,
      "ξΞ": 5024,
      "ξΩ": 5025,
      "ξδ": 5026,
      "ξτ": 5027,
      "ο/": 5028,
      "οs": 5029,
      "οx": 5030,
      "οΝ": 5031,
      "οΡ": 5032,
      "ορ": 5033,
      "ο)/": 5034,
      "ο)/sqrt(": 5035,
      "ρ5": 5036,
      "ρD": 5037,
      "ρP": 5038,
      "ρQ": 5039,
      "ρY": 5040,
      "ρl": 5041,
      "ργ": 5042,
      "ρ**": 5043,
      "σA": 5044,
      "σC": 5045,
      "σn": 5046,
      "σΜ": 5047,
      "σ)/": 5048,
      "σ)**": 5049,
      "σχ'": 5050,
      "τ/": 5051,
      "τ9": 5052,
      "τΔ": 5053,
      "τΙ": 5054,
      "τρ": 5055,
      "τρ'": 5056,
      "τ)),": 5057,
      "υX": 5058,
      "υz": 5059,
      "υβ": 5060,
      "υ**(": 5061,
      "υ)*log(": 5062,
      "φ/": 5063,
      "φQ": 5064,
      "φh": 5065,
      "φt": 5066,
      "χC": 5067,
      "χH": 5068,
      "χZ": 5069,
      "χb": 5070,
      "χl": 5071,
      "χt": 5072,
      "χΔ": 5073,
      "χα": 5074,
      "ψO": 5075,
      "ψx": 5076,
      "ψΜ": 5077,
      "ψΞ": 5078,
      "ψθ": 5079,
      "ψκ": 5080,
      "ψ)/": 5081,
      "ψ)**": 5082,
      "ω*": 5083,
      "ωj": 5084,
      "ωΔ": 5085,
      "ων": 5086,
      "ω)*log(": 5087,
      "log(H": 5088,
      "log(b": 5089,
      "log(f": 5090,
      "log(κ": 5091,
      "log(Λ_": 5092,
      "log(τ_": 5093,
      "log(Ρ_": 5094,
      "log(U_": 5095,
      "log(θ_": 5096,
      "log(Y_": 5097,
      "log(v_": 5098,
      "log(χ_": 5099,
      "log(Ψ_": 5100,
      "log(b_": 5101,
      "log(t_": 5102,
      "log(J_": 5103,
      "log(Ζ_": 5104,
      "log(Γ_": 5105,
      "log(r_": 5106,
      "log(ι_": 5107,
      "log(ν_": 5108,
      "log(9*": 5109,
      "log(Ι))": 5110,
      "log(c))": 5111,
      "log(ο))": 5112,
      "log(G))": 5113,
      "log(X))": 5114,
      "log(D)": 5115,
      "log(u)": 5116,
      "log(R)": 5117,
      "log(ν)": 5118,
      "log(η)": 5119,
      "log(υ),": 5120,
      "log(ω)": 5121,
      "log(λ),": 5122,
      "log(ξ)": 5123,
      "log(ζ),": 5124,
      "log(Κ),": 5125,
      "log(φ),": 5126,
      "sqrt(J": 5127,
      "sqrt(s_": 5128,
      "sqrt(τ_": 5129,
      "sqrt(ζ_": 5130,
      "sqrt(Y_": 5131,
      "sqrt(Ι_": 5132,
      "sqrt(b_": 5133,
      "sqrt(L_": 5134,
      "sqrt(Ζ_": 5135,
      "sqrt(φ_": 5136,
      "sqrt(μ_": 5137,
      "sqrt(Γ)": 5138,
      "sqrt(d)": 5139,
      "sqrt(u)": 5140,
      "sqrt(J)": 5141,
      "sqrt(κ)": 5142,
      "sqrt(Ι)": 5143,
      "sqrt(ι)": 5144,
      "sqrt(φ)": 5145,
      "sqrt(ω)": 5146,
      "sqrt(v)": 5147,
      "sqrt(Χ)": 5148,
      "sqrt(K)": 5149,
      "sqrt(Μ)": 5150,
      "sqrt(n)": 5151,
      "sqrt(δ)": 5152,
      "sqrt(y)": 5153,
      "sqrt(Ε)": 5154,
      "sqrt(s)": 5155,
      "sqrt(V)": 5156,
      "sqrt(Χ),": 5157,
      "sqrt(3)*sqrt(": 5158,
      "sqrt(α)*": 5159,
      "Sum(1": 5160,
      "Sum(X": 5161,
      "Sum(b": 5162,
      "Sum(6*": 5163,
      "Integral(R": 5164,
      "Integral(δ_": 5165,
      "Integral(9*": 5166,
      "Derivative(Q_": 5167,
      "Derivative(5*": 5168,
      "Derivative(5*log(": 5169,
      "**ν),": 5170,
      "g_g": 5171,
      "g_n": 5172,
      "g_σ": 5173,
      "Β_i": 5174,
      "Β_j": 5175,
      "Β_l": 5176,
      "Β_Θ": 5177,
      "Β_Φ": 5178,
      "Β_υ": 5179,
      "Β_ω": 5180,
      "ξ_Ο": 5181,
      "H_9": 5182,
      "H_j": 5183,
      "H_Ν": 5184,
      "H_Ξ": 5185,
      "C_3": 5186,
      "C_8": 5187,
      "C_p": 5188,
      "C_Β": 5189,
      "C_Ρ": 5190,
      "C_χ": 5191,
      "ε_ψ": 5192,
      "s_Ν": 5193,
      "s_Υ": 5194,
      "Λ_E": 5195,
      "Λ_K": 5196,
      "Λ_m": 5197,
      "Λ_Ρ": 5198,
      "Λ_δ": 5199,
      "Ω_J": 5200,
      "Ω_K": 5201,
      "Ω_Α": 5202,
      "Ω_Ν": 5203,
      "Ω_Υ": 5204,
      "Ω_Ψ": 5205,
      "η_8": 5206,
      "η_H": 5207,
      "η_c": 5208,
      "τ_I": 5209,
      "τ_i": 5210,
      "τ_m": 5211,
      "τ_w": 5212,
      "τ_θ": 5213,
      "B_y": 5214,
      "B_Ε": 5215,
      "B_β": 5216,
      "σ_C": 5217,
      "σ_Q": 5218,
      "σ_ο": 5219,
      "E_2": 5220,
      "E_Q": 5221,
      "E_Γ": 5222,
      "E_Σ": 5223,
      "K_Y": 5224,
      "K_r": 5225,
      "K_Ω": 5226,
      "K_χ": 5227,
      "Q_B": 5228,
      "Q_M": 5229,
      "Q_Z": 5230,
      "Q_x": 5231,
      "Q_Φ": 5232,
      "Q_Ω": 5233,
      "Θ_o": 5234,
      "Θ_Ε": 5235,
      "Θ_Σ": 5236,
      "Θ_Φ": 5237,
      "S_Ν": 5238,
      "S_Ο": 5239,
      "S_ο": 5240,
      "ζ_Κ": 5241,
      "ζ_γ": 5242,
      "ζ_ι": 5243,
      "u_2": 5244,
      "u_h": 5245,
      "u_z": 5246,
      "u_Ζ": 5247,
      "u_Ν": 5248,
      "u_Τ": 5249,
      "u_υ": 5250,
      "Ρ_D": 5251,
      "Ρ_z": 5252,
      "Ρ_Τ": 5253,
      "U_E": 5254,
      "U_Λ": 5255,
      "U_τ": 5256,
      "I_D": 5257,
      "I_E": 5258,
      "I_J": 5259,
      "I_q": 5260,
      "I_Ξ": 5261,
      "I_τ": 5262,
      "R_X": 5263,
      "R_Z": 5264,
      "R_Υ": 5265,
      "Π_h": 5266,
      "Π_o": 5267,
      "Π_β": 5268,
      "Π_ν": 5269,
      "D_S": 5270,
      "D_j": 5271,
      "D_η": 5272,
      "D_μ": 5273,
      "V_4": 5274,
      "V_S": 5275,
      "V_Ι": 5276,
      "V_Ψ": 5277,
      "Μ_Ω": 5278,
      ")**(4**": 5279,
      ")**(2**": 5280,
      "Ξ_T": 5281,
      "Ξ_i": 5282,
      "Ξ_Γ": 5283,
      "Ξ_ψ": 5284,
      "υ_V": 5285,
      "υ_β": 5286,
      "c_Ε": 5287,
      "w_4": 5288,
      "w_a": 5289,
      "w_t": 5290,
      "w_u": 5291,
      "w_ρ": 5292,
      "w_Cψ": 5293,
      "Τ_1": 5294,
      "Τ_r": 5295,
      "Τ_Η": 5296,
      "Τ_Κ": 5297,
      "β_r": 5298,
      "β_Ε": 5299,
      "β_Π": 5300,
      "κ_ο": 5301,
      "θ_Β": 5302,
      "θ_Ε": 5303,
      "θ_η": 5304,
      "n_d": 5305,
      "n_p": 5306,
      "n_w": 5307,
      "n_Ε": 5308,
      "n_υ": 5309,
      "Y_8": 5310,
      "Y_f": 5311,
      "Y_h": 5312,
      "Y_κ": 5313,
      "Y_μ": 5314,
      "Y_φ": 5315,
      "x_J": 5316,
      "x_Β": 5317,
      "x_Γ": 5318,
      "P_A": 5319,
      "P_H": 5320,
      "P_M": 5321,
      "P_k": 5322,
      "o_P": 5323,
      "o_Π": 5324,
      "A_b": 5325,
      "Δ_A": 5326,
      "Δ_V": 5327,
      "Δ_Ο": 5328,
      "Δ_Σ": 5329,
      "Δ_ι": 5330,
      "ψ_1": 5331,
      "ψ_F": 5332,
      "ψ_p": 5333,
      "ψ_ζ": 5334,
      "Ι_Γ": 5335,
      "Ι_δ": 5336,
      "Ι_μ": 5337,
      "i_1": 5338,
      "i_c": 5339,
      "i_g": 5340,
      "i_Ν": 5341,
      "Ν_S": 5342,
      "Ν_Φ": 5343,
      "Ν_ε": 5344,
      "Ν_σ": 5345,
      "Ν_ψ": 5346,
      "W_U": 5347,
      "W_X": 5348,
      "W_q": 5349,
      "ρ_9": 5350,
      "ρ_i": 5351,
      "ρ_τ": 5352,
      "ρ_χ": 5353,
      "F_c": 5354,
      "F_ε": 5355,
      "γ_Π": 5356,
      "γ_Υ": 5357,
      "γ_Φ": 5358,
      "m_1": 5359,
      "m_B": 5360,
      "m_j": 5361,
      "m_Μ": 5362,
      "m_Σ": 5363,
      "m_Υ": 5364,
      "v_9": 5365,
      "v_g": 5366,
      "v_β": 5367,
      "v_κ": 5368,
      "y_9": 5369,
      "y_I": 5370,
      "y_y": 5371,
      "y_Ε": 5372,
      "y_Λ": 5373,
      "ο_2": 5374,
      "ο_A": 5375,
      "ο_Α": 5376,
      "ο_Γ": 5377,
      "ο_Ν": 5378,
      "χ_O": 5379,
      "χ_Y": 5380,
      "χ_n": 5381,
      "χ_Γ": 5382,
      "χ_ν": 5383,
      "Ψ_N": 5384,
      "Ψ_X": 5385,
      "Ψ_Z": 5386,
      "Ψ_z": 5387,
      "Ψ_Μ": 5388,
      "Ψ_ο": 5389,
      "b_P": 5390,
      "b_a": 5391,
      "b_Μ": 5392,
      "k_8": 5393,
      "k_9": 5394,
      "k_F": 5395,
      "k_p": 5396,
      "Η_ξ": 5397,
      "M_Γ": 5398,
      "M_Λ": 5399,
      "Υ_1": 5400,
      "Υ_Κ": 5401,
      "Υ_υ": 5402,
      "α_3": 5403,
      "α_N": 5404,
      "α_g": 5405,
      "α_Θ": 5406,
      "N_ι": 5407,
      "N_λ": 5408,
      "N_φ": 5409,
      "t_8": 5410,
      "t_H": 5411,
      "t_χ": 5412,
      "G_q": 5413,
      "G_Σ": 5414,
      "O_H": 5415,
      "O_Q": 5416,
      "O_w": 5417,
      "O_β": 5418,
      "O_φ": 5419,
      "Ζ_8": 5420,
      "Ζ_V": 5421,
      "Ζ_a": 5422,
      "Ζ_Μ": 5423,
      "Ζ_ο": 5424,
      "Ζ_τ": 5425,
      "φ_H": 5426,
      "φ_Ω": 5427,
      "q_2": 5428,
      "q_7": 5429,
      "z_U": 5430,
      "z_d": 5431,
      "z_h": 5432,
      "z_m": 5433,
      "Γ_c": 5434,
      "Γ_θ": 5435,
      "r_J": 5436,
      "r_K": 5437,
      "r_Μ": 5438,
      "r_ω": 5439,
      "j_M": 5440,
      "j_w": 5441,
      "j_Ν": 5442,
      "j_ε": 5443,
      "j_ζ": 5444,
      "f_O": 5445,
      "f_ψ": 5446,
      "d_I": 5447,
      "d_b": 5448,
      "d_Χ": 5449,
      "d_φ": 5450,
      "ι_O": 5451,
      "ι_T": 5452,
      "Ε_2": 5453,
      "Ε_G": 5454,
      "Ε_f": 5455,
      "Ε_Ν": 5456,
      "h_J": 5457,
      "h_c": 5458,
      "h_z": 5459,
      "h_ε": 5460,
      "h_κ": 5461,
      "T_k": 5462,
      "Ο_ζ": 5463,
      "Ο_η": 5464,
      "Σ_7": 5465,
      "Σ_W": 5466,
      "Σ_Λ": 5467,
      "Σ_α": 5468,
      "Σ_υ": 5469,
      "a_H": 5470,
      "a_Χ": 5471,
      "Φ_ψ": 5472,
      "λ_Δ": 5473,
      "p_ε": 5474,
      "p_υ": 5475,
      "(-T": 5476,
      "(-Λ": 5477,
      "(-P_": 5478,
      "(-5*": 5479,
      "μ_U": 5480,
      "Sum(sqrt(w_": 5481,
      "Sum(sqrt(ι)": 5482,
      "Sum(sqrt(Π)*": 5483,
      "Derivative(sqrt(ι_": 5484,
      "Derivative(sqrt(κ)": 5485,
      "Integral(-D": 5486,
      "(ν**": 5487,
      "Integral(sqrt(n_": 5488,
      "Integral(sqrt(G)": 5489,
      "(X)**": 5490,
      "(X**": 5491,
      ")/log(2*": 5492,
      "(ω/": 5493,
      "δ_A": 5494,
      "Α_x": 5495,
      "Α_Β": 5496,
      "Sum(log(S_": 5497,
      "Κ_n": 5498,
      "Κ_δ": 5499,
      "Derivative(log(R)": 5500,
      ")**(sqrt(y": 5501,
      ")**(sqrt(x_": 5502,
      ")**(sqrt(3)*sqrt(": 5503,
      ")/sqrt(Α),": 5504,
      "(D*": 5505,
      "(D**": 5506,
      "(D)/sqrt(": 5507,
      "(G*": 5508,
      "(v)**": 5509,
      "(V/": 5510,
      "(ι)*": 5511,
      "(ι)/": 5512,
      "(w)*": 5513,
      "(w**": 5514,
      "(K*": 5515,
      "ν_K": 5516,
      "ν_z": 5517,
      "ν_Σ": 5518,
      "ν_ο": 5519,
      "(a/": 5520,
      "(a)*": 5521,
      "(s)*": 5522,
      "Z_Η": 5523,
      "Z_γ": 5524,
      "(Μ)))": 5525,
      "(κ)/": 5526,
      "(J*": 5527,
      "(n)/": 5528,
      "(Θ)*": 5529,
      "(q**": 5530,
      "(k)/": 5531,
      "(k**": 5532,
      "(m)**": 5533,
      "(m)**log(": 5534,
      "(λ)*": 5535,
      "(τ)*": 5536,
      "'g_H": 5537,
      "'g_θ": 5538,
      "(Δ*": 5539,
      "(Δ)*": 5540,
      "(c*": 5541,
      "(Τ)/": 5542,
      "(h)/": 5543,
      "(Ζ*": 5544,
      "(Ζ)/": 5545,
      "ω_3": 5546,
      "ω_Η": 5547,
      "ω_Ν": 5548,
      "(θ)/": 5549,
      "X_L": 5550,
      "X_Δ": 5551,
      "X_Θ": 5552,
      "(H)*": 5553,
      "(i*": 5554,
      "(i/": 5555,
      "(Λ)/": 5556,
      "(p)**": 5557,
      "(Α)*": 5558,
      "(E)**": 5559,
      "(U/": 5560,
      "(d)/": 5561,
      "(Ν)**": 5562,
      "(u)/": 5563,
      "(Ρ**": 5564,
      "(Υ)*": 5565,
      "(υ)**": 5566,
      "(σ**": 5567,
      "(δ)*": 5568,
      "(δ)**": 5569,
      "(A/": 5570,
      "(f)*": 5571,
      "(b)/": 5572,
      "(Π)**": 5573,
      "(l)/": 5574,
      "(Χ/": 5575,
      "(Χ)*": 5576,
      "(Χ)**": 5577,
      "(Χ**": 5578,
      "(η)*": 5579,
      "'ξ_Τ": 5580,
      "(y)**": 5581,
      "(Κ)**": 5582,
      "'η_λ": 5583,
      "'s_θ": 5584,
      "'τ_4": 5585,
      "'B_φ": 5586,
      "'Λ_R": 5587,
      "'Λ_β": 5588,
      "'S_C": 5589,
      "'ζ_6'": 5590,
      "'V_S": 5591,
      "'V_Q'": 5592,
      "(μ/": 5593,
      "(μ)/": 5594,
      "'β_Ξ": 5595,
      "'Ρ_L": 5596,
      "'I_T'": 5597,
      "'I_E'": 5598,
      "'R_Λ": 5599,
      "'Μ_ν": 5600,
      "'υ_Ο": 5601,
      "(ψ)*": 5602,
      "(ψ)**": 5603,
      "'κ_K": 5604,
      "'θ_9": 5605,
      "'θ_Σ": 5606,
      "'Τ_d": 5607,
      "'ρ_9": 5608,
      "'l_3": 5609,
      "/2)/": 5610,
      "'γ_l": 5611,
      "'ο_9": 5612,
      "'ο_2'": 5613,
      "(Y*": 5614,
      "(Y))": 5615,
      "(Y)/": 5616,
      "'M_Γ'": 5617,
      "'χ_y": 5618,
      ")/(3*": 5619,
      ")/(2*sqrt(": 5620,
      ")/(5*sqrt(": 5621,
      "'ν_K": 5622,
      "'Υ_μ": 5623,
      "'α_C": 5624,
      "'α_I'": 5625,
      "'L_Γ": 5626,
      "'Η_Ρ": 5627,
      "'O_t": 5628,
      "'φ_j": 5629,
      "'φ_Ε": 5630,
      "'X_o": 5631,
      "'Α_b": 5632,
      "'Χ_l": 5633,
      "-sqrt(-": 5634,
      "(τ_4": 5635,
      "(c_i": 5636,
      "(c_ψ": 5637,
      "(Ω_J": 5638,
      "(Ρ_L": 5639,
      "(L_Γ": 5640,
      "(Τ_d": 5641,
      "(θ_9": 5642,
      "(ν_K": 5643,
      "(Z_O": 5644,
      "(ω_σ": 5645,
      "(N_Z": 5646,
      "(N_ι": 5647,
      "(φ_Ε": 5648,
      "(γ_Π": 5649,
      "Rational(-": 5650,
      "**Rational(3,": 5651,
      "**4)),": 5652,
      "125": 5653,
      "cosh(1": 5654,
      "cosh(1),": 5655,
      "480": 5656,
      "590": 5657,
      "576480": 5658,
      "*σ_": 5659,
      "-A": 5660,
      "-B": 5661,
      "-D": 5662,
      "-G": 5663,
      "-T": 5664,
      "-W": 5665,
      "-Δ": 5666,
      "-3*": 5667,
      "/B_": 5668,
      "/γ_": 5669,
      "/G_": 5670,
      "/h_": 5671,
      "/J)": 5672,
      "/χ),": 5673,
      "/K)": 5674,
      "/3)*": 5675,
      "/ο),": 5676,
      "/7)**": 5677,
      "11": 5678,
      "14": 5679,
      "1O": 5680,
      "1P": 5681,
      "1X": 5682,
      "1p": 5683,
      "1Ξ": 5684,
      "11,": 5685,
      "1η'": 5686,
      "1j'": 5687,
      "1)**(sqrt(": 5688,
      "12)": 5689,
      "1/log(": 5690,
      "24": 5691,
      "26": 5692,
      "27": 5693,
      "2A": 5694,
      "2X": 5695,
      "2b": 5696,
      "2c": 5697,
      "2p": 5698,
      "2Η": 5699,
      "2Σ": 5700,
      "2ζ": 5701,
      "2σ": 5702,
      "2ym": 5703,
      "2Η'": 5704,
      "2l'": 5705,
      "2**(sqrt(": 5706,
      "2l)": 5707,
      "31": 5708,
      "36": 5709,
      "39": 5710,
      "3D": 5711,
      "3I": 5712,
      "3W": 5713,
      "3Z": 5714,
      "3j": 5715,
      "3p": 5716,
      "3r": 5717,
      "3Ε": 5718,
      "3Η": 5719,
      "3δ": 5720,
      "3ε": 5721,
      "3**log(": 5722,
      "41": 5723,
      "4B": 5724,
      "4F": 5725,
      "4K": 5726,
      "4M": 5727,
      "4b": 5728,
      "4l": 5729,
      "4r": 5730,
      "4Φ": 5731,
      "4σ": 5732,
      "4m'": 5733,
      "4Λ'": 5734,
      "4ζ'": 5735,
      "4)),": 5736,
      "4**log(": 5737,
      "5B": 5738,
      "5F": 5739,
      "5O": 5740,
      "5W": 5741,
      "5b": 5742,
      "5k": 5743,
      "5l": 5744,
      "5Θ": 5745,
      "5ε": 5746,
      "5ρ": 5747,
      "5ρ'": 5748,
      "5)/2),": 5749,
      "5)/2)*": 5750,
      "69": 5751,
      "6R": 5752,
      "6Β": 5753,
      "6Ι": 5754,
      "6Ν": 5755,
      "6Ο": 5756,
      "6z'": 5757,
      "6ψ'": 5758,
      "6k'": 5759,
      "6)/2))": 5760,
      "6**log(": 5761,
      "656": 5762,
      "7/": 5763,
      "7J": 5764,
      "7K": 5765,
      "7U": 5766,
      "7a": 5767,
      "7j": 5768,
      "7v": 5769,
      "7z": 5770,
      "7Ρ": 5771,
      "7Φ": 5772,
      "7M'": 5773,
      "7Ξ'": 5774,
      "7)),": 5775,
      "8G": 5776,
      "8L": 5777,
      "8N": 5778,
      "8S": 5779,
      "8T": 5780,
      "8W": 5781,
      "8c": 5782,
      "8i": 5783,
      "8v": 5784,
      "8Π": 5785,
      "8Φ": 5786,
      "8υ": 5787,
      "8χ'": 5788,
      "8σ'": 5789,
      "8)/2),": 5790,
      "8)/2)": 5791,
      "8/log(": 5792,
      "9O": 5793,
      "9X": 5794,
      "9Η": 5795,
      "9Χ": 5796,
      "9κ": 5797,
      "9)*log(": 5798,
      "9)),": 5799,
      "A/": 5800,
      "A2": 5801,
      "AF": 5802,
      "AM": 5803,
      "AW": 5804,
      "Am": 5805,
      "AΓ": 5806,
      "AΛ": 5807,
      "A)/log(": 5808,
      "A)),": 5809,
      "B6": 5810,
      "B9": 5811,
      "BI": 5812,
      "BQ": 5813,
      "BS": 5814,
      "BW": 5815,
      "Bm": 5816,
      "Bv": 5817,
      "BΓ": 5818,
      "Bο": 5819,
      "Bυ": 5820,
      "Bψ": 5821,
      "Bog": 5822,
      "BM'": 5823,
      "B**(": 5824,
      "B)*log(": 5825,
      "C6": 5826,
      "C8": 5827,
      "CC": 5828,
      "Cv": 5829,
      "CΕ": 5830,
      "CΛ": 5831,
      "CΜ": 5832,
      "CΡ": 5833,
      "Cθ": 5834,
      "Cκ": 5835,
      "C)/log(": 5836,
      "D2": 5837,
      "D6": 5838,
      "DF": 5839,
      "DJ": 5840,
      "DK": 5841,
      "DO": 5842,
      "DR": 5843,
      "DS": 5844,
      "Db": 5845,
      "Dc": 5846,
      "Dq": 5847,
      "Dt": 5848,
      "Dz": 5849,
      "DΚ": 5850,
      "Dβ": 5851,
      "Dρ": 5852,
      "Dφ": 5853,
      "Dog": 5854,
      "DE'": 5855,
      "DX'": 5856,
      "EK": 5857,
      "EP": 5858,
      "EV": 5859,
      "En": 5860,
      "EΕ": 5861,
      "EΛ": 5862,
      "E**": 5863,
      "FD": 5864,
      "FI": 5865,
      "Fa": 5866,
      "Fl": 5867,
      "Fy": 5868,
      "FΗ": 5869,
      "Fα": 5870,
      "Fη": 5871,
      "Fθ": 5872,
      "Fι": 5873,
      "FJ'": 5874,
      "FZ'": 5875,
      "GK": 5876,
      "GR": 5877,
      "GY": 5878,
      "Gg": 5879,
      "GΘ": 5880,
      "Gζ": 5881,
      "Gο": 5882,
      "G)/": 5883,
      "G)**": 5884,
      "GΔ'": 5885,
      "H7": 5886,
      "HO": 5887,
      "Hc": 5888,
      "Hj": 5889,
      "HΛ": 5890,
      "HΥ": 5891,
      "HΩ": 5892,
      "Hφ": 5893,
      "Hun": 5894,
      "HΠ'": 5895,
      "H4'": 5896,
      "H5'": 5897,
      "I*": 5898,
      "I5": 5899,
      "I8": 5900,
      "IB": 5901,
      "ID": 5902,
      "IV": 5903,
      "Im": 5904,
      "Ip": 5905,
      "Iq": 5906,
      "Ir": 5907,
      "IΘ": 5908,
      "IΤ": 5909,
      "Iι": 5910,
      "Iο": 5911,
      "I)*log(": 5912,
      "JE": 5913,
      "JN": 5914,
      "JX": 5915,
      "Jl": 5916,
      "JΕ": 5917,
      "JΖ": 5918,
      "J)**": 5919,
      "JΒ'": 5920,
      "Jχ'": 5921,
      "Jφ'": 5922,
      "JP'": 5923,
      "Jψ'": 5924,
      "K/": 5925,
      "K8": 5926,
      "KK": 5927,
      "KM": 5928,
      "Kc": 5929,
      "Km": 5930,
      "Kζ": 5931,
      "Kθ": 5932,
      "Kυ": 5933,
      "K**": 5934,
      "KΖ'": 5935,
      "L2": 5936,
      "LJ": 5937,
      "LO": 5938,
      "LY": 5939,
      "Lj": 5940,
      "LΝ": 5941,
      "LΡ": 5942,
      "LΩ": 5943,
      "L**": 5944,
      "Lι'": 5945,
      "LΧ'": 5946,
      "L)*sqrt(": 5947,
      "LI,": 5948,
      "M/": 5949,
      "M6": 5950,
      "ME": 5951,
      "MG": 5952,
      "MK": 5953,
      "MN": 5954,
      "MO": 5955,
      "Mh": 5956,
      "Mu": 5957,
      "Mw": 5958,
      "MΕ": 5959,
      "MΠ": 5960,
      "Mβ": 5961,
      "MΜ'": 5962,
      "N2": 5963,
      "NY": 5964,
      "Nf": 5965,
      "NΨ": 5966,
      "Nμ": 5967,
      "Nν": 5968,
      "Nφ": 5969,
      "Nχ": 5970,
      "Nω": 5971,
      "NG'": 5972,
      "Nε'": 5973,
      "Nq'": 5974,
      "Nt'": 5975,
      "O4": 5976,
      "OR": 5977,
      "Oi": 5978,
      "Om": 5979,
      "Oz": 5980,
      "OΙ": 5981,
      "OΝ": 5982,
      "OΤ": 5983,
      "Oα": 5984,
      "Oβ'": 5985,
      "OL'": 5986,
      "OΡ'": 5987,
      "P*": 5988,
      "P9": 5989,
      "PF": 5990,
      "PQ": 5991,
      "PX": 5992,
      "PZ": 5993,
      "Pk": 5994,
      "Pt": 5995,
      "PΚ": 5996,
      "PΨ": 5997,
      "Pta": 5998,
      "PX'": 5999,
      "Q/": 6000,
      "Q8": 6001,
      "QL": 6002,
      "QS": 6003,
      "QU": 6004,
      "Qf": 6005,
      "Qm": 6006,
      "QΘ": 6007,
      "QΙ": 6008,
      "QΞ": 6009,
      "QΨ": 6010,
      "Qγ": 6011,
      "Qη": 6012,
      "Qλ": 6013,
      "Qο": 6014,
      "R2": 6015,
      "R4": 6016,
      "RM": 6017,
      "Rt": 6018,
      "RΦ": 6019,
      "R**": 6020,
      "RB'": 6021,
      "SF": 6022,
      "SI": 6023,
      "SJ": 6024,
      "SM": 6025,
      "SQ": 6026,
      "SX": 6027,
      "Sd": 6028,
      "Sn": 6029,
      "Sp": 6030,
      "Sv": 6031,
      "SΥ": 6032,
      "SΦ": 6033,
      "SΧ": 6034,
      "Sδ": 6035,
      "Sμ": 6036,
      "Sτ": 6037,
      "S)**": 6038,
      "SΙ'": 6039,
      "SΧ'": 6040,
      "Sν'": 6041,
      "T*": 6042,
      "TI": 6043,
      "TK": 6044,
      "TN": 6045,
      "TO": 6046,
      "TV": 6047,
      "Tf": 6048,
      "Ti": 6049,
      "Tm": 6050,
      "TΙ": 6051,
      "Tι": 6052,
      "Tο": 6053,
      "Tυ": 6054,
      "Tχ": 6055,
      "Tω": 6056,
      "T**(sqrt(": 6057,
      "UJ": 6058,
      "UP": 6059,
      "UX": 6060,
      "Ug": 6061,
      "Uk": 6062,
      "UΓ": 6063,
      "UΗ": 6064,
      "UΟ": 6065,
      "UΧ": 6066,
      "Uλ": 6067,
      "Uμ": 6068,
      "Uυ": 6069,
      "Uψ": 6070,
      "U)),": 6071,
      "VG": 6072,
      "VI": 6073,
      "VJ": 6074,
      "VQ": 6075,
      "VS": 6076,
      "Vb": 6077,
      "Vj": 6078,
      "Vw": 6079,
      "VΘ": 6080,
      "VΜ": 6081,
      "VΡ": 6082,
      "Vη": 6083,
      "Vρ": 6084,
      "Vν'": 6085,
      "W/": 6086,
      "Wg": 6087,
      "Wv": 6088,
      "Wλ": 6089,
      "Wg'": 6090,
      "W**(": 6091,
      "W)/sqrt(": 6092,
      "W)**log(": 6093,
      "X8": 6094,
      "X9": 6095,
      "XI": 6096,
      "XR": 6097,
      "XW": 6098,
      "XX": 6099,
      "Xj": 6100,
      "Xy": 6101,
      "XΚ": 6102,
      "XΥ": 6103,
      "Xβ": 6104,
      "Xδ": 6105,
      "Xχ": 6106,
      "XI'": 6107,
      "Y*": 6108,
      "Y4": 6109,
      "YC": 6110,
      "YO": 6111,
      "Yj": 6112,
      "Yl": 6113,
      "Yp": 6114,
      "Yr": 6115,
      "YΒ": 6116,
      "YΞ": 6117,
      "Yμ": 6118,
      "Yτ": 6119,
      "Z5": 6120,
      "ZF": 6121,
      "ZJ": 6122,
      "ZK": 6123,
      "ZS": 6124,
      "ZT": 6125,
      "Zd": 6126,
      "Zk": 6127,
      "Zy": 6128,
      "ZΑ": 6129,
      "ZΞ": 6130,
      "Z1,": 6131,
      "Z**(": 6132,
      "a/": 6133,
      "aA": 6134,
      "aF": 6135,
      "aJ": 6136,
      "aL": 6137,
      "aN": 6138,
      "aS": 6139,
      "aZ": 6140,
      "au": 6141,
      "aΠ": 6142,
      "aο": 6143,
      "aσ": 6144,
      "aψ": 6145,
      "a)**": 6146,
      "aR'": 6147,
      "aΖ'": 6148,
      "aq'": 6149,
      "aR,": 6150,
      "a/8),": 6151,
      "b*": 6152,
      "b3": 6153,
      "bF": 6154,
      "bN": 6155,
      "bR": 6156,
      "bU": 6157,
      "bW": 6158,
      "bY": 6159,
      "bi": 6160,
      "bs": 6161,
      "by": 6162,
      "bΕ": 6163,
      "bΗ": 6164,
      "bΞ": 6165,
      "bε": 6166,
      "bι": 6167,
      "bτ": 6168,
      "b)),": 6169,
      "c5": 6170,
      "cA": 6171,
      "cv": 6172,
      "cΚ": 6173,
      "cΥ": 6174,
      "cζ": 6175,
      "cλ": 6176,
      "cι'": 6177,
      "cΔ'": 6178,
      "cθ,": 6179,
      "d5": 6180,
      "dK": 6181,
      "dQ": 6182,
      "dX": 6183,
      "dp": 6184,
      "dz": 6185,
      "dΙ": 6186,
      "dΧ": 6187,
      "dζ": 6188,
      "dξ": 6189,
      "dA'": 6190,
      "fb": 6191,
      "fd": 6192,
      "fz": 6193,
      "fΛ": 6194,
      "fη": 6195,
      "fι": 6196,
      "fκ": 6197,
      "fμ": 6198,
      "fψ": 6199,
      "f)**": 6200,
      "f)/sqrt(": 6201,
      "f)/2),": 6202,
      "g1": 6203,
      "g2": 6204,
      "g4": 6205,
      "gC": 6206,
      "gF": 6207,
      "gQ": 6208,
      "gg": 6209,
      "gu": 6210,
      "gΒ": 6211,
      "gμ": 6212,
      "gta": 6213,
      "gΧ'": 6214,
      "g)**log(": 6215,
      "g/2),": 6216,
      "h1": 6217,
      "h6": 6218,
      "hF": 6219,
      "hQ": 6220,
      "hW": 6221,
      "hZ": 6222,
      "hk": 6223,
      "hu": 6224,
      "hw": 6225,
      "hx": 6226,
      "hz": 6227,
      "hΙ": 6228,
      "hΛ": 6229,
      "hΠ": 6230,
      "hΤ": 6231,
      "hζ": 6232,
      "hra": 6233,
      "hV'": 6234,
      "hΩ'": 6235,
      "hΠ,": 6236,
      "ig": 6237,
      "is": 6238,
      "iΙ": 6239,
      "iΛ": 6240,
      "iΜ": 6241,
      "iβ": 6242,
      "iδ": 6243,
      "iθ": 6244,
      "iβ'": 6245,
      "i**(": 6246,
      "i)/log(": 6247,
      "i)/sqrt(": 6248,
      "j6": 6249,
      "jE": 6250,
      "jV": 6251,
      "ja": 6252,
      "jd": 6253,
      "jΡ": 6254,
      "jΨ": 6255,
      "jυ": 6256,
      "k/": 6257,
      "k1": 6258,
      "kB": 6259,
      "kI": 6260,
      "kX": 6261,
      "kj": 6262,
      "kk": 6263,
      "km": 6264,
      "ku": 6265,
      "ky": 6266,
      "kΤ": 6267,
      "kΨ": 6268,
      "kδ": 6269,
      "kν": 6270,
      "k)/log(": 6271,
      "l1": 6272,
      "lZ": 6273,
      "li": 6274,
      "ln": 6275,
      "lu": 6276,
      "lz": 6277,
      "lΛ": 6278,
      "lρ": 6279,
      "lΖ'": 6280,
      "l)/sqrt(": 6281,
      "l)/4)": 6282,
      "m3": 6283,
      "ma": 6284,
      "mv": 6285,
      "mη": 6286,
      "mι": 6287,
      "m)*log(": 6288,
      "m9'": 6289,
      "nI": 6290,
      "nU": 6291,
      "nl": 6292,
      "nv": 6293,
      "nη": 6294,
      "nσ'": 6295,
      "nΕ'": 6296,
      "n)**(sqrt(": 6297,
      "n1'": 6298,
      "o1": 6299,
      "o6": 6300,
      "oJ": 6301,
      "oP": 6302,
      "oT": 6303,
      "oq": 6304,
      "oΑ": 6305,
      "oΗ": 6306,
      "oΣ": 6307,
      "oυ": 6308,
      "oκ'": 6309,
      "pC": 6310,
      "pG": 6311,
      "pL": 6312,
      "pc": 6313,
      "pl": 6314,
      "ps": 6315,
      "pv": 6316,
      "pΛ": 6317,
      "pΟ": 6318,
      "pΧ": 6319,
      "pΨ": 6320,
      "pξ": 6321,
      "ph'": 6322,
      "pW'": 6323,
      "q1": 6324,
      "q6": 6325,
      "q9": 6326,
      "qY": 6327,
      "qZ": 6328,
      "qw": 6329,
      "qΛ": 6330,
      "qΜ": 6331,
      "qΟ": 6332,
      "qΣ": 6333,
      "qβ": 6334,
      "qκ": 6335,
      "qa'": 6336,
      "qK'": 6337,
      "q)/log(": 6338,
      "r2": 6339,
      "r5": 6340,
      "rm": 6341,
      "rΣ": 6342,
      "rΩ": 6343,
      "rι": 6344,
      "rμ": 6345,
      "s2": 6346,
      "s9": 6347,
      "sG": 6348,
      "sR": 6349,
      "so": 6350,
      "sΑ": 6351,
      "sΞ": 6352,
      "sφ": 6353,
      "sR'": 6354,
      "sY'": 6355,
      "s)**log(": 6356,
      "tA": 6357,
      "tI": 6358,
      "tT": 6359,
      "tΙ": 6360,
      "tΚ": 6361,
      "tθ": 6362,
      "tο": 6363,
      "tρ": 6364,
      "tο'": 6365,
      "uG": 6366,
      "uH": 6367,
      "uN": 6368,
      "uV": 6369,
      "uc": 6370,
      "ur": 6371,
      "uv": 6372,
      "uΟ": 6373,
      "uα": 6374,
      "uβ": 6375,
      "uο": 6376,
      "uυ": 6377,
      "u)/": 6378,
      "u**": 6379,
      "u)**(sqrt(": 6380,
      "v9": 6381,
      "vN": 6382,
      "vP": 6383,
      "vm": 6384,
      "vt": 6385,
      "vΑ": 6386,
      "vΓ": 6387,
      "vΛ": 6388,
      "vΧ": 6389,
      "vΩ": 6390,
      "vξ": 6391,
      "vω": 6392,
      "vΓ'": 6393,
      "vV'": 6394,
      "vΛ'": 6395,
      "v)**(sqrt(": 6396,
      "v*log(": 6397,
      "w/": 6398,
      "w5": 6399,
      "w6": 6400,
      "w8": 6401,
      "wv": 6402,
      "wΠ": 6403,
      "wδ": 6404,
      "wμ": 6405,
      "wσ": 6406,
      "wθ'": 6407,
      "w**(": 6408,
      "w)*log(": 6409,
      "x4": 6410,
      "x8": 6411,
      "xI": 6412,
      "xo": 6413,
      "xq": 6414,
      "xz": 6415,
      "xΞ": 6416,
      "xΩ": 6417,
      "xη": 6418,
      "xν": 6419,
      "xρ": 6420,
      "xυ": 6421,
      "xχ": 6422,
      "xυ'": 6423,
      "xΦ'": 6424,
      "x)),": 6425,
      "y6": 6426,
      "yA": 6427,
      "yF": 6428,
      "yN": 6429,
      "yb": 6430,
      "yc": 6431,
      "yΑ": 6432,
      "yθ": 6433,
      "yσ": 6434,
      "yθ'": 6435,
      "y4'": 6436,
      "y5'": 6437,
      "z1": 6438,
      "zK": 6439,
      "zT": 6440,
      "zU": 6441,
      "zf": 6442,
      "zh": 6443,
      "zi": 6444,
      "zl": 6445,
      "zv": 6446,
      "zx": 6447,
      "zΓ": 6448,
      "zΨ": 6449,
      "zn'": 6450,
      "z8'": 6451,
      "ΑV": 6452,
      "Αa": 6453,
      "Αg": 6454,
      "Αm": 6455,
      "Αo": 6456,
      "ΑΘ": 6457,
      "Αγ": 6458,
      "Αζ": 6459,
      "Αη": 6460,
      "Αν": 6461,
      "Αχ": 6462,
      "Αψ": 6463,
      "ΒI": 6464,
      "ΒP": 6465,
      "Βc": 6466,
      "Βn": 6467,
      "Βw": 6468,
      "Βz": 6469,
      "ΒΒ": 6470,
      "ΒΓ": 6471,
      "Βν": 6472,
      "ΒΧ'": 6473,
      "Β**(": 6474,
      "Γ8": 6475,
      "ΓG": 6476,
      "ΓU": 6477,
      "Γc": 6478,
      "Γv": 6479,
      "ΓΑ": 6480,
      "ΓΖ": 6481,
      "ΓΥ": 6482,
      "Γγ": 6483,
      "Γζ": 6484,
      "Γκ": 6485,
      "Γκ'": 6486,
      "Δ1": 6487,
      "Δg": 6488,
      "ΔΕ": 6489,
      "ΔΖ": 6490,
      "ΔΙ": 6491,
      "ΔΥ": 6492,
      "Δγ": 6493,
      "Δξ": 6494,
      "Δρ": 6495,
      "Δυ": 6496,
      "Δο'": 6497,
      "ΔΞ'": 6498,
      "Δ)/log(": 6499,
      "ΔΚ'": 6500,
      "Ε/": 6501,
      "ΕF": 6502,
      "ΕG": 6503,
      "ΕK": 6504,
      "ΕZ": 6505,
      "ΕΔ": 6506,
      "ΕΛ": 6507,
      "Εγ'": 6508,
      "Ε)*log(": 6509,
      "Ζ*": 6510,
      "Ζ4": 6511,
      "ΖG": 6512,
      "ΖL": 6513,
      "ΖO": 6514,
      "Ζa": 6515,
      "Ζp": 6516,
      "ΖΕ": 6517,
      "ΖΤ": 6518,
      "Ζγ": 6519,
      "Ζζ": 6520,
      "Ζο": 6521,
      "Ζσ": 6522,
      "Ζφ": 6523,
      "Ζa'": 6524,
      "Ζ)/sqrt(": 6525,
      "ΗI": 6526,
      "ΗN": 6527,
      "Ηh": 6528,
      "Ηn": 6529,
      "Ηo": 6530,
      "Ηv": 6531,
      "Ηw": 6532,
      "ΗΙ": 6533,
      "ΗΚ": 6534,
      "ΗΠ": 6535,
      "ΗΡ": 6536,
      "Ηα": 6537,
      "Ηβ": 6538,
      "Ηv'": 6539,
      "ΗN'": 6540,
      "Θ*": 6541,
      "ΘC": 6542,
      "ΘI": 6543,
      "Θp": 6544,
      "Θq": 6545,
      "Θt": 6546,
      "ΘΕ": 6547,
      "ΘΣ": 6548,
      "ΘΧ": 6549,
      "ΘR'": 6550,
      "ΘΧ'": 6551,
      "ΙE": 6552,
      "ΙT": 6553,
      "ΙΑ": 6554,
      "ΙΚ": 6555,
      "ΙΥ": 6556,
      "ΙΧ": 6557,
      "ΙΩ": 6558,
      "Ιβ": 6559,
      "Ιε": 6560,
      "Ιρ": 6561,
      "Ιε'": 6562,
      "Κ/": 6563,
      "Κ3": 6564,
      "ΚA": 6565,
      "ΚH": 6566,
      "ΚV": 6567,
      "ΚX": 6568,
      "ΚY": 6569,
      "Κh": 6570,
      "Κv": 6571,
      "ΚΛ": 6572,
      "Κθ": 6573,
      "Κο": 6574,
      "Κ**": 6575,
      "ΚΠ'": 6576,
      "Κγ'": 6577,
      "Κ)),": 6578,
      "Λ8": 6579,
      "Λ9": 6580,
      "ΛI": 6581,
      "ΛN": 6582,
      "ΛΔ": 6583,
      "ΛΘ": 6584,
      "ΛΥ'": 6585,
      "Λ)),": 6586,
      "Λ5'": 6587,
      "Μc": 6588,
      "ΜΘ": 6589,
      "Μβ": 6590,
      "Μι": 6591,
      "ΜΦ'": 6592,
      "ΝD": 6593,
      "Νf": 6594,
      "Νt": 6595,
      "ΝΖ": 6596,
      "ΝΚ": 6597,
      "ΝΥ": 6598,
      "Νε": 6599,
      "Νη": 6600,
      "Νy'": 6601,
      "Ν**(": 6602,
      "ΝS'": 6603,
      "ΞF": 6604,
      "Ξa": 6605,
      "ΞΔ": 6606,
      "ΞΠ": 6607,
      "Ξκ": 6608,
      "Ξρ": 6609,
      "Ξv'": 6610,
      "Ξο'": 6611,
      "ΞΛ'": 6612,
      "ΞΕ'": 6613,
      "Ξ)/log(": 6614,
      "Ξ2'": 6615,
      "ΞΜ,": 6616,
      "Ο/": 6617,
      "ΟA": 6618,
      "ΟF": 6619,
      "ΟX": 6620,
      "Οb": 6621,
      "Οk": 6622,
      "Οm": 6623,
      "Οt": 6624,
      "Οw": 6625,
      "ΟΑ": 6626,
      "Ομ": 6627,
      "Ο**": 6628,
      "Οb'": 6629,
      "Ο)*log(": 6630,
      "ΟX'": 6631,
      "Οb,": 6632,
      "Π1": 6633,
      "Π5": 6634,
      "Π6": 6635,
      "Πo": 6636,
      "Π)**": 6637,
      "ΡM": 6638,
      "Ρl": 6639,
      "Ρq": 6640,
      "ΡΙ": 6641,
      "ΡΚ": 6642,
      "Ρθ": 6643,
      "Ρλ": 6644,
      "Ρχ": 6645,
      "Ρy'": 6646,
      "Ρ2'": 6647,
      "Σ7": 6648,
      "ΣF": 6649,
      "ΣK": 6650,
      "Σc": 6651,
      "Σd": 6652,
      "Σj": 6653,
      "Σv": 6654,
      "ΣΗ": 6655,
      "ΣΘ": 6656,
      "Σζ": 6657,
      "Σι": 6658,
      "Σσ": 6659,
      "ΣC'": 6660,
      "Τ2": 6661,
      "ΤC": 6662,
      "ΤH": 6663,
      "ΤQ": 6664,
      "Τd": 6665,
      "Τl": 6666,
      "Τz": 6667,
      "ΤΑ": 6668,
      "ΤΨ": 6669,
      "Τξ": 6670,
      "Τρ": 6671,
      "Τρ'": 6672,
      "Τν'": 6673,
      "Τδ'": 6674,
      "Υ/": 6675,
      "ΥB": 6676,
      "ΥF": 6677,
      "ΥG": 6678,
      "ΥH": 6679,
      "ΥN": 6680,
      "ΥQ": 6681,
      "ΥW": 6682,
      "ΥZ": 6683,
      "Υn": 6684,
      "Υo": 6685,
      "Υt": 6686,
      "Υw": 6687,
      "ΥΒ": 6688,
      "ΥΛ": 6689,
      "Υο": 6690,
      "Υ**": 6691,
      "ΥΟ'": 6692,
      "ΥΛ'": 6693,
      "Υl'": 6694,
      "Υr'": 6695,
      "Υ)**(sqrt(": 6696,
      "Φ6": 6697,
      "Φ8": 6698,
      "ΦJ": 6699,
      "ΦK": 6700,
      "ΦR": 6701,
      "Φc": 6702,
      "Φh": 6703,
      "Φt": 6704,
      "ΦΝ": 6705,
      "Φρ": 6706,
      "Φω": 6707,
      "ΦΧ'": 6708,
      "Φ)/log(": 6709,
      "ΧC": 6710,
      "ΧN": 6711,
      "ΧT": 6712,
      "ΧZ": 6713,
      "Χc": 6714,
      "Χj": 6715,
      "ΧΔ": 6716,
      "ΧΤ": 6717,
      "Χγ": 6718,
      "Χθ": 6719,
      "Χκ": 6720,
      "Χa'": 6721,
      "Χh'": 6722,
      "ΨI": 6723,
      "ΨN": 6724,
      "Ψj": 6725,
      "ΨΟ": 6726,
      "ΨΣ": 6727,
      "Ψσ": 6728,
      "ΨW'": 6729,
      "Ψ)/log(": 6730,
      "Ψ)/2))": 6731,
      "Ωd": 6732,
      "ΩΞ": 6733,
      "Ωζ": 6734,
      "Ωη": 6735,
      "Ωω": 6736,
      "Ωat": 6737,
      "ΩT'": 6738,
      "α*": 6739,
      "αS": 6740,
      "αY": 6741,
      "αo": 6742,
      "αw": 6743,
      "αΘ": 6744,
      "αΟ": 6745,
      "αα": 6746,
      "αρ": 6747,
      "α**": 6748,
      "β4": 6749,
      "βP": 6750,
      "βc": 6751,
      "βg": 6752,
      "βk": 6753,
      "βp": 6754,
      "βΑ": 6755,
      "βΕ": 6756,
      "βΙ": 6757,
      "ββ": 6758,
      "βv'": 6759,
      "β**(": 6760,
      "γ8": 6761,
      "γH": 6762,
      "γX": 6763,
      "γY": 6764,
      "γw": 6765,
      "γΟ": 6766,
      "γΩ": 6767,
      "γβ": 6768,
      "γδ": 6769,
      "γθ": 6770,
      "γλ": 6771,
      "γψ": 6772,
      "γλ'": 6773,
      "γα'": 6774,
      "γφ'": 6775,
      "γ1'": 6776,
      "δI": 6777,
      "δX": 6778,
      "δk": 6779,
      "δs": 6780,
      "δt": 6781,
      "δu": 6782,
      "δx": 6783,
      "δΓ": 6784,
      "δγ": 6785,
      "δτ": 6786,
      "δ5'": 6787,
      "εX": 6788,
      "εj": 6789,
      "εl": 6790,
      "εv": 6791,
      "εΒ": 6792,
      "εΓ": 6793,
      "εΗ": 6794,
      "εΛ": 6795,
      "εζ": 6796,
      "εφ": 6797,
      "εC'": 6798,
      "εx'": 6799,
      "ε)),": 6800,
      "ζM": 6801,
      "ζN": 6802,
      "ζk": 6803,
      "ζq": 6804,
      "ζw": 6805,
      "ζΜ": 6806,
      "ζΤ": 6807,
      "ζΧ": 6808,
      "ζΩ": 6809,
      "ζε": 6810,
      "ζσ": 6811,
      "ζυ": 6812,
      "ζ**": 6813,
      "ζ**(": 6814,
      "ζ)**log(": 6815,
      "ηD": 6816,
      "ηp": 6817,
      "ηt": 6818,
      "ηΚ": 6819,
      "ηΞ": 6820,
      "η**": 6821,
      "ηq'": 6822,
      "ηη'": 6823,
      "η**(": 6824,
      "η)*log(": 6825,
      "θD": 6826,
      "θF": 6827,
      "θO": 6828,
      "θX": 6829,
      "θo": 6830,
      "θΑ": 6831,
      "θΩ": 6832,
      "θβ": 6833,
      "θε": 6834,
      "θη": 6835,
      "θκ": 6836,
      "θ**": 6837,
      "θΑ'": 6838,
      "θΑ,": 6839,
      "ι5": 6840,
      "ι6": 6841,
      "ιH": 6842,
      "ιO": 6843,
      "ιT": 6844,
      "ιΔ": 6845,
      "ιΡ": 6846,
      "ιΣ": 6847,
      "ιΦ": 6848,
      "ιΩ": 6849,
      "ιβ": 6850,
      "ιλ": 6851,
      "ιiv": 6852,
      "ι)**": 6853,
      "ι)*log(": 6854,
      "ι)),": 6855,
      "ιβU": 6856,
      "κ4": 6857,
      "κB": 6858,
      "κQ": 6859,
      "κR": 6860,
      "κS": 6861,
      "κp": 6862,
      "κs": 6863,
      "κΨ": 6864,
      "κρ": 6865,
      "κΙ'": 6866,
      "κο'": 6867,
      "λU": 6868,
      "λn": 6869,
      "λx": 6870,
      "λΓ": 6871,
      "λι": 6872,
      "λ)*log(": 6873,
      "λ)/sqrt(": 6874,
      "μO": 6875,
      "μX": 6876,
      "μc": 6877,
      "μq": 6878,
      "μr": 6879,
      "μΚ": 6880,
      "μΠ": 6881,
      "μυ": 6882,
      "μun": 6883,
      "ν6": 6884,
      "ν9": 6885,
      "νH": 6886,
      "νK": 6887,
      "νW": 6888,
      "νp": 6889,
      "νΓ": 6890,
      "νΛ": 6891,
      "νΝ": 6892,
      "νδ": 6893,
      "νν": 6894,
      "νξ": 6895,
      "ν**": 6896,
      "ν)),": 6897,
      "ξ6": 6898,
      "ξQ": 6899,
      "ξZ": 6900,
      "ξp": 6901,
      "ξu": 6902,
      "ξΒ": 6903,
      "ξΔ": 6904,
      "ξΗ": 6905,
      "ξΣ": 6906,
      "ξΧ": 6907,
      "ξζ": 6908,
      "ξη": 6909,
      "ξml": 6910,
      "ξ**(": 6911,
      "ο3": 6912,
      "οK": 6913,
      "οM": 6914,
      "οR": 6915,
      "οU": 6916,
      "οl": 6917,
      "οΒ": 6918,
      "οΖ": 6919,
      "οΛ": 6920,
      "οΣ": 6921,
      "οΨ": 6922,
      "οζ": 6923,
      "οι": 6924,
      "ον": 6925,
      "ο**(": 6926,
      "ρ*": 6927,
      "ρ/": 6928,
      "ρK": 6929,
      "ρS": 6930,
      "ρU": 6931,
      "ρZ": 6932,
      "ρo": 6933,
      "ρΔ": 6934,
      "ρΛ": 6935,
      "ρΞ": 6936,
      "ρν": 6937,
      "ργ'": 6938,
      "ρ)/log(": 6939,
      "ρ)**log(": 6940,
      "ρν'": 6941,
      "σ6": 6942,
      "σS": 6943,
      "σV": 6944,
      "σd": 6945,
      "σm": 6946,
      "σp": 6947,
      "σΑ": 6948,
      "σΖ": 6949,
      "σΙ": 6950,
      "σδ": 6951,
      "σφ": 6952,
      "σψ": 6953,
      "σω": 6954,
      "σm'": 6955,
      "σ)*log(": 6956,
      "σ2'": 6957,
      "τ*": 6958,
      "τ7": 6959,
      "τB": 6960,
      "τH": 6961,
      "τM": 6962,
      "τV": 6963,
      "τg": 6964,
      "τq": 6965,
      "τΓ": 6966,
      "τΖ": 6967,
      "τΚ": 6968,
      "ττ": 6969,
      "τt'": 6970,
      "τM'": 6971,
      "τz'": 6972,
      "τΝ'": 6973,
      "τ/2),": 6974,
      "υ/": 6975,
      "υO": 6976,
      "υf": 6977,
      "υh": 6978,
      "υo": 6979,
      "υt": 6980,
      "υΒ": 6981,
      "υΓ'": 6982,
      "υ)**log(": 6983,
      "φG": 6984,
      "φR": 6985,
      "φa": 6986,
      "φd": 6987,
      "φo": 6988,
      "φΙ": 6989,
      "φΡ": 6990,
      "φο": 6991,
      "φψ": 6992,
      "φ**": 6993,
      "φh'": 6994,
      "φ)/sqrt(": 6995,
      "χ1": 6996,
      "χ3": 6997,
      "χQ": 6998,
      "χf": 6999,
      "χn": 7000,
      "χs": 7001,
      "χΞ": 7002,
      "χγ": 7003,
      "χδ": 7004,
      "χι": 7005,
      "χ**": 7006,
      "χB'": 7007,
      "χb'": 7008,
      "χ)/2)": 7009,
      "ψA": 7010,
      "ψE": 7011,
      "ψF": 7012,
      "ψJ": 7013,
      "ψP": 7014,
      "ψU": 7015,
      "ψX": 7016,
      "ψl": 7017,
      "ψm": 7018,
      "ψw": 7019,
      "ψΓ": 7020,
      "ψΙ": 7021,
      "ψΥ": 7022,
      "ψΩ": 7023,
      "ψζ": 7024,
      "ψυ'": 7025,
      "ψΜ'": 7026,
      "ψ**(": 7027,
      "ψ)**log(": 7028,
      "ω1": 7029,
      "ωV": 7030,
      "ωo": 7031,
      "ωu": 7032,
      "ωκ": 7033,
      "ωω": 7034,
      "ω)),": 7035,
      "log(Y": 7036,
      "log(Z": 7037,
      "log(i": 7038,
      "log(o": 7039,
      "log(t": 7040,
      "log(z": 7041,
      "log(Α": 7042,
      "log(Β": 7043,
      "log(θ": 7044,
      "log(ι": 7045,
      "log(ο": 7046,
      "log(τ": 7047,
      "log(Θ_": 7048,
      "log(S_": 7049,
      "log(R_": 7050,
      "log(D_": 7051,
      "log(υ_": 7052,
      "log(κ_": 7053,
      "log(P_": 7054,
      "log(A_": 7055,
      "log(Δ_": 7056,
      "log(Ι_": 7057,
      "log(i_": 7058,
      "log(Ν_": 7059,
      "log(y_": 7060,
      "log(k_": 7061,
      "log(M_": 7062,
      "log(G_": 7063,
      "log(a_": 7064,
      "log(λ_": 7065,
      "log(δ_": 7066,
      "log(ω_": 7067,
      "log(2*": 7068,
      "log(5*": 7069,
      "log(υ))": 7070,
      "log(ι))": 7071,
      "log(ν))": 7072,
      "log(A))": 7073,
      "log(γ))": 7074,
      "log(Β))": 7075,
      "log(Γ))": 7076,
      "log(Τ))": 7077,
      "log(ε)": 7078,
      "log(m)": 7079,
      "log(ν),": 7080,
      "log(X)": 7081,
      "log(μ)": 7082,
      "log(f)": 7083,
      "log(Κ)": 7084,
      "log(Μ)": 7085,
      "log(L)": 7086,
      "log(y)": 7087,
      "log(F)": 7088,
      "log(Y)": 7089,
      "log(Z),": 7090,
      "log(H)": 7091,
      "log(s)": 7092,
      "log(Α)": 7093,
      "log(κ),": 7094,
      "log(μ),": 7095,
      "log(P),": 7096,
      "log(Δ),": 7097,
      "log(J),": 7098,
      "log(y),": 7099,
      "log(Σ),": 7100,
      "log(u),": 7101,
      "log(F)*": 7102,
      "log(α)/": 7103,
      "log(ν)**": 7104,
      "log(Δ)/": 7105,
      "log(X)**": 7106,
      "sqrt(T": 7107,
      "sqrt(n": 7108,
      "sqrt(ε": 7109,
      "sqrt(g_": 7110,
      "sqrt(Λ_": 7111,
      "sqrt(Ρ_": 7112,
      "sqrt(I_": 7113,
      "sqrt(D_": 7114,
      "sqrt(Ξ_": 7115,
      "sqrt(Τ_": 7116,
      "sqrt(κ_": 7117,
      "sqrt(θ_": 7118,
      "sqrt(x_": 7119,
      "sqrt(o_": 7120,
      "sqrt(A_": 7121,
      "sqrt(l_": 7122,
      "sqrt(W_": 7123,
      "sqrt(γ_": 7124,
      "sqrt(m_": 7125,
      "sqrt(v_": 7126,
      "sqrt(k_": 7127,
      "sqrt(J_": 7128,
      "sqrt(r_": 7129,
      "sqrt(j_": 7130,
      "sqrt(Ο_": 7131,
      "sqrt(δ_": 7132,
      "sqrt(Α_": 7133,
      "sqrt(P)": 7134,
      "sqrt(m)": 7135,
      "sqrt(Α))": 7136,
      "sqrt(w)": 7137,
      "sqrt(A)": 7138,
      "sqrt(R)": 7139,
      "sqrt(k)": 7140,
      "sqrt(Π)": 7141,
      "sqrt(r)": 7142,
      "sqrt(Ζ)": 7143,
      "sqrt(Κ)": 7144,
      "sqrt(σ)": 7145,
      "sqrt(Φ)": 7146,
      "sqrt(L)": 7147,
      "sqrt(B)": 7148,
      "sqrt(b)": 7149,
      "sqrt(Z)": 7150,
      "sqrt(Ω)*": 7151,
      "sqrt(n)*": 7152,
      "sqrt(i)*": 7153,
      "sqrt(λ)*": 7154,
      "sqrt(K)/": 7155,
      "sqrt(5)*sqrt(": 7156,
      "sqrt(γ)/": 7157,
      "sqrt(Τ)/": 7158,
      "Sum(x": 7159,
      "Sum(Υ": 7160,
      "Sum(δ": 7161,
      "Sum(Δ_": 7162,
      "Sum(F_": 7163,
      "Sum(d_": 7164,
      "Sum(4*": 7165,
      "Sum(8**": 7166,
      "Sum(5*log(": 7167,
      "Sum(m*": 7168,
      "Sum(3*log(": 7169,
      "Sum(γ*": 7170,
      "Integral(G": 7171,
      "Integral(M": 7172,
      "Integral(i": 7173,
      "Integral(γ": 7174,
      "Integral(B_": 7175,
      "Integral(8*log(": 7176,
      "Integral(8*sqrt(": 7177,
      "Derivative(1": 7178,
      "Derivative(L": 7179,
      "Derivative(W": 7180,
      "Derivative(l": 7181,
      "Derivative(v": 7182,
      "Derivative(x": 7183,
      "Derivative(c_": 7184,
      "Derivative(Ν_": 7185,
      "**A_": 7186,
      "**W_": 7187,
      "**Η_": 7188,
      "**7))": 7189,
      "**ρ),": 7190,
      "g_F": 7191,
      "g_G": 7192,
      "g_N": 7193,
      "g_T": 7194,
      "g_a": 7195,
      "g_o": 7196,
      "g_q": 7197,
      "g_Λ": 7198,
      "g_Μ": 7199,
      "g_Ο": 7200,
      "g_Σ": 7201,
      "g_α": 7202,
      "g_γ": 7203,
      "g_θ": 7204,
      "g_υ": 7205,
      "g_κΙ": 7206,
      "Β_W": 7207,
      "Β_Χ": 7208,
      "Β_σ": 7209,
      "Β_ψ": 7210,
      "ξ_A": 7211,
      "ξ_h": 7212,
      "ξ_y": 7213,
      "ξ_Ζ": 7214,
      "ξ_Υ": 7215,
      "ξ_Χ": 7216,
      "ξ_χ": 7217,
      "ξ_jζ": 7218,
      "H_Z": 7219,
      "H_q": 7220,
      "H_t": 7221,
      "H_Φ": 7222,
      "H_rS": 7223,
      "C_G": 7224,
      "C_L": 7225,
      "C_S": 7226,
      "C_W": 7227,
      "C_d": 7228,
      "C_n": 7229,
      "C_w": 7230,
      "C_ρ": 7231,
      "C_θΕ": 7232,
      "ε_T": 7233,
      "ε_m": 7234,
      "ε_p": 7235,
      "ε_w": 7236,
      "ε_Σ": 7237,
      "ε_Τ": 7238,
      "ε_Υ": 7239,
      "ε_φ": 7240,
      "ε_aΝ": 7241,
      "ε_vΡ": 7242,
      "ε_rd": 7243,
      "s_C": 7244,
      "s_W": 7245,
      "s_c": 7246,
      "s_Μ": 7247,
      "s_μ": 7248,
      "Λ_p": 7249,
      "Λ_u": 7250,
      "Λ_ο": 7251,
      "Λ_Nb": 7252,
      "Ω_9": 7253,
      "Ω_F": 7254,
      "Ω_I": 7255,
      "Ω_Z": 7256,
      "Ω_Γ": 7257,
      "Ω_Ο": 7258,
      "Ω_Σ": 7259,
      "Ω_ρ": 7260,
      "Ω_xΓ": 7261,
      "Ω_WΤ": 7262,
      "η_I": 7263,
      "η_f": 7264,
      "η_Ι": 7265,
      "η_Φ": 7266,
      "η_η": 7267,
      "η_τQ": 7268,
      "τ_9": 7269,
      "τ_C": 7270,
      "τ_V": 7271,
      "τ_a": 7272,
      "τ_δ": 7273,
      "τ_ζ": 7274,
      "τ_Λn": 7275,
      "B_ε": 7276,
      "B_ν": 7277,
      "B_ο": 7278,
      "B_ΧΜ": 7279,
      "σ_F": 7280,
      "σ_G": 7281,
      "σ_W": 7282,
      "σ_c": 7283,
      "σ_f": 7284,
      "σ_Φ": 7285,
      "σ_ρ": 7286,
      "σ_τ": 7287,
      "σ_φ": 7288,
      "σ_EΡ": 7289,
      "σ_γΥ": 7290,
      "E_K": 7291,
      "E_u": 7292,
      "E_y": 7293,
      "E_Ο": 7294,
      "E_ε": 7295,
      "E_σ": 7296,
      "E_υ": 7297,
      "E_δκ": 7298,
      "K_2": 7299,
      "K_F": 7300,
      "K_M": 7301,
      "K_y": 7302,
      "K_Δ": 7303,
      "K_Η": 7304,
      "K_φ": 7305,
      "K_ω": 7306,
      "K_Ψo": 7307,
      "K_ρ2": 7308,
      "K_uφ": 7309,
      "Q_L": 7310,
      "Q_Q": 7311,
      "Q_d": 7312,
      "Q_Ξ": 7313,
      "Q_ν": 7314,
      "Q_γα": 7315,
      "Q_t7": 7316,
      "Θ_Q": 7317,
      "Θ_b": 7318,
      "Θ_Κ": 7319,
      "Θ_ξ": 7320,
      "Θ_ρ": 7321,
      "Θ_υ": 7322,
      "Θ_ψ": 7323,
      "Θ_Mc": 7324,
      "Θ_ωc": 7325,
      "Θ_Zε": 7326,
      "Θ_8x": 7327,
      "Θ_Aν": 7328,
      "Θ_pν": 7329,
      "Θ_vw": 7330,
      "S_5": 7331,
      "S_B": 7332,
      "S_C": 7333,
      "S_M": 7334,
      "S_X": 7335,
      "S_h": 7336,
      "S_m": 7337,
      "S_o": 7338,
      "S_Γ": 7339,
      "S_Λ": 7340,
      "ζ_7": 7341,
      "ζ_B": 7342,
      "ζ_I": 7343,
      "ζ_P": 7344,
      "ζ_T": 7345,
      "ζ_j": 7346,
      "u_Z": 7347,
      "u_n": 7348,
      "u_Β": 7349,
      "u_Ω": 7350,
      "u_ν": 7351,
      "u_εη": 7352,
      "Ρ_o": 7353,
      "Ρ_Θ": 7354,
      "Ρ_ξ": 7355,
      "Ρ_υ": 7356,
      "Ρ_ΦΜ": 7357,
      "Ρ_ΙΤ": 7358,
      "U_A": 7359,
      "U_C": 7360,
      "U_M": 7361,
      "U_Z": 7362,
      "U_q": 7363,
      "U_v": 7364,
      "U_Bx": 7365,
      "U_Nθ": 7366,
      "U_uν": 7367,
      "I_V": 7368,
      "I_a": 7369,
      "I_Σ": 7370,
      "I_γ": 7371,
      "I_μ": 7372,
      "R_1": 7373,
      "R_G": 7374,
      "R_h": 7375,
      "R_3u": 7376,
      "Π_D": 7377,
      "Π_L": 7378,
      "Π_V": 7379,
      "Π_i": 7380,
      "Π_v": 7381,
      "Π_Ε": 7382,
      "Π_Ν": 7383,
      "Π_Ψ": 7384,
      "Π_θ": 7385,
      "Π_ω": 7386,
      "Π_kΓ": 7387,
      "Π_pΚ": 7388,
      "Π_ρj": 7389,
      "D_2": 7390,
      "D_i": 7391,
      "D_ζ": 7392,
      "D_ψΞ": 7393,
      "V_9": 7394,
      "V_A": 7395,
      "V_i": 7396,
      "V_t": 7397,
      "V_w": 7398,
      "V_Π": 7399,
      "V_θ": 7400,
      "V_ω": 7401,
      "V_Aθ": 7402,
      "V_ζQ": 7403,
      "Μ_7": 7404,
      "Μ_E": 7405,
      "Μ_V": 7406,
      "Μ_Y": 7407,
      "Μ_υ": 7408,
      "Μ_ΘΓ": 7409,
      "Μ_γΧ": 7410,
      "Ξ_C": 7411,
      "Ξ_I": 7412,
      "Ξ_Q": 7413,
      "Ξ_V": 7414,
      "Ξ_α": 7415,
      "Ξ_θ": 7416,
      "Ξ_ρ": 7417,
      "Ξ_JΓ": 7418,
      "Ξ_NH": 7419,
      "υ_G": 7420,
      "υ_N": 7421,
      "υ_U": 7422,
      "υ_b": 7423,
      "υ_n": 7424,
      "υ_y": 7425,
      "υ_Δ": 7426,
      "υ_Η": 7427,
      "υ_Ν": 7428,
      "c_N": 7429,
      "c_S": 7430,
      "c_W": 7431,
      "c_g": 7432,
      "c_l": 7433,
      "c_m": 7434,
      "c_γ": 7435,
      "c_ρ": 7436,
      "c_dψ": 7437,
      "c_ΤY": 7438,
      "w_A": 7439,
      "w_K": 7440,
      "w_O": 7441,
      "w_Q": 7442,
      "w_R": 7443,
      "w_b": 7444,
      "w_φ": 7445,
      "Τ_W": 7446,
      "Τ_X": 7447,
      "Τ_Z": 7448,
      "Τ_Θ": 7449,
      "Τ_ω": 7450,
      "Τ_9ο": 7451,
      "Τ_Hε": 7452,
      "β_E": 7453,
      "β_H": 7454,
      "β_Z": 7455,
      "β_c": 7456,
      "β_f": 7457,
      "β_Λ": 7458,
      "κ_J": 7459,
      "κ_V": 7460,
      "κ_d": 7461,
      "κ_k": 7462,
      "κ_v": 7463,
      "κ_Ρ": 7464,
      "κ_Ψ": 7465,
      "κ_ε": 7466,
      "κ_NS": 7467,
      "θ_6": 7468,
      "θ_H": 7469,
      "θ_w": 7470,
      "θ_θω": 7471,
      "θ_5N": 7472,
      "n_7": 7473,
      "n_h": 7474,
      "n_n": 7475,
      "n_o": 7476,
      "n_Μ": 7477,
      "n_ε": 7478,
      "n_θ": 7479,
      "n_ξ": 7480,
      "n_λV": 7481,
      "n_ψψ": 7482,
      "Y_P": 7483,
      "Y_Ε": 7484,
      "Y_Μ": 7485,
      "Y_2y": 7486,
      "x_6": 7487,
      "x_I": 7488,
      "x_K": 7489,
      "x_M": 7490,
      "x_l": 7491,
      "x_z": 7492,
      "x_Ο": 7493,
      "x_Ρ": 7494,
      "x_Τ": 7495,
      "x_Ω": 7496,
      "x_χ": 7497,
      "P_5": 7498,
      "P_D": 7499,
      "P_d": 7500,
      "P_n": 7501,
      "P_Λ": 7502,
      "P_ω": 7503,
      "P_zW": 7504,
      "P_Q3": 7505,
      "P_oo": 7506,
      "P_rδ": 7507,
      "o_5": 7508,
      "o_σ": 7509,
      "o_Σk": 7510,
      "A_4": 7511,
      "A_7": 7512,
      "A_h": 7513,
      "A_t": 7514,
      "A_Μ": 7515,
      "A_κ": 7516,
      "A_ξ": 7517,
      "A_ω": 7518,
      "l_2": 7519,
      "l_W": 7520,
      "l_8p": 7521,
      "l_Lκ": 7522,
      "Δ_B": 7523,
      "Δ_S": 7524,
      "Δ_W": 7525,
      "Δ_g": 7526,
      "Δ_Α": 7527,
      "Δ_Η": 7528,
      "Δ_Ω": 7529,
      "Δ_ν": 7530,
      "Δ_τ": 7531,
      "Δ_Κz": 7532,
      "Δ_ΜN": 7533,
      "Δ_ΝΔ": 7534,
      "ψ_A": 7535,
      "ψ_C": 7536,
      "ψ_D": 7537,
      "ψ_P": 7538,
      "ψ_R": 7539,
      "ψ_n": 7540,
      "ψ_Β": 7541,
      "ψ_α": 7542,
      "Ι_B": 7543,
      "Ι_D": 7544,
      "Ι_K": 7545,
      "Ι_O": 7546,
      "Ι_ξ": 7547,
      "Ι_ψ": 7548,
      "i_9": 7549,
      "i_C": 7550,
      "i_d": 7551,
      "i_Γ": 7552,
      "i_Ρ": 7553,
      "i_Φ": 7554,
      "i_υ": 7555,
      "i_φ": 7556,
      "Ν_2": 7557,
      "Ν_L": 7558,
      "Ν_P": 7559,
      "Ν_X": 7560,
      "Ν_χR": 7561,
      "Ν_ρW": 7562,
      "Ν_Ηr": 7563,
      "Ν_Εt": 7564,
      "W_3": 7565,
      "W_B": 7566,
      "W_t": 7567,
      "W_Φ": 7568,
      "W_υ": 7569,
      "W_5ω": 7570,
      "ρ_Θ": 7571,
      "ρ_Σ": 7572,
      "ρ_μ": 7573,
      "ρ_ya": 7574,
      "F_B": 7575,
      "F_E": 7576,
      "F_W": 7577,
      "F_v": 7578,
      "F_w": 7579,
      "F_Τ": 7580,
      "F_Φ": 7581,
      "F_ι": 7582,
      "F_ΣB": 7583,
      "F_nx": 7584,
      "γ_P": 7585,
      "γ_Z": 7586,
      "γ_x": 7587,
      "γ_Ν": 7588,
      "γ_κ": 7589,
      "m_7": 7590,
      "m_M": 7591,
      "m_Β": 7592,
      "m_Δ": 7593,
      "m_Π": 7594,
      "m_ω": 7595,
      "m_7d": 7596,
      "m_Εu": 7597,
      "v_1": 7598,
      "v_K": 7599,
      "v_o": 7600,
      "v_Σ": 7601,
      "v_ε": 7602,
      "v_rX": 7603,
      "v_Jf": 7604,
      "v_Pζ": 7605,
      "y_F": 7606,
      "y_a": 7607,
      "y_c": 7608,
      "y_Κ": 7609,
      "y_Ν": 7610,
      "y_ο": 7611,
      "ο_J": 7612,
      "ο_a": 7613,
      "ο_g": 7614,
      "ο_α": 7615,
      "ο_η": 7616,
      "ο_Cζ": 7617,
      "ο_ιF": 7618,
      "χ_B": 7619,
      "χ_E": 7620,
      "χ_Q": 7621,
      "χ_p": 7622,
      "χ_Μ": 7623,
      "χ_Dχ": 7624,
      "Ψ_4": 7625,
      "Ψ_i": 7626,
      "Ψ_u": 7627,
      "Ψ_Ο": 7628,
      "Ψ_Hf": 7629,
      "b_3": 7630,
      "b_F": 7631,
      "b_Χ": 7632,
      "b_mα": 7633,
      "b_yξ": 7634,
      "k_2": 7635,
      "k_A": 7636,
      "k_d": 7637,
      "k_g": 7638,
      "k_r": 7639,
      "k_w": 7640,
      "k_ο": 7641,
      "Η_9": 7642,
      "Η_I": 7643,
      "Η_S": 7644,
      "Η_Z": 7645,
      "Η_Ν": 7646,
      "Η_Ξ": 7647,
      "Η_RA": 7648,
      "M_4": 7649,
      "M_7": 7650,
      "M_B": 7651,
      "M_O": 7652,
      "M_U": 7653,
      "M_b": 7654,
      "M_c": 7655,
      "M_u": 7656,
      "M_Ο": 7657,
      "M_ε": 7658,
      "M_λ": 7659,
      "M_ψ": 7660,
      "Υ_T": 7661,
      "Υ_h": 7662,
      "Υ_s": 7663,
      "Υ_Α": 7664,
      "Υ_Ζ": 7665,
      "Υ_Ρ": 7666,
      "Υ_α": 7667,
      "Υ_λ": 7668,
      "Υ_Σρ": 7669,
      "α_D": 7670,
      "α_W": 7671,
      "α_h": 7672,
      "α_y": 7673,
      "α_Η": 7674,
      "α_Χ": 7675,
      "α_ψ": 7676,
      "α_nΘ": 7677,
      "L_2": 7678,
      "L_R": 7679,
      "L_b": 7680,
      "L_d": 7681,
      "L_s": 7682,
      "L_v": 7683,
      "L_υ": 7684,
      "L_Γη": 7685,
      "N_O": 7686,
      "N_g": 7687,
      "N_ε": 7688,
      "N_σ": 7689,
      "N_3γ": 7690,
      "t_l": 7691,
      "t_t": 7692,
      "t_Ο": 7693,
      "t_Φ": 7694,
      "t_β": 7695,
      "t_mψ": 7696,
      "t_Φq": 7697,
      "G_9": 7698,
      "G_O": 7699,
      "G_R": 7700,
      "G_T": 7701,
      "G_Λ": 7702,
      "G_θ": 7703,
      "G_ν": 7704,
      "O_7": 7705,
      "O_D": 7706,
      "O_n": 7707,
      "O_α": 7708,
      "J_J": 7709,
      "J_K": 7710,
      "J_h": 7711,
      "J_i": 7712,
      "J_Θ": 7713,
      "J_λ": 7714,
      "J_ψ": 7715,
      "J_CΦ": 7716,
      "Ζ_H": 7717,
      "Ζ_Y": 7718,
      "Ζ_i": 7719,
      "Ζ_Ρ": 7720,
      "Ζ_γh": 7721,
      "φ_D": 7722,
      "φ_F": 7723,
      "φ_j": 7724,
      "φ_Ο": 7725,
      "φ_ν": 7726,
      "q_E": 7727,
      "q_a": 7728,
      "q_z": 7729,
      "q_Μ": 7730,
      "q_Ν": 7731,
      "q_δ": 7732,
      "q_ε": 7733,
      "q_φ": 7734,
      "z_1": 7735,
      "z_βΞ": 7736,
      "Γ_A": 7737,
      "Γ_H": 7738,
      "Γ_J": 7739,
      "Γ_t": 7740,
      "Γ_Γ": 7741,
      "Γ_Ω": 7742,
      "Γ_ζ": 7743,
      "Γ_μ": 7744,
      "Γ_wW": 7745,
      "r_Λ": 7746,
      "r_Ο": 7747,
      "r_γ": 7748,
      "r_λ": 7749,
      "r_ψp": 7750,
      "j_B": 7751,
      "j_g": 7752,
      "j_m": 7753,
      "j_q": 7754,
      "f_9": 7755,
      "f_R": 7756,
      "f_S": 7757,
      "f_b": 7758,
      "f_f": 7759,
      "f_u": 7760,
      "f_Δ": 7761,
      "f_Σ": 7762,
      "f_θ": 7763,
      "f_ξ": 7764,
      "f_8Υ": 7765,
      "d_B": 7766,
      "ι_4": 7767,
      "ι_8": 7768,
      "ι_S": 7769,
      "ι_j": 7770,
      "ι_Α": 7771,
      "ι_Β": 7772,
      "ι_Ε": 7773,
      "ι_μ": 7774,
      "ι_7Λ": 7775,
      "ι_CD": 7776,
      "ι_sω": 7777,
      "Ε_7": 7778,
      "Ε_Β": 7779,
      "Ε_Ζ": 7780,
      "Ε_dα": 7781,
      "h_L": 7782,
      "h_N": 7783,
      "h_S": 7784,
      "h_Γ": 7785,
      "h_Ζ": 7786,
      "h_ωη": 7787,
      "T_D": 7788,
      "T_G": 7789,
      "T_M": 7790,
      "T_Δ": 7791,
      "T_Λ": 7792,
      "T_α": 7793,
      "T_ζ": 7794,
      "T_θ": 7795,
      "T_τ": 7796,
      "T_5n": 7797,
      "T_Τ1": 7798,
      "Ο_1": 7799,
      "Ο_M": 7800,
      "Ο_w": 7801,
      "Ο_Δ": 7802,
      "Ο_Ε": 7803,
      "Ο_JK": 7804,
      "Ο_dο": 7805,
      "Σ_6": 7806,
      "Σ_Ψ": 7807,
      "Χ_L": 7808,
      "Χ_X": 7809,
      "Χ_r": 7810,
      "Χ_ζ": 7811,
      "Χ_υ": 7812,
      "Χ_ελ": 7813,
      "Χ_ΞΤ": 7814,
      "Χ_Hι": 7815,
      "Χ_ΞJ": 7816,
      "a_b": 7817,
      "a_i": 7818,
      "a_p": 7819,
      "a_v": 7820,
      "a_Β": 7821,
      "a_Ο": 7822,
      "a_ι": 7823,
      "a_3t": 7824,
      "Φ_R": 7825,
      "Φ_k": 7826,
      "Φ_δ": 7827,
      "Φ_θ": 7828,
      "Φ_λ": 7829,
      "λ_3": 7830,
      "λ_4": 7831,
      "λ_6": 7832,
      "λ_Z": 7833,
      "λ_ε": 7834,
      "p_n": 7835,
      "p_t": 7836,
      "p_Ζ": 7837,
      "p_Μ": 7838,
      "p_Σ": 7839,
      "p_η": 7840,
      "p_Dζ": 7841,
      "(-L": 7842,
      "(-P": 7843,
      "(-Α": 7844,
      "(-Γ": 7845,
      "(-H_": 7846,
      "(-x_": 7847,
      "(-2*": 7848,
      "(-3*": 7849,
      "(-o)*": 7850,
      "μ_6": 7851,
      "μ_X": 7852,
      "μ_w": 7853,
      "μ_Γ": 7854,
      "μ_Ξ": 7855,
      "μ_dc": 7856,
      "μ_HΦ": 7857,
      ")*log(-": 7858,
      ")*log(Y_": 7859,
      ")*log(a))": 7860,
      ")*log(ω)*": 7861,
      ")/2)))": 7862,
      "Sum(sqrt(D": 7863,
      "Sum(sqrt(z": 7864,
      "Sum(sqrt(H_": 7865,
      "Sum(sqrt(η_": 7866,
      "Sum(sqrt(Π_": 7867,
      "Sum(sqrt(G)": 7868,
      "Sum(sqrt(A)": 7869,
      "Sum(sqrt(Ο)": 7870,
      "Sum(sqrt(2)*sqrt(": 7871,
      "Sum(sqrt(W)": 7872,
      "Sum(sqrt(Μ)": 7873,
      "Derivative(sqrt(I_": 7874,
      "Derivative(sqrt(r_": 7875,
      "Derivative(sqrt(Σ)": 7876,
      "Derivative(sqrt(G)": 7877,
      "Derivative(sqrt(Ζ)": 7878,
      "Derivative(sqrt(l)": 7879,
      "Derivative(sqrt(V)": 7880,
      "Integral(-U": 7881,
      "Integral(-ι": 7882,
      "(ν/": 7883,
      "Sum(-V": 7884,
      "Sum(-Ρ": 7885,
      "Integral(sqrt(R_": 7886,
      "Integral(sqrt(λ_": 7887,
      "Integral(sqrt(B)*": 7888,
      "Integral(sqrt(ν)*": 7889,
      "Integral(sqrt(k)/": 7890,
      ")/log(c": 7891,
      "(ω)*": 7892,
      "Derivative(-l": 7893,
      "Derivative(-ψ": 7894,
      "Derivative(-4*": 7895,
      "Derivative(-5**": 7896,
      "δ_G": 7897,
      "δ_f": 7898,
      "δ_t": 7899,
      "δ_w": 7900,
      "δ_Α": 7901,
      "δ_η": 7902,
      "δ_ωd": 7903,
      "δ_iψ": 7904,
      "Α_Ι": 7905,
      "Α_ν": 7906,
      "Α_ρ": 7907,
      "Α_τ": 7908,
      "Α_ψ": 7909,
      "Α_ΚΠ": 7910,
      "Sum(log(u_": 7911,
      "Sum(log(θ_": 7912,
      "Sum(log(Y_": 7913,
      "Sum(log(Ρ)": 7914,
      "Sum(log(Φ)": 7915,
      "Κ_1": 7916,
      "Κ_M": 7917,
      "Κ_S": 7918,
      "Κ_T": 7919,
      "Κ_ζ": 7920,
      "Derivative(log(Z": 7921,
      "Derivative(log(w)": 7922,
      "Derivative(log(v)": 7923,
      "Derivative(log(o)": 7924,
      "Derivative(log(g)": 7925,
      "Derivative(log(J)/": 7926,
      "Derivative(log(ξ)/": 7927,
      ")**(sqrt(-": 7928,
      ")**(sqrt(F": 7929,
      ")**(sqrt(m": 7930,
      ")**(sqrt(C_": 7931,
      ")**(sqrt(2)*sqrt(": 7932,
      ")**(sqrt(Ι)))": 7933,
      ")/sqrt(P": 7934,
      ")/sqrt(O_": 7935,
      "(R)/log(": 7936,
      ")**log(G": 7937,
      ")**log(Ξ_": 7938,
      "(Β*": 7939,
      "(Β/": 7940,
      "(D/": 7941,
      "(β*": 7942,
      "(β)*": 7943,
      "(β)**(": 7944,
      "(G)*": 7945,
      "(L*": 7946,
      "(L)/log(": 7947,
      "(v/": 7948,
      "(v)/": 7949,
      "(v**": 7950,
      "(v)/sqrt(": 7951,
      "(v)**log(": 7952,
      "(V**": 7953,
      "(w)**": 7954,
      "(K/": 7955,
      "(K**": 7956,
      "ν_n": 7957,
      "ν_Ν": 7958,
      "ν_Υ": 7959,
      "ν_ι": 7960,
      "(Ξ/": 7961,
      "(Ξ)**": 7962,
      "(Ξ)**(sqrt(": 7963,
      "Z_6": 7964,
      "Z_T": 7965,
      "Z_a": 7966,
      "Z_Ε": 7967,
      "Z_σ": 7968,
      "Z_τΝ": 7969,
      "Z_W6": 7970,
      "Z_lΟ": 7971,
      "Z_Md": 7972,
      "(j)**(sqrt(": 7973,
      "(o*": 7974,
      "(o)**log(": 7975,
      "(Η)/": 7976,
      "(Μ/": 7977,
      "(Μ)*": 7978,
      "(Μ)**log(": 7979,
      "(α*": 7980,
      "(α)**(sqrt(": 7981,
      "(J)/log(": 7982,
      "(n/": 7983,
      "(n)**(": 7984,
      "(Θ)/log(": 7985,
      "(q)/": 7986,
      "(k)*": 7987,
      "(k)/log(": 7988,
      "(m)/": 7989,
      "(λ)**log(": 7990,
      "(τ)/": 7991,
      "'g_W": 7992,
      "'g_b": 7993,
      "'g_q'": 7994,
      "'g_Λ'": 7995,
      "(F**": 7996,
      "(c/": 7997,
      "(c**": 7998,
      "(z)/": 7999,
      "(g*": 8000,
      "(g)),": 8001,
      "ω_8": 8002,
      "ω_W": 8003,
      "ω_Β": 8004,
      "ω_ο": 8005,
      "ω_σ": 8006,
      "ω_λρ": 8007,
      "(C)**": 8008,
      "(C**": 8009,
      "(C)**(sqrt(": 8010,
      "(θ)*": 8011,
      "(φ/": 8012,
      "X_N": 8013,
      "X_R": 8014,
      "X_a": 8015,
      "X_y": 8016,
      "X_Ζ": 8017,
      "X_in": 8018,
      "(H**": 8019,
      "(i)**(sqrt(": 8020,
      "(t)**": 8021,
      "(t)**log(": 8022,
      "(Λ)/sqrt(": 8023,
      "(ζ)**log(": 8024,
      "(χ)*": 8025,
      "(χ)**(": 8026,
      "(P)**": 8027,
      "(T/": 8028,
      "(p)/": 8029,
      "(U)/": 8030,
      "(d)*": 8031,
      "(Ν)*": 8032,
      "(Ο)*": 8033,
      "(Ο**": 8034,
      "(ε)/": 8035,
      "(M*": 8036,
      "(M)*": 8037,
      "(r)**": 8038,
      "(r)/log(": 8039,
      "(Γ*": 8040,
      "(u)*": 8041,
      "(Υ**": 8042,
      "(υ/": 8043,
      "(υ)/": 8044,
      "(σ)*": 8045,
      "(δ/": 8046,
      "(A)**": 8047,
      "(Ψ)**(sqrt(": 8048,
      "'Β_c": 8049,
      "'Β_Μ": 8050,
      "'Β_Λ'": 8051,
      "'Β_ψ'": 8052,
      "(Π/": 8053,
      "(Π)*": 8054,
      "(l)/sqrt(": 8055,
      "(x**": 8056,
      "(η)/": 8057,
      "(ξ)*": 8058,
      "*log(v_": 8059,
      "'ξ_Ε": 8060,
      "'ξ_Ν": 8061,
      "'ξ_Ξ": 8062,
      "'ξ_ψ": 8063,
      "'ξ_λ'": 8064,
      "'ξ_Ζ'": 8065,
      "'ξ_Χ'": 8066,
      "'H_7": 8067,
      "'H_j": 8068,
      "'H_Ν'": 8069,
      "(y**": 8070,
      "(Φ/": 8071,
      "(Φ)*": 8072,
      "'C_p": 8073,
      "'C_Β'": 8074,
      "'C_d'": 8075,
      "(Κ)*": 8076,
      "'ε_j": 8077,
      "'η_N": 8078,
      "'η_W": 8079,
      "'η_d": 8080,
      "'η_Β": 8081,
      "'η_Η": 8082,
      "'η_Φ": 8083,
      "'η_I'": 8084,
      "'u_n": 8085,
      "'u_z": 8086,
      "'u_h'": 8087,
      "'u_υ'": 8088,
      "(γ)*": 8089,
      "(γ)**log(": 8090,
      "'s_F": 8091,
      "'s_W": 8092,
      "'s_C'": 8093,
      "'τ_ε": 8094,
      "'Q_9": 8095,
      "'Q_B": 8096,
      "'Q_p": 8097,
      "'Q_Υ": 8098,
      "'Q_Ω": 8099,
      "'Ω_J": 8100,
      "'Ω_L": 8101,
      "'Ω_b": 8102,
      "'Ω_ρ'": 8103,
      "'Ω_b'": 8104,
      "'Ω_2'": 8105,
      "'B_Ε": 8106,
      "'B_Ν": 8107,
      "'B_β'": 8108,
      "'B_Ζ'": 8109,
      "'σ_1'": 8110,
      "'E_Q": 8111,
      "'E_U": 8112,
      "'Λ_h": 8113,
      "'Λ_E'": 8114,
      "'K_j": 8115,
      "'S_9": 8116,
      "'S_α": 8117,
      "'S_ω": 8118,
      "'S_Ο'": 8119,
      "'S_Γ'": 8120,
      "'S_5'": 8121,
      "'ζ_k": 8122,
      "'ζ_υ'": 8123,
      "'ζ_T'": 8124,
      "'ζ_I'": 8125,
      "'U_x": 8126,
      "'U_Λ'": 8127,
      "'Θ_H": 8128,
      "'Θ_o": 8129,
      "'Θ_α": 8130,
      "'Θ_υ'": 8131,
      "'Θ_b'": 8132,
      "'V_G": 8133,
      "'Ξ_9": 8134,
      "'Ξ_Ζ": 8135,
      "'β_Ε": 8136,
      "'β_Ν": 8137,
      "'Ρ_Α": 8138,
      "'Ρ_Τ": 8139,
      "'Ρ_ρ": 8140,
      "'Ρ_L'": 8141,
      "'Ρ_o'": 8142,
      "'I_H": 8143,
      "'I_τ": 8144,
      "'R_χ": 8145,
      "'Π_U": 8146,
      "'Π_m": 8147,
      "'Π_v'": 8148,
      "'Μ_Γ": 8149,
      "'Μ_Τ": 8150,
      "'Μ_χ": 8151,
      "'Μ_χ'": 8152,
      "'Μ_Y'": 8153,
      "'w_A": 8154,
      "'w_Q": 8155,
      "'w_a": 8156,
      "'w_Θ": 8157,
      "'w_ρ'": 8158,
      "'D_S": 8159,
      "'D_Δ": 8160,
      "'D_τ": 8161,
      "'υ_Β": 8162,
      "'υ_ε": 8163,
      "'υ_Υ'": 8164,
      "'υ_N'": 8165,
      "(ψ)/": 8166,
      "'c_i": 8167,
      "'c_Ε": 8168,
      "'c_ο": 8169,
      "'c_ψ": 8170,
      "'κ_ο": 8171,
      "'θ_ο": 8172,
      "'θ_t'": 8173,
      "'θ_ν'": 8174,
      "'Τ_Z": 8175,
      "'Τ_r": 8176,
      "'Τ_Κ": 8177,
      "'Τ_η": 8178,
      "'Τ_ζ'": 8179,
      "'Y_8": 8180,
      "'Y_l": 8181,
      "'Y_Ζ": 8182,
      "'Y_φ": 8183,
      "'x_s": 8184,
      "'x_Τ'": 8185,
      "'P_A": 8186,
      "'P_M'": 8187,
      "'o_3": 8188,
      "'o_Q": 8189,
      "'o_U": 8190,
      "'o_v": 8191,
      "'ψ_n'": 8192,
      "'ψ_C'": 8193,
      "'i_9": 8194,
      "'i_N": 8195,
      "'i_Z": 8196,
      "'i_c": 8197,
      "'i_g": 8198,
      "'ρ_μ'": 8199,
      "'l_h": 8200,
      "'l_χ": 8201,
      "'Δ_V": 8202,
      "'Δ_i": 8203,
      "'Δ_τ'": 8204,
      "'Ι_C": 8205,
      "'Ι_K'": 8206,
      "/2)**": 8207,
      "'γ_q": 8208,
      "'γ_Π": 8209,
      "'γ_Φ": 8210,
      "'γ_ν": 8211,
      "'ο_Μ": 8212,
      "'ο_μ": 8213,
      "'ο_A'": 8214,
      "'F_Φ'": 8215,
      "'m_2'": 8216,
      "'m_ω'": 8217,
      "'v_β'": 8218,
      "'v_ε'": 8219,
      "'v_μ'": 8220,
      "'v_Φ'": 8221,
      "'y_I": 8222,
      "'y_y'": 8223,
      "'Ψ_X": 8224,
      "'Ψ_Z": 8225,
      "'Ψ_Ν": 8226,
      "'Ψ_Ο'": 8227,
      "'M_D": 8228,
      "'M_W": 8229,
      "'M_Ο'": 8230,
      "'k_1": 8231,
      "'k_F": 8232,
      "'k_v": 8233,
      "'k_d'": 8234,
      ")/(4*": 8235,
      ")/(8*": 8236,
      ")/(9*": 8237,
      ")/(3*sqrt(": 8238,
      "'ν_R": 8239,
      "'ν_z": 8240,
      "'ν_Σ'": 8241,
      "'b_6": 8242,
      "'b_G'": 8243,
      "'α_ψ'": 8244,
      "'L_ν": 8245,
      "'L_J'": 8246,
      "'Η_O'": 8247,
      "'N_F": 8248,
      "'N_ι": 8249,
      "'t_L": 8250,
      "'G_τ'": 8251,
      "'O_n": 8252,
      "'O_γ": 8253,
      "'O_φ'": 8254,
      "'z_R": 8255,
      "'z_d'": 8256,
      "'Z_Η": 8257,
      "'Z_a'": 8258,
      "'Z_σ'": 8259,
      "'Z_Ε'": 8260,
      "'J_x": 8261,
      "'J_h'": 8262,
      "'J_z'": 8263,
      "'J_i'": 8264,
      "'Ζ_8": 8265,
      "'Ζ_ω": 8266,
      "'Γ_χ": 8267,
      "'Γ_c'": 8268,
      "'Γ_H'": 8269,
      "'φ_T'": 8270,
      "'q_7": 8271,
      "'q_A": 8272,
      "'q_Q": 8273,
      "'f_R'": 8274,
      "'d_W": 8275,
      "'d_w": 8276,
      "'ω_σ": 8277,
      "'X_Θ'": 8278,
      "'h_κ": 8279,
      "'h_ο": 8280,
      "'h_S'": 8281,
      "'Ε_j'": 8282,
      "'Σ_7": 8283,
      "'Σ_Ζ'": 8284,
      "'ι_v": 8285,
      "'T_d": 8286,
      "'T_τ'": 8287,
      "'Ο_Q": 8288,
      "'Ο_δ'": 8289,
      "'δ_C": 8290,
      "'δ_Β": 8291,
      "'δ_ι": 8292,
      "'a_b": 8293,
      "'a_Φ": 8294,
      "'a_Χ'": 8295,
      "'a_H'": 8296,
      "'λ_β": 8297,
      "(g_H": 8298,
      "(g_γ": 8299,
      "(ξ_Ν": 8300,
      "(ξ_Ξ": 8301,
      "'Φ_v": 8302,
      "'Φ_z": 8303,
      "'Φ_Κ": 8304,
      "'p_H": 8305,
      "'p_ε": 8306,
      "'p_φ": 8307,
      "'Κ_M'": 8308,
      "(Β_c": 8309,
      "(Β_j": 8310,
      "'μ_W": 8311,
      "'μ_X": 8312,
      "'μ_j": 8313,
      "(ζ_U": 8314,
      "(I_T,": 8315,
      "(D_Δ": 8316,
      "(s_θ": 8317,
      "(B_Ε": 8318,
      "(B_φ": 8319,
      "(β_Ν": 8320,
      "(β_Ξ": 8321,
      "(Ζ_8": 8322,
      "(Λ_R": 8323,
      "(Λ_Η": 8324,
      "(J_Ξ": 8325,
      "(G_Σ": 8326,
      "(V_S": 8327,
      "(V_i": 8328,
      "(Μ_Υ": 8329,
      "(Μ_υ": 8330,
      "(Μ_χ": 8331,
      "(η_d": 8332,
      "(η_f": 8333,
      "(η_λ": 8334,
      "(w_a": 8335,
      "(w_τ": 8336,
      "(C_Υ": 8337,
      "(C_KT": 8338,
      "(Ν_ε": 8339,
      "(L_v": 8340,
      "(F_p": 8341,
      "(k_F": 8342,
      "(t_H": 8343,
      "(t_L": 8344,
      "(S_C": 8345,
      "(Τ_Z": 8346,
      "(o_S": 8347,
      "(M_7": 8348,
      "(M_Γ,": 8349,
      "(υ_N,": 8350,
      "(θ_L": 8351,
      "(Φ_z": 8352,
      "(Φ_Κ": 8353,
      "(Ι_K,": 8354,
      "(d_W": 8355,
      "(h_κ": 8356,
      "(Ξ_Υ": 8357,
      "(X_N": 8358,
      "(m_ω,": 8359,
      "(O_H": 8360,
      "(O_t": 8361,
      "(O_γ": 8362,
      "(z_l": 8363,
      "(x_Ο": 8364,
      "(φ_j": 8365,
      "2))*": 8366,
      "(ρ_9": 8367,
      "(T_d": 8368,
      "(T_Δ": 8369,
      "(i_c": 8370,
      "(γ_Φ": 8371,
      "(Α_τ": 8372,
      "(Κ_H": 8373,
      "(α_C": 8374,
      "(a_b": 8375,
      "(a_j": 8376,
      "(μ_j": 8377,
      "Sum(-sqrt(3)*sqrt(": 8378,
      "2*sqrt(2)*": 8379,
      "**4)/": 8380,
      "**4)*log(": 8381,
      ")/7**log(": 8382,
      "**3)/": 8383,
      "**3)),": 8384,
      "l_7N": 8385,
      "/4)**": 8386,
      "s5ζ": 8387,
      "Β_χΚ": 8388,
      "b_VG": 8389,
      "Α_bΙ": 8390,
      "D_ΗU": 8391,
      "υ_Bl": 8392,
      "Ι_ΝΖ": 8393,
      "Zαs": 8394,
      "log(a)**": 8395,
      "Ζ_ωZ": 8396,
      "E_Uω": 8397,
      "Ρ_χG": 8398,
      "W_WΗ": 8399,
      "C_Ζl": 8400,
      "ε_jy": 8401,
      "Τ_ΤZ": 8402,
      "Y_tB": 8403,
      "W_Fd": 8404,
      "F_8Z": 8405,
      "y_Ln": 8406,
      "χ_Aμ": 8407,
      "5764801": 8408,
      "(6": 8409,
      "(8": 8410,
      "(9": 8411,
      "(1),": 8412,
      "*ρ_": 8413,
      "*ο_": 8414,
      "*α_": 8415,
      "*φ_": 8416,
      "*β),": 8417,
      "*r)*": 8418,
      "-2": 8419,
      "-5": 8420,
      "-7": 8421,
      "-C": 8422,
      "-F": 8423,
      "-R": 8424,
      "-X": 8425,
      "-Y": 8426,
      "-a": 8427,
      "-g": 8428,
      "-s": 8429,
      "-w": 8430,
      "-Κ": 8431,
      "-Λ": 8432,
      "-Υ": 8433,
      "-Ψ": 8434,
      "-γ": 8435,
      "-η": 8436,
      "-ξ": 8437,
      "-ρ": 8438,
      "-Λ_": 8439,
      "-U_": 8440,
      "-o_": 8441,
      "-ψ_": 8442,
      "-ρ_": 8443,
      "-Η_": 8444,
      "-α_": 8445,
      "-a_": 8446,
      "-5*": 8447,
      "-2*sqrt(": 8448,
      "-3*sqrt(": 8449,
      "-9**": 8450,
      "-4*sqrt(": 8451,
      "-U*": 8452,
      "/ε_": 8453,
      "/ψ_": 8454,
      "/N_": 8455,
      "/F))": 8456,
      "/u))": 8457,
      "/x))": 8458,
      "/z))": 8459,
      "/δ))": 8460,
      "/ψ)": 8461,
      "/f)": 8462,
      "/φ)": 8463,
      "/r)": 8464,
      "/g)": 8465,
      "/Ε),": 8466,
      "/Ψ),": 8467,
      "/W),": 8468,
      "/4)*": 8469,
      "/7)/": 8470,
      "/Ξ),": 8471,
      "/Ξ)*": 8472,
      "/z)**": 8473,
      "0)": 8474,
      "10": 8475,
      "18": 8476,
      "19": 8477,
      "1B": 8478,
      "1J": 8479,
      "1b": 8480,
      "1Χ": 8481,
      "1γ": 8482,
      "1δ": 8483,
      "12,": 8484,
      "1c'": 8485,
      "1Υ'": 8486,
      "1Ρ'": 8487,
      "1k'": 8488,
      "1γ'": 8489,
      "17'": 8490,
      "1)/2),": 8491,
      "1c,": 8492,
      "1j))": 8493,
      "1/sqrt(": 8494,
      "1γ),": 8495,
      "139": 8496,
      "2R": 8497,
      "2k": 8498,
      "2m": 8499,
      "2Ο": 8500,
      "2Ψ": 8501,
      "2β": 8502,
      "2ξ": 8503,
      "2λ'": 8504,
      "2φ'": 8505,
      "2ξ'": 8506,
      "2)/log(": 8507,
      "2)**(sqrt(": 8508,
      "2)/sqrt(": 8509,
      "21'": 8510,
      "21))": 8511,
      "2/sqrt(": 8512,
      "2DE": 8513,
      "276": 8514,
      "240": 8515,
      "34": 8516,
      "35": 8517,
      "3N": 8518,
      "3n": 8519,
      "3y": 8520,
      "3Β": 8521,
      "3ξ": 8522,
      "3)**(": 8523,
      "3Γ'": 8524,
      "3w'": 8525,
      "3n'": 8526,
      "3T'": 8527,
      "3p'": 8528,
      "3l'": 8529,
      "3r'": 8530,
      "3)**(sqrt(": 8531,
      "3N'": 8532,
      "3)**log(": 8533,
      "35a": 8534,
      "3pθ": 8535,
      "353": 8536,
      "3λΑ": 8537,
      "3276": 8538,
      "42": 8539,
      "4i": 8540,
      "4o": 8541,
      "4q": 8542,
      "4μ": 8543,
      "4ν": 8544,
      "4β'": 8545,
      "4Γ'": 8546,
      "4Ζ'": 8547,
      "4o'": 8548,
      "4F'": 8549,
      "4n'": 8550,
      "4q'": 8551,
      "4υ'": 8552,
      "4B'": 8553,
      "4j'": 8554,
      "4l'": 8555,
      "4)/log(": 8556,
      "4)**(sqrt(": 8557,
      "45'": 8558,
      "49*": 8559,
      "4**(sqrt(": 8560,
      "4m,": 8561,
      "4wν": 8562,
      "4τb": 8563,
      "4Χk": 8564,
      "52": 8565,
      "54": 8566,
      "5f": 8567,
      "5Η": 8568,
      "5Μ": 8569,
      "5ο'": 8570,
      "5Η'": 8571,
      "5W'": 8572,
      "5g'": 8573,
      "5b'": 8574,
      "5l'": 8575,
      "5Μ'": 8576,
      "5)/log(": 8577,
      "5)**(sqrt(": 8578,
      "54'": 8579,
      "5Z'": 8580,
      "5**(sqrt(": 8581,
      "5g,": 8582,
      "5ρ,": 8583,
      "5Η,": 8584,
      "5/sqrt(": 8585,
      "66": 8586,
      "6b": 8587,
      "6m": 8588,
      "6n": 8589,
      "6t": 8590,
      "6τ": 8591,
      "6χ": 8592,
      "6Β'": 8593,
      "6G'": 8594,
      "6Ι'": 8595,
      "6Γ'": 8596,
      "6A'": 8597,
      "6n'": 8598,
      "64'": 8599,
      "63'": 8600,
      "6)/2)": 8601,
      "6ψ,": 8602,
      "6**(log(": 8603,
      "6G)": 8604,
      "6k)": 8605,
      "6/log(": 8606,
      "6IΓ": 8607,
      "6mα": 8608,
      "6wP": 8609,
      "7w": 8610,
      "7Γ": 8611,
      "7α": 8612,
      "7ω": 8613,
      "72,": 8614,
      "7)**(": 8615,
      "7d'": 8616,
      "7F'": 8617,
      "7α'": 8618,
      "7υ'": 8619,
      "7j'": 8620,
      "7)**(sqrt(": 8621,
      "76'": 8622,
      "7**(sqrt(": 8623,
      "7)/2)": 8624,
      "7Ωu": 8625,
      "7χB": 8626,
      "81": 8627,
      "87": 8628,
      "8F": 8629,
      "8z": 8630,
      "8Κ": 8631,
      "8ρ": 8632,
      "81,": 8633,
      "8β'": 8634,
      "8τ'": 8635,
      "8C'": 8636,
      "8Τ'": 8637,
      "8T'": 8638,
      "8Π'": 8639,
      "8ψ'": 8640,
      "8b'": 8641,
      "8**(": 8642,
      "88'": 8643,
      "8Α'": 8644,
      "8**(sqrt(": 8645,
      "8α))": 8646,
      "8)/4,": 8647,
      "8cU": 8648,
      "8oΤ": 8649,
      "96": 8650,
      "97": 8651,
      "9E": 8652,
      "9g": 8653,
      "9ε'": 8654,
      "9A'": 8655,
      "9φ'": 8656,
      "9η'": 8657,
      "9P'": 8658,
      "9Ψ'": 8659,
      "98'": 8660,
      "9X'": 8661,
      "9)/2))": 8662,
      "9)/2)": 8663,
      "9Ψ,": 8664,
      "9A,": 8665,
      "9P,": 8666,
      "9**log(": 8667,
      "971": 8668,
      "AE": 8669,
      "AV": 8670,
      "AΒ": 8671,
      "Aζ": 8672,
      "Aρ": 8673,
      "A**": 8674,
      "Aκ'": 8675,
      "Aυ'": 8676,
      "Aφ'": 8677,
      "AΕ'": 8678,
      "AH'": 8679,
      "A)*log(": 8680,
      "AQ,": 8681,
      "Aφ,": 8682,
      "AvΞ": 8683,
      "AuΙ": 8684,
      "BB": 8685,
      "BD": 8686,
      "BG": 8687,
      "BΦ": 8688,
      "Bδ": 8689,
      "Bη": 8690,
      "Bχ": 8691,
      "B8,": 8692,
      "Bc'": 8693,
      "BD'": 8694,
      "BC'": 8695,
      "BΡ'": 8696,
      "B8'": 8697,
      "CR": 8698,
      "Cc": 8699,
      "Cp": 8700,
      "Cγ": 8701,
      "Cc'": 8702,
      "C)*log(": 8703,
      "C1'": 8704,
      "C)/(": 8705,
      "CN,": 8706,
      "Cc,": 8707,
      "C7P": 8708,
      "CfY": 8709,
      "COΡ": 8710,
      "Dx": 8711,
      "DΝ": 8712,
      "DΥ": 8713,
      "Dε'": 8714,
      "DK'": 8715,
      "Dq'": 8716,
      "Dυ'": 8717,
      "Dη'": 8718,
      "D**(": 8719,
      "DI'": 8720,
      "D6'": 8721,
      "D)/(": 8722,
      "E1": 8723,
      "EF": 8724,
      "ES": 8725,
      "Ew": 8726,
      "Ey": 8727,
      "EΑ": 8728,
      "EΗ": 8729,
      "EΘ": 8730,
      "Eζ": 8731,
      "Eθ": 8732,
      "Eτ": 8733,
      "Eχ": 8734,
      "E1,": 8735,
      "E)**(": 8736,
      "Eβ'": 8737,
      "Ev'": 8738,
      "Em'": 8739,
      "Ed'": 8740,
      "EΡ'": 8741,
      "EM'": 8742,
      "EΘ'": 8743,
      "EΦ'": 8744,
      "EΕ'": 8745,
      "E1'": 8746,
      "E2'": 8747,
      "E/2),": 8748,
      "EM,": 8749,
      "EZI": 8750,
      "FG": 8751,
      "FJ": 8752,
      "FR": 8753,
      "Fk": 8754,
      "FΔ": 8755,
      "FΧ": 8756,
      "Fζ": 8757,
      "Fχ": 8758,
      "FK'": 8759,
      "FΧ'": 8760,
      "F**(": 8761,
      "FHτ": 8762,
      "F8Α": 8763,
      "G/": 8764,
      "G4": 8765,
      "GG": 8766,
      "GT": 8767,
      "Gi": 8768,
      "GΨ": 8769,
      "Gh'": 8770,
      "GΛ'": 8771,
      "Gt'": 8772,
      "Gi'": 8773,
      "Gu'": 8774,
      "G)*log(": 8775,
      "G7'": 8776,
      "GΔ,": 8777,
      "Gi,": 8778,
      "GUτ": 8779,
      "HL": 8780,
      "HS": 8781,
      "HΓ": 8782,
      "HΗ": 8783,
      "Hρ": 8784,
      "H**": 8785,
      "HL'": 8786,
      "HΙ'": 8787,
      "Hτ'": 8788,
      "HΣ'": 8789,
      "HΔ'": 8790,
      "Hξ'": 8791,
      "Hb'": 8792,
      "H**(": 8793,
      "H)*log(": 8794,
      "H)/log(": 8795,
      "H2'": 8796,
      "Hi,": 8797,
      "HΕQ": 8798,
      "Ij": 8799,
      "IΠ": 8800,
      "Iρ": 8801,
      "I)*": 8802,
      "I)**": 8803,
      "IB'": 8804,
      "IΠ'": 8805,
      "Iγ'": 8806,
      "IΠ,": 8807,
      "IRB": 8808,
      "IGH": 8809,
      "JA": 8810,
      "Jm": 8811,
      "JΚ": 8812,
      "Jβ": 8813,
      "Jζ": 8814,
      "Jο": 8815,
      "Jχ": 8816,
      "JG'": 8817,
      "Jυ'": 8818,
      "JΕ'": 8819,
      "J)**log(": 8820,
      "J2'": 8821,
      "JZ'": 8822,
      "Jψ,": 8823,
      "J5A": 8824,
      "JαΑ": 8825,
      "K5": 8826,
      "KQ": 8827,
      "Kp": 8828,
      "Ks": 8829,
      "Kv": 8830,
      "Kc'": 8831,
      "Kο'": 8832,
      "KJ'": 8833,
      "Kb'": 8834,
      "KΘ'": 8835,
      "Kσ'": 8836,
      "KIw": 8837,
      "LU": 8838,
      "LZ": 8839,
      "Ls": 8840,
      "LΠ": 8841,
      "Lσ": 8842,
      "Lβ'": 8843,
      "Lp'": 8844,
      "LΠ'": 8845,
      "Lσ'": 8846,
      "L)*log(": 8847,
      "L)/log(": 8848,
      "L)),": 8849,
      "LZ'": 8850,
      "L5'": 8851,
      "L)/2),": 8852,
      "LΧ,": 8853,
      "L**5)": 8854,
      "LUΒ": 8855,
      "MF": 8856,
      "MT": 8857,
      "MΝ": 8858,
      "Mσ": 8859,
      "Mat": 8860,
      "Md'": 8861,
      "MC'": 8862,
      "MV'": 8863,
      "MP'": 8864,
      "Mu'": 8865,
      "MY'": 8866,
      "M)/log(": 8867,
      "MI'": 8868,
      "M2'": 8869,
      "Mμj": 8870,
      "MQt": 8871,
      "N8": 8872,
      "NA": 8873,
      "NJ": 8874,
      "NQ": 8875,
      "No": 8876,
      "Nr": 8877,
      "Nη": 8878,
      "Nλ": 8879,
      "Nξ": 8880,
      "Nρ": 8881,
      "N)/": 8882,
      "N)**": 8883,
      "Nλ'": 8884,
      "Nχ'": 8885,
      "No'": 8886,
      "Nρ'": 8887,
      "Nn'": 8888,
      "Nξ'": 8889,
      "NT'": 8890,
      "Nσ'": 8891,
      "N2'": 8892,
      "N8'": 8893,
      "Nλ,": 8894,
      "No)))": 8895,
      "O1": 8896,
      "O7": 8897,
      "OG": 8898,
      "OI": 8899,
      "Oβ": 8900,
      "Oο'": 8901,
      "Oα'": 8902,
      "Oφ'": 8903,
      "Ot'": 8904,
      "OΤ'": 8905,
      "Oζ'": 8906,
      "OΘ'": 8907,
      "OΑ'": 8908,
      "Oζ,": 8909,
      "Oγα": 8910,
      "ONq": 8911,
      "P1": 8912,
      "P8": 8913,
      "PB": 8914,
      "Pa": 8915,
      "Pd": 8916,
      "Pf": 8917,
      "Pj": 8918,
      "Pn": 8919,
      "Pι": 8920,
      "Pξ": 8921,
      "P5,": 8922,
      "P)**(": 8923,
      "Pι'": 8924,
      "Pv'": 8925,
      "PΕ'": 8926,
      "P**(": 8927,
      "P)),": 8928,
      "P8'": 8929,
      "P5'": 8930,
      "P)/2))": 8931,
      "P**(sqrt(": 8932,
      "Pι,": 8933,
      "PX,": 8934,
      "PX)": 8935,
      "PJΒ": 8936,
      "Pjζ": 8937,
      "Qb": 8938,
      "Qp": 8939,
      "Qx": 8940,
      "QΒ": 8941,
      "Qκ": 8942,
      "Qβ'": 8943,
      "QΒ'": 8944,
      "Qκ'": 8945,
      "QU'": 8946,
      "Qφ'": 8947,
      "QW'": 8948,
      "Qω'": 8949,
      "Qκ,": 8950,
      "QIc": 8951,
      "R/": 8952,
      "RK": 8953,
      "Ra": 8954,
      "Rk": 8955,
      "Ro": 8956,
      "RΜ": 8957,
      "Rι": 8958,
      "Rκ": 8959,
      "Rφ": 8960,
      "Rω": 8961,
      "Rφ'": 8962,
      "Rb'": 8963,
      "RΜ'": 8964,
      "R)*log(": 8965,
      "R)/log(": 8966,
      "R5'": 8967,
      "Rφ,": 8968,
      "RΜ,": 8969,
      "RSg": 8970,
      "RλV": 8971,
      "SN": 8972,
      "Sz": 8973,
      "SΙ": 8974,
      "Sθ": 8975,
      "S)/": 8976,
      "Sι'": 8977,
      "SC'": 8978,
      "SΤ'": 8979,
      "SN'": 8980,
      "SE'": 8981,
      "Sι,": 8982,
      "SΙ,": 8983,
      "Sν,": 8984,
      "SξΑ": 8985,
      "T/": 8986,
      "T8": 8987,
      "TJ": 8988,
      "TT": 8989,
      "TU": 8990,
      "TΟ": 8991,
      "Tξ": 8992,
      "Tσ": 8993,
      "Tτ'": 8994,
      "Th'": 8995,
      "Tο'": 8996,
      "Tχ'": 8997,
      "Tq'": 8998,
      "TU'": 8999,
      "TΤ'": 9000,
      "T**(": 9001,
      "T)),": 9002,
      "TE'": 9003,
      "Th),": 9004,
      "UR": 9005,
      "UT": 9006,
      "UW": 9007,
      "Ub": 9008,
      "Uv": 9009,
      "Um'": 9010,
      "Un'": 9011,
      "Uψ'": 9012,
      "U**(": 9013,
      "Uf'": 9014,
      "UEλ": 9015,
      "UO9": 9016,
      "VM": 9017,
      "Vk": 9018,
      "Vm": 9019,
      "Vr": 9020,
      "VΔ": 9021,
      "VΦ": 9022,
      "Vν": 9023,
      "VG'": 9024,
      "Va'": 9025,
      "VP'": 9026,
      "VT'": 9027,
      "Vr'": 9028,
      "V)**(sqrt(": 9029,
      "VG,": 9030,
      "VP)": 9031,
      "Vl)": 9032,
      "V/2)": 9033,
      "VLp": 9034,
      "VcU": 9035,
      "VIΓ": 9036,
      "WJ": 9037,
      "WY": 9038,
      "Wu": 9039,
      "WΖ": 9040,
      "WΣ": 9041,
      "WΥ": 9042,
      "Wζ": 9043,
      "Wη": 9044,
      "W)**(": 9045,
      "Ww'": 9046,
      "WF'": 9047,
      "Wη'": 9048,
      "Wv,": 9049,
      "Wg,": 9050,
      "WF,": 9051,
      "Wua": 9052,
      "WSΗ": 9053,
      "XH": 9054,
      "Xa": 9055,
      "Xf": 9056,
      "Xg": 9057,
      "XΒ": 9058,
      "XΔ": 9059,
      "Xψ": 9060,
      "XG'": 9061,
      "XR'": 9062,
      "Xε'": 9063,
      "XL'": 9064,
      "Xq'": 9065,
      "XJ'": 9066,
      "X)*log(": 9067,
      "X)/log(": 9068,
      "XS'": 9069,
      "X2'": 9070,
      "X6'": 9071,
      "XI,": 9072,
      "Xχm": 9073,
      "XOΓ": 9074,
      "YH": 9075,
      "YK": 9076,
      "YR": 9077,
      "YW": 9078,
      "YX": 9079,
      "Yβ": 9080,
      "Y**": 9081,
      "Yβ'": 9082,
      "YS'": 9083,
      "YS,": 9084,
      "Ybθ": 9085,
      "ZΛ": 9086,
      "ZΩ": 9087,
      "Zρ": 9088,
      "Zκ'": 9089,
      "Zd'": 9090,
      "ZΛ'": 9091,
      "Zx'": 9092,
      "Z)*log(": 9093,
      "Z)),": 9094,
      "ZI'": 9095,
      "ZS'": 9096,
      "Z)*sqrt(": 9097,
      "Z4'": 9098,
      "Z7'": 9099,
      "ZS,": 9100,
      "Zio": 9101,
      "Z)/7": 9102,
      "ZεM": 9103,
      "ZSυ": 9104,
      "a1": 9105,
      "aK": 9106,
      "ab": 9107,
      "av": 9108,
      "aΡ": 9109,
      "aΨ": 9110,
      "aΩ": 9111,
      "aξ": 9112,
      "aK'": 9113,
      "aΗ'": 9114,
      "aΡ'": 9115,
      "ab'": 9116,
      "ak'": 9117,
      "a**(": 9118,
      "a)*log(": 9119,
      "a)**(sqrt(": 9120,
      "a)/sqrt(": 9121,
      "aN'": 9122,
      "a)**log(": 9123,
      "aδ'": 9124,
      "aq))": 9125,
      "ak)": 9126,
      "a**4))": 9127,
      "abc": 9128,
      "bj": 9129,
      "bt": 9130,
      "bu": 9131,
      "bΚ": 9132,
      "bΤ": 9133,
      "bβ'": 9134,
      "bθ'": 9135,
      "bT'": 9136,
      "b)*log(": 9137,
      "bO'": 9138,
      "bN'": 9139,
      "bN))": 9140,
      "buh": 9141,
      "bδf": 9142,
      "c*": 9143,
      "cP": 9144,
      "cΞ": 9145,
      "cΩ": 9146,
      "cΖ'": 9147,
      "cq'": 9148,
      "cΧ'": 9149,
      "c)),": 9150,
      "cΔ,": 9151,
      "cq,": 9152,
      "cΠQ": 9153,
      "d4": 9154,
      "d7": 9155,
      "dJ": 9156,
      "dt": 9157,
      "dΡ": 9158,
      "dβ": 9159,
      "dρ": 9160,
      "dτ": 9161,
      "dc'": 9162,
      "dΖ'": 9163,
      "dr'": 9164,
      "dAI": 9165,
      "dUψ": 9166,
      "fΔ": 9167,
      "fΜ": 9168,
      "fΥ": 9169,
      "fθ": 9170,
      "fν": 9171,
      "f)**(": 9172,
      "fΒ'": 9173,
      "fL'": 9174,
      "fC'": 9175,
      "fΛ'": 9176,
      "fμ'": 9177,
      "fΜ'": 9178,
      "f**(": 9179,
      "f)),": 9180,
      "fΜ)": 9181,
      "g3": 9182,
      "g8": 9183,
      "gN": 9184,
      "gU": 9185,
      "gd": 9186,
      "gs": 9187,
      "gx": 9188,
      "gΑ": 9189,
      "gΞ": 9190,
      "gΥ": 9191,
      "gΨ": 9192,
      "gδ": 9193,
      "g8,": 9194,
      "gΓ'": 9195,
      "gθ'": 9196,
      "gτ'": 9197,
      "gd'": 9198,
      "gF'": 9199,
      "gΥ'": 9200,
      "gΩ'": 9201,
      "gx'": 9202,
      "gb'": 9203,
      "g)/log(": 9204,
      "g)),": 9205,
      "g8'": 9206,
      "gd,": 9207,
      "gΥ,": 9208,
      "gυ,": 9209,
      "gNu": 9210,
      "hO": 9211,
      "hX": 9212,
      "hy": 9213,
      "hΨ": 9214,
      "hβ": 9215,
      "hη": 9216,
      "hο": 9217,
      "hχ": 9218,
      "hh'": 9219,
      "hφ'": 9220,
      "hΧ'": 9221,
      "hμ'": 9222,
      "hz'": 9223,
      "hζ'": 9224,
      "h)),": 9225,
      "hO'": 9226,
      "h)/sqrt(": 9227,
      "h)**log(": 9228,
      "h*log(": 9229,
      "h**(log(": 9230,
      "hΩ,": 9231,
      "hΞΙ": 9232,
      "hCf": 9233,
      "hκΥ": 9234,
      "iW": 9235,
      "it": 9236,
      "iΖ": 9237,
      "iΧ": 9238,
      "iγ": 9239,
      "iλ'": 9240,
      "iL'": 9241,
      "iχ'": 9242,
      "iη'": 9243,
      "iP'": 9244,
      "ig'": 9245,
      "iΨ'": 9246,
      "ix'": 9247,
      "i)),": 9248,
      "i/2": 9249,
      "iX'": 9250,
      "iβ,": 9251,
      "iL,": 9252,
      "iI)": 9253,
      "i48": 9254,
      "jH": 9255,
      "jΕ": 9256,
      "jΜ": 9257,
      "jθ'": 9258,
      "jw'": 9259,
      "jΔ'": 9260,
      "jW'": 9261,
      "jψ'": 9262,
      "j**(": 9263,
      "jS'": 9264,
      "j6'": 9265,
      "jΑ'": 9266,
      "jΔ,": 9267,
      "jχU": 9268,
      "k3": 9269,
      "kG": 9270,
      "kK": 9271,
      "kq": 9272,
      "kΚ": 9273,
      "kΡ": 9274,
      "kα": 9275,
      "kω": 9276,
      "k**": 9277,
      "kJ'": 9278,
      "kr'": 9279,
      "k)*log(": 9280,
      "k)),": 9281,
      "k)/2),": 9282,
      "kσa": 9283,
      "kRΤ": 9284,
      "kcθ": 9285,
      "lK": 9286,
      "lS": 9287,
      "lΖ": 9288,
      "l)/": 9289,
      "l)**(": 9290,
      "lD'": 9291,
      "lχ'": 9292,
      "lΗ'": 9293,
      "lz'": 9294,
      "li'": 9295,
      "l)/2),": 9296,
      "l5Z": 9297,
      "llΨ": 9298,
      "m6": 9299,
      "mn": 9300,
      "mΖ": 9301,
      "mε": 9302,
      "mμ": 9303,
      "mω": 9304,
      "ma'": 9305,
      "mτ'": 9306,
      "mU'": 9307,
      "mΛ'": 9308,
      "mψ'": 9309,
      "mζ'": 9310,
      "m*log(": 9311,
      "mω'": 9312,
      "mτ,": 9313,
      "mχB": 9314,
      "n/": 9315,
      "nA": 9316,
      "nQ": 9317,
      "nT": 9318,
      "nβ'": 9319,
      "nκ'": 9320,
      "nA'": 9321,
      "nq'": 9322,
      "nI'": 9323,
      "nQ'": 9324,
      "n)/sqrt(": 9325,
      "nN'": 9326,
      "n*sqrt(": 9327,
      "n7'": 9328,
      "n9'": 9329,
      "nΕ,": 9330,
      "nq)**": 9331,
      "o7": 9332,
      "oH": 9333,
      "oc": 9334,
      "od": 9335,
      "oΕ": 9336,
      "oΦ": 9337,
      "over>": 9338,
      "o**": 9339,
      "oc'": 9340,
      "oΖ'": 9341,
      "oJ'": 9342,
      "oi'": 9343,
      "o**(": 9344,
      "oH'": 9345,
      "o)),": 9346,
      "o6'": 9347,
      "oH,": 9348,
      "oMΤ": 9349,
      "omΝ": 9350,
      "oγZ": 9351,
      "p1": 9352,
      "pM": 9353,
      "pN": 9354,
      "pΓ": 9355,
      "pΦ": 9356,
      "pλ": 9357,
      "pv'": 9358,
      "pΙ'": 9359,
      "pΓ'": 9360,
      "pΡ'": 9361,
      "pΕ'": 9362,
      "p)/log(": 9363,
      "p)**(sqrt(": 9364,
      "pN'": 9365,
      "p2'": 9366,
      "p6'": 9367,
      "pN,": 9368,
      "pW,": 9369,
      "pg,": 9370,
      "pk,": 9371,
      "pTφ": 9372,
      "pωΘ": 9373,
      "q2": 9374,
      "q7": 9375,
      "qK": 9376,
      "qL": 9377,
      "qx": 9378,
      "qΓ": 9379,
      "qΕ": 9380,
      "qη": 9381,
      "qι": 9382,
      "qΛ'": 9383,
      "qs'": 9384,
      "qy'": 9385,
      "qu'": 9386,
      "qΜ'": 9387,
      "q)**(sqrt(": 9388,
      "q)/(": 9389,
      "qa,": 9390,
      "qHΔ": 9391,
      "qhΩ": 9392,
      "qlξ": 9393,
      "qcΖ": 9394,
      "r3": 9395,
      "rW": 9396,
      "rZ": 9397,
      "rc": 9398,
      "ry": 9399,
      "rα": 9400,
      "rβ": 9401,
      "rη": 9402,
      "rυ": 9403,
      "r**": 9404,
      "rβ'": 9405,
      "rc'": 9406,
      "rυ'": 9407,
      "r)/log(": 9408,
      "r**log(": 9409,
      "rΨL": 9410,
      "rvB": 9411,
      "rΞΕ": 9412,
      "sB": 9413,
      "sN": 9414,
      "se": 9415,
      "sΜ": 9416,
      "sλ": 9417,
      "sτ": 9418,
      "sτ'": 9419,
      "sT'": 9420,
      "sB'": 9421,
      "sl'": 9422,
      "sΜ'": 9423,
      "s)*log(": 9424,
      "s)*sqrt(": 9425,
      "sR)": 9426,
      "tP": 9427,
      "tk": 9428,
      "tε": 9429,
      "tP'": 9430,
      "tΧ'": 9431,
      "tψ'": 9432,
      "tk'": 9433,
      "t)/sqrt(": 9434,
      "tΞv": 9435,
      "uL": 9436,
      "ul": 9437,
      "uλ": 9438,
      "up'": 9439,
      "u**(": 9440,
      "u3'": 9441,
      "uΑ'": 9442,
      "uTs": 9443,
      "uVl": 9444,
      "uχΑ": 9445,
      "vh": 9446,
      "vΦ": 9447,
      "v)/log(": 9448,
      "vN'": 9449,
      "v6'": 9450,
      "vεξ": 9451,
      "vLy": 9452,
      "wG": 9453,
      "wO": 9454,
      "wY": 9455,
      "wf": 9456,
      "ww": 9457,
      "wΗ": 9458,
      "wξ": 9459,
      "w)/": 9460,
      "wΟ'": 9461,
      "wη'": 9462,
      "wΧ'": 9463,
      "wμ'": 9464,
      "xF": 9465,
      "xΒ": 9466,
      "xΡ": 9467,
      "xΦ": 9468,
      "xψ": 9469,
      "x**": 9470,
      "xΒ'": 9471,
      "xκ'": 9472,
      "xq'": 9473,
      "xr'": 9474,
      "x**(": 9475,
      "x**(log(": 9476,
      "xυ,": 9477,
      "xcs": 9478,
      "y/": 9479,
      "yO": 9480,
      "yr": 9481,
      "yΟ": 9482,
      "yδ": 9483,
      "yχ": 9484,
      "y**": 9485,
      "y5,": 9486,
      "yχ'": 9487,
      "yU'": 9488,
      "yl'": 9489,
      "yΦ'": 9490,
      "y**(": 9491,
      "y)*log(": 9492,
      "y)**(sqrt(": 9493,
      "yZ'": 9494,
      "yΑ'": 9495,
      "yΨα": 9496,
      "yB2": 9497,
      "z2": 9498,
      "z6": 9499,
      "zC": 9500,
      "zP": 9501,
      "zo": 9502,
      "zr": 9503,
      "zΝ": 9504,
      "zΣ": 9505,
      "zι": 9506,
      "z)/": 9507,
      "z8,": 9508,
      "zr'": 9509,
      "z**(": 9510,
      "z6'": 9511,
      "zr,": 9512,
      "zΖι": 9513,
      "zΣψ": 9514,
      "Αw": 9515,
      "ΑΤ": 9516,
      "Αα": 9517,
      "Ασ": 9518,
      "Αv'": 9519,
      "ΑΤ'": 9520,
      "Αg'": 9521,
      "Αx'": 9522,
      "Αi'": 9523,
      "Α)),": 9524,
      "ΑS'": 9525,
      "Α*log(": 9526,
      "ΑH,": 9527,
      "ΑCΨ": 9528,
      "Β/": 9529,
      "ΒΘ": 9530,
      "Βζ": 9531,
      "Βι": 9532,
      "Βξ": 9533,
      "Βψ": 9534,
      "Βι'": 9535,
      "ΒG'": 9536,
      "Βd'": 9537,
      "ΒA'": 9538,
      "ΒP'": 9539,
      "ΒΤ'": 9540,
      "ΒW'": 9541,
      "Βf'": 9542,
      "ΒΤ,": 9543,
      "Β)/3,": 9544,
      "Βd)))": 9545,
      "ΒυK": 9546,
      "ΓY": 9547,
      "Γp": 9548,
      "Γt": 9549,
      "ΓΠ": 9550,
      "Γv'": 9551,
      "Γm'": 9552,
      "Γρ'": 9553,
      "Γη'": 9554,
      "ΓΛ'": 9555,
      "Γt'": 9556,
      "ΓB'": 9557,
      "Γ)**log(": 9558,
      "Γω'": 9559,
      "Γ**(log(": 9560,
      "ΓLΧ": 9561,
      "Γγι": 9562,
      "ΓbΘ": 9563,
      "Δ*": 9564,
      "Δ/": 9565,
      "Δ3": 9566,
      "Δ6": 9567,
      "ΔE": 9568,
      "ΔQ": 9569,
      "Δq": 9570,
      "ΔΑ": 9571,
      "ΔΓ": 9572,
      "ΔΘ": 9573,
      "Δη": 9574,
      "Δε'": 9575,
      "ΔΛ'": 9576,
      "ΔΥ'": 9577,
      "ΔΘ'": 9578,
      "Δγ'": 9579,
      "ΔH'": 9580,
      "ΔI'": 9581,
      "ΔQ'": 9582,
      "Δ1'": 9583,
      "Δ)/(": 9584,
      "ΔΘ,": 9585,
      "Δο,": 9586,
      "ΔLr": 9587,
      "Δnσ": 9588,
      "ΔκE": 9589,
      "Ε9": 9590,
      "ΕM": 9591,
      "Εp": 9592,
      "ΕΟ": 9593,
      "ΕΨ": 9594,
      "Εγ": 9595,
      "ΕR'": 9596,
      "ΕD'": 9597,
      "ΕΖ'": 9598,
      "ΕU'": 9599,
      "Ε**(": 9600,
      "Ε)/sqrt(": 9601,
      "Ε)**log(": 9602,
      "ΕΚ'": 9603,
      "Ε5'": 9604,
      "Ε/2)*": 9605,
      "Ζ8": 9606,
      "ΖM": 9607,
      "Ζz": 9608,
      "ΖΖ": 9609,
      "ΖΦ": 9610,
      "Ζτ": 9611,
      "ΖΙ'": 9612,
      "ΖK'": 9613,
      "ΖM'": 9614,
      "Ζψ'": 9615,
      "ΖO'": 9616,
      "Ζ)**log(": 9617,
      "Ζ*log(": 9618,
      "Ζ8'": 9619,
      "ΖΑ'": 9620,
      "ΖK))": 9621,
      "Ζo,": 9622,
      "Ζa,": 9623,
      "Ζu)": 9624,
      "Ζo)))": 9625,
      "ΖΩτ": 9626,
      "ΗU": 9627,
      "Ηx": 9628,
      "Ηι'": 9629,
      "Ηβ'": 9630,
      "Ημ'": 9631,
      "Η)*log(": 9632,
      "ΗI'": 9633,
      "ΗN,": 9634,
      "ΗΓη": 9635,
      "Θ/": 9636,
      "Θ1": 9637,
      "ΘN": 9638,
      "ΘX": 9639,
      "Θc": 9640,
      "ΘΗ": 9641,
      "ΘΠ": 9642,
      "Θζ": 9643,
      "Θλ": 9644,
      "Θμ": 9645,
      "Θη'": 9646,
      "Θμ'": 9647,
      "Θ)*log(": 9648,
      "Θ)/log(": 9649,
      "ΘN'": 9650,
      "Θμ,": 9651,
      "Θη,": 9652,
      "ΘGk": 9653,
      "ΘaΝ": 9654,
      "ΘζB": 9655,
      "Ι9": 9656,
      "ΙA": 9657,
      "Ιj": 9658,
      "ΙΓ": 9659,
      "Ιζ": 9660,
      "Ιλ": 9661,
      "Ιν": 9662,
      "Ιβ'": 9663,
      "ΙC'": 9664,
      "ΙΧ'": 9665,
      "Ιi'": 9666,
      "Ιj'": 9667,
      "Ιζ'": 9668,
      "Ι)*log(": 9669,
      "ΙN'": 9670,
      "ΙE'": 9671,
      "Ι8'": 9672,
      "Ιε,": 9673,
      "Ιφι": 9674,
      "Ιψp": 9675,
      "Ι**8)*": 9676,
      "ΙIΧ": 9677,
      "ΙχH": 9678,
      "Κ5": 9679,
      "Κ6": 9680,
      "ΚO": 9681,
      "ΚΥ": 9682,
      "Κγ": 9683,
      "Κκ": 9684,
      "Κ)**(": 9685,
      "Κκ'": 9686,
      "Κw'": 9687,
      "ΚΥ'": 9688,
      "ΚJ'": 9689,
      "Κ)*log(": 9690,
      "Κ)/log(": 9691,
      "Κ1'": 9692,
      "Κω'": 9693,
      "ΚΣ,": 9694,
      "ΚΠ,": 9695,
      "Κκ,": 9696,
      "ΚΖs": 9697,
      "ΛX": 9698,
      "Λi": 9699,
      "Λv": 9700,
      "Λλ'": 9701,
      "Λc'": 9702,
      "ΛΓ'": 9703,
      "Λw'": 9704,
      "Λ**(": 9705,
      "ΛH'": 9706,
      "Λδ'": 9707,
      "Λa,": 9708,
      "Λ**5)": 9709,
      "Λiω": 9710,
      "Μ6": 9711,
      "ΜE": 9712,
      "ΜG": 9713,
      "ΜI": 9714,
      "Μf": 9715,
      "Μw": 9716,
      "ΜΞ": 9717,
      "ΜΧ": 9718,
      "Με": 9719,
      "Μκ": 9720,
      "Μμ": 9721,
      "Μξ": 9722,
      "ΜΧ'": 9723,
      "ΜT'": 9724,
      "Μμ'": 9725,
      "ΜΞ'": 9726,
      "ΜΠ'": 9727,
      "Μf'": 9728,
      "Μ6'": 9729,
      "Μμ,": 9730,
      "ΝG": 9731,
      "ΝJ": 9732,
      "ΝN": 9733,
      "Νu": 9734,
      "Νy": 9735,
      "ΝΞ": 9736,
      "Νλ": 9737,
      "Νμ": 9738,
      "Νξ'": 9739,
      "Νu'": 9740,
      "ΝΦ'": 9741,
      "Νσ'": 9742,
      "Νf'": 9743,
      "Ν)),": 9744,
      "Ν7'": 9745,
      "Νf))": 9746,
      "ΝIΡ": 9747,
      "ΝOΘ": 9748,
      "ΝQw": 9749,
      "Ξ2": 9750,
      "ΞK": 9751,
      "ΞL": 9752,
      "Ξi": 9753,
      "Ξp": 9754,
      "Ξr": 9755,
      "Ξy": 9756,
      "ΞΜ": 9757,
      "ΞΧ": 9758,
      "ΞΨ": 9759,
      "Ξι": 9760,
      "Ξυ": 9761,
      "ΞΙ'": 9762,
      "Ξρ'": 9763,
      "Ξi'": 9764,
      "Ξy'": 9765,
      "ΞΜ'": 9766,
      "Ξ**(sqrt(": 9767,
      "ΞΙ,": 9768,
      "Ξi,": 9769,
      "Ξy)": 9770,
      "ΟP": 9771,
      "Οg": 9772,
      "Οι": 9773,
      "Οψ": 9774,
      "ΟΓ'": 9775,
      "Οτ'": 9776,
      "ΟU'": 9777,
      "Οξ'": 9778,
      "Οr'": 9779,
      "Ο**(": 9780,
      "Ο)/log(": 9781,
      "Ο7'": 9782,
      "ΟΚ'": 9783,
      "Οξ,": 9784,
      "ΟΓ)": 9785,
      "Ο8Α": 9786,
      "Π7": 9787,
      "Π8": 9788,
      "ΠO": 9789,
      "ΠV": 9790,
      "Πh": 9791,
      "Πm": 9792,
      "ΠΙ": 9793,
      "ΠΛ": 9794,
      "ΠΦ": 9795,
      "ΠΒ'": 9796,
      "ΠΙ'": 9797,
      "ΠΞ'": 9798,
      "ΠΦ'": 9799,
      "Π)*log(": 9800,
      "Π)/log(": 9801,
      "ΠE'": 9802,
      "Π1'": 9803,
      "Πoλ": 9804,
      "ΠJφ": 9805,
      "Πk1": 9806,
      "Ρ1": 9807,
      "Ρ6": 9808,
      "ΡF": 9809,
      "ΡN": 9810,
      "ΡV": 9811,
      "Ρo": 9812,
      "ΡΑ": 9813,
      "ΡΕ": 9814,
      "ΡΗ": 9815,
      "Ρν": 9816,
      "Ρ1,": 9817,
      "Ρ2,": 9818,
      "Ρλ'": 9819,
      "ΡL'": 9820,
      "ΡΙ'": 9821,
      "ΡΩ'": 9822,
      "Ρμ'": 9823,
      "ΡΕ'": 9824,
      "Ρ)*log(": 9825,
      "ΡI'": 9826,
      "Ρ1'": 9827,
      "ΡΩ,": 9828,
      "ΡLt": 9829,
      "Σ2": 9830,
      "Σ5": 9831,
      "Σh": 9832,
      "Σr": 9833,
      "ΣΦ": 9834,
      "ΣΨ": 9835,
      "Σχ": 9836,
      "Σ2,": 9837,
      "Σo'": 9838,
      "Σr'": 9839,
      "Σy'": 9840,
      "Σσ'": 9841,
      "Σ**(": 9842,
      "Σ)/log(": 9843,
      "Σ)**(sqrt(": 9844,
      "Σ2'": 9845,
      "Σr,": 9846,
      "ΤR": 9847,
      "Τi": 9848,
      "ΤΓ": 9849,
      "ΤΝ": 9850,
      "Τ)**": 9851,
      "Τ**": 9852,
      "ΤR'": 9853,
      "ΤA'": 9854,
      "ΤΥ'": 9855,
      "Τ)/log(": 9856,
      "Τ)**(sqrt(": 9857,
      "Τ)/2),": 9858,
      "Τδ,": 9859,
      "Τ/2)": 9860,
      "Τ9k": 9861,
      "ΤiC": 9862,
      "ΥΒ'": 9863,
      "Υλ'": 9864,
      "Υn'": 9865,
      "ΥΞ'": 9866,
      "Υ)),": 9867,
      "ΥN'": 9868,
      "Υ)*sqrt(": 9869,
      "Υr)": 9870,
      "Φμ": 9871,
      "Φτ": 9872,
      "ΦΒ'": 9873,
      "Φτ'": 9874,
      "ΦU'": 9875,
      "Φk'": 9876,
      "ΦΜ'": 9877,
      "Φ)**log(": 9878,
      "Φξ,": 9879,
      "Φτ,": 9880,
      "Φ/sqrt(": 9881,
      "Χ5": 9882,
      "ΧS": 9883,
      "Χa": 9884,
      "ΧΙ": 9885,
      "Χα": 9886,
      "Χζ": 9887,
      "Χη": 9888,
      "Χψ": 9889,
      "Χ**": 9890,
      "Χλ'": 9891,
      "Χη'": 9892,
      "Χi'": 9893,
      "Χζ'": 9894,
      "Χk'": 9895,
      "Χ)),": 9896,
      "Χ)**log(": 9897,
      "Χ4'": 9898,
      "Χ9)": 9899,
      "Χ**(sqrt(": 9900,
      "ΧKJ": 9901,
      "ΧSA": 9902,
      "Χqρ": 9903,
      "ΧpΡ": 9904,
      "ΨK": 9905,
      "ΨΕ": 9906,
      "ΨΘ": 9907,
      "ΨK'": 9908,
      "Ψo'": 9909,
      "ΨΗ'": 9910,
      "Ψ)*log(": 9911,
      "ΨQ'": 9912,
      "Ψ)**log(": 9913,
      "Ψ)/2),": 9914,
      "ΨK,": 9915,
      "ΨΑΣ": 9916,
      "ΨAΕ": 9917,
      "Ωt": 9918,
      "Ωz": 9919,
      "ΩΖ": 9920,
      "ΩΘ": 9921,
      "ΩΝ": 9922,
      "ΩΠ": 9923,
      "Ωα": 9924,
      "Ωλ'": 9925,
      "Ωc'": 9926,
      "ΩD'": 9927,
      "Ωq'": 9928,
      "ΩΔ'": 9929,
      "ΩP'": 9930,
      "ΩΝ'": 9931,
      "Ωy'": 9932,
      "Ωu'": 9933,
      "Ω)*log(": 9934,
      "Ω)*sqrt(": 9935,
      "ΩmV": 9936,
      "αr": 9937,
      "αθ": 9938,
      "α)**(": 9939,
      "αθ'": 9940,
      "αh'": 9941,
      "αw'": 9942,
      "αχ'": 9943,
      "αo'": 9944,
      "αj'": 9945,
      "αr'": 9946,
      "α)*log(": 9947,
      "α)**log(": 9948,
      "αZ'": 9949,
      "αj,": 9950,
      "αr,": 9951,
      "ασz": 9952,
      "αΡy": 9953,
      "αvM": 9954,
      "αζκ": 9955,
      "αΧh": 9956,
      "β2": 9957,
      "βF": 9958,
      "βL": 9959,
      "βR": 9960,
      "βv": 9961,
      "βw": 9962,
      "βΝ": 9963,
      "βδ": 9964,
      "βζ": 9965,
      "βτ": 9966,
      "βR'": 9967,
      "βL'": 9968,
      "βi'": 9969,
      "βk'": 9970,
      "βΘ'": 9971,
      "βΑ'": 9972,
      "βR,": 9973,
      "βXx": 9974,
      "γ5": 9975,
      "γC": 9976,
      "γΝ": 9977,
      "γη": 9978,
      "γ)**": 9979,
      "γz'": 9980,
      "γΘ'": 9981,
      "γΑ'": 9982,
      "γ5'": 9983,
      "γφ)))": 9984,
      "γNG": 9985,
      "γgΩ": 9986,
      "δ2": 9987,
      "δA": 9988,
      "δS": 9989,
      "δυ": 9990,
      "δω": 9991,
      "δλ'": 9992,
      "δΛ'": 9993,
      "δΘ'": 9994,
      "δ)/sqrt(": 9995,
      "δΘ,": 9996,
      "δ4δ": 9997,
      "δω3": 9998,
      "δu2": 9999
    },
    "merges": [
      [
        "m",
        "l"
      ],
      [
        ":",
        "m"
      ],
      [
        "m",
        "ml"
      ],
      [
        "mml",
        ":m"
      ],
      [
        "/",
        "mml:m"
      ],
      [
        "<",
        "/mml:m"
      ],
      [
        "<",
        "mml:m"
      ],
      [
        "i",
        ">"
      ],
      [
        "r",
        "o"
      ],
      [
        "w",
        ">"
      ],
      [
        "ro",
        "w>"
      ],
      [
        "</mml:m",
        "i>"
      ],
      [
        "<mml:m",
        "i>"
      ],
      [
        "o",
        ">"
      ],
      [
        "</mml:m",
        "row>"
      ],
      [
        "<mml:m",
        "row>"
      ],
      [
        "s",
        "u"
      ],
      [
        "y",
        "m"
      ],
      [
        "b",
        "o"
      ],
      [
        "S",
        "ym"
      ],
      [
        "bo",
        "l"
      ],
      [
        "Sym",
        "bol"
      ],
      [
        "c",
        "e"
      ],
      [
        "d",
        ">"
      ],
      [
        "e",
        "n"
      ],
      [
        "f",
        "en"
      ],
      [
        "ce",
        "d>"
      ],
      [
        "fen",
        "ced>"
      ],
      [
        "su",
        "b"
      ],
      [
        "sub",
        ">"
      ],
      [
        "</mml:m",
        "o>"
      ],
      [
        "<mml:m",
        "o>"
      ],
      [
        "n",
        ">"
      ],
      [
        "</mml:m",
        "fenced>"
      ],
      [
        "<mml:m",
        "fenced>"
      ],
      [
        "p",
        ">"
      ],
      [
        "su",
        "p>"
      ],
      [
        "</mml:m",
        "sub>"
      ],
      [
        "<mml:m",
        "sub>"
      ],
      [
        "r",
        "a"
      ],
      [
        "e",
        "x"
      ],
      [
        "t",
        ">"
      ],
      [
        ")",
        ")"
      ],
      [
        "c",
        ">"
      ],
      [
        "f",
        "ra"
      ],
      [
        "fra",
        "c>"
      ],
      [
        "E",
        "q"
      ],
      [
        "</mml:m",
        "n>"
      ],
      [
        "<mml:m",
        "n>"
      ],
      [
        "q",
        "r"
      ],
      [
        "s",
        "qr"
      ],
      [
        "</mml:m",
        "sup>"
      ],
      [
        "<mml:m",
        "sup>"
      ],
      [
        "t",
        "ex"
      ],
      [
        "tex",
        "t>"
      ],
      [
        "ex",
        "p"
      ],
      [
        "o",
        "s"
      ],
      [
        "c",
        "os"
      ],
      [
        "t",
        "a"
      ],
      [
        "ta",
        "n"
      ],
      [
        "i",
        "n"
      ],
      [
        "s",
        "in"
      ],
      [
        "o",
        "g"
      ],
      [
        "l",
        "og"
      ],
      [
        "e",
        "r"
      ],
      [
        "</mml:m",
        "frac>"
      ],
      [
        "<mml:m",
        "frac>"
      ],
      [
        "sqr",
        "t>"
      ],
      [
        ")",
        "*"
      ],
      [
        ")",
        ","
      ],
      [
        "u",
        "n"
      ],
      [
        "v",
        "er"
      ],
      [
        "ver",
        ">"
      ],
      [
        "d",
        "e"
      ],
      [
        "ro",
        "ver>"
      ],
      [
        "un",
        "de"
      ],
      [
        "unde",
        "rover>"
      ],
      [
        "i",
        "v"
      ],
      [
        "</mml:m",
        "text>"
      ],
      [
        "<mml:m",
        "text>"
      ],
      [
        "log",
        "("
      ],
      [
        "))",
        ")"
      ],
      [
        "t",
        "("
      ],
      [
        "</mml:m",
        "sqrt>"
      ],
      [
        "<mml:m",
        "sqrt>"
      ],
      [
        "sqr",
        "t("
      ],
      [
        ")",
        "/"
      ],
      [
        ")*",
        "*"
      ],
      [
        "l",
        "("
      ],
      [
        "S",
        "u"
      ],
      [
        "m",
        "("
      ],
      [
        "</mml:m",
        "underover>"
      ],
      [
        "<mml:m",
        "underover>"
      ],
      [
        "Su",
        "m("
      ],
      [
        "a",
        "t"
      ],
      [
        "I",
        "n"
      ],
      [
        "e",
        "g"
      ],
      [
        "t",
        "eg"
      ],
      [
        "ra",
        "l("
      ],
      [
        "In",
        "teg"
      ],
      [
        "Integ",
        "ral("
      ],
      [
        "D",
        "er"
      ],
      [
        "e",
        "("
      ],
      [
        "iv",
        "at"
      ],
      [
        "iv",
        "e("
      ],
      [
        "Der",
        "ivat"
      ],
      [
        "Derivat",
        "ive("
      ],
      [
        "sub",
        "sup>"
      ],
      [
        "*",
        "*"
      ],
      [
        "</mml:m",
        "subsup>"
      ],
      [
        "<mml:m",
        "subsup>"
      ],
      [
        "g",
        "_"
      ],
      [
        "4",
        ","
      ],
      [
        "8",
        ","
      ],
      [
        "Β",
        "_"
      ],
      [
        "ξ",
        "_"
      ],
      [
        "9",
        ","
      ],
      [
        "H",
        "_"
      ],
      [
        "1",
        ","
      ],
      [
        "5",
        ","
      ],
      [
        "2",
        ","
      ],
      [
        "C",
        "_"
      ],
      [
        "ε",
        "_"
      ],
      [
        "7",
        ","
      ],
      [
        "s",
        "_"
      ],
      [
        "Λ",
        "_"
[...]
